[PAD]	0
[UNK]	0
[BOS]	0
[EOS],	0
.	-2.85964
▁you	-3.34654
,	-3.54859
▁i	-3.72175
▁to	-3.72238
▁a	-3.98584
▁it	-4.06392
▁and	-4.0775
▁the	-4.0835
▁is	-4.18797
'	-4.20768
▁that	-4.30885
▁not	-4.38437
▁if	-4.45144
▁do	-4.68642
▁he	-4.68901
▁are	-4.72232
t	-4.75607
▁be	-4.80263
▁with	-4.80429
▁of	-4.8401
s	-4.85093
▁him	-4.86086
▁have	-4.86589
▁in	-4.88566
▁your	-4.89977
▁her	-4.91993
?	-4.93116
▁for	-5.01581
▁like	-5.0568
!	-5.12696
▁	-5.15823
▁but	-5.16527
▁just	-5.18128
▁she	-5.22326
▁what	-5.28319
▁me	-5.28718
▁on	-5.28811
▁love	-5.32233
▁my	-5.34979
▁they	-5.39015
▁will	-5.40474
▁or	-5.48475
▁can	-5.508
▁don	-5.54383
▁then	-5.56088
▁know	-5.57454
▁would	-5.59669
▁u	-5.60482
▁get	-5.60857
▁this	-5.62276
▁about	-5.64656
▁out	-5.67342
▁want	-5.67533
▁should	-5.69289
...	-5.70315
▁think	-5.70903
▁so	-5.71773
▁no	-5.75537
▁there	-5.8024
▁one	-5.83445
▁as	-5.84707
▁go	-5.87917
▁all	-5.91809
▁am	-5.92873
▁when	-5.94212
▁because	-5.98549
▁ask	-5.99843
▁at	-6.01606
▁good	-6.02849
▁them	-6.02946
▁tell	-6.03828
▁how	-6.05799
▁up	-6.08564
▁some	-6.10984
▁guy	-6.11871
▁time	-6.13022
▁men	-6.1453
▁who	-6.14657
▁was	-6.16135
▁really	-6.17215
▁say	-6.19465
▁we	-6.21023
▁man	-6.24907
▁girl	-6.26187
▁women	-6.31918
▁why	-6.33245
▁make	-6.3339
▁his	-6.34813
▁way	-6.35069
▁find	-6.36805
▁someone	-6.3725
▁does	-6.37684
▁too	-6.3775
▁guys	-6.38503
ing	-6.38514
▁more	-6.38699
▁other	-6.39828
▁dont	-6.42123
▁well	-6.42831
▁sex	-6.44804
▁friends	-6.45676
▁only	-6.46048
▁people	-6.47812
▁person	-6.4981
▁friend	-6.50156
▁need	-6.50843
▁try	-6.51258
▁first	-6.55747
▁an	-6.5694
▁girls	-6.58528
▁best	-6.5973
▁see	-6.59843
▁life	-6.60731
▁yes	-6.61015
▁has	-6.61037
-	-6.63363
▁feel	-6.63491
▁always	-6.63959
m	-6.65549
▁from	-6.66238
▁things	-6.66883
▁yourself	-6.69177
▁give	-6.71282
▁right	-6.71979
▁let	-6.72461
▁something	-6.73276
▁never	-6.73604
▁much	-6.74391
▁now	-6.75377
▁relationship	-6.77343
▁did	-6.77848
▁married	-6.7811
▁even	-6.78365
▁take	-6.81493
re	-6.82383
▁very	-6.82957
▁could	-6.82957
▁than	-6.84044
▁look	-6.86518
▁most	-6.86801
▁still	-6.87474
▁its	-6.88437
▁talk	-6.88704
▁woman	-6.89031
▁thing	-6.89119
▁back	-6.89836
▁any	-6.90177
▁their	-6.92461
▁mean	-6.97749
▁going	-6.99579
▁may	-6.99906
▁nice	-7.00182
▁(	-7.01076
d	-7.01495
▁had	-7.01688
▁maybe	-7.03295
▁over	-7.04045
▁sure	-7.0432
▁both	-7.04416
▁question	-7.04961
ll	-7.05016
▁better	-7.06402
▁by	-7.06949
▁believe	-7.08418
▁being	-7.11144
▁date	-7.11187
▁bad	-7.12473
▁same	-7.13322
▁work	-7.14096
▁answer	-7.15028
▁years	-7.17935
▁ur	-7.1819
▁been	-7.185
▁boyfriend	-7.19431
▁wrong	-7.21583
▁care	-7.21841
e	-7.22623
▁old	-7.2354
▁keep	-7.23855
▁looking	-7.24148
;	-7.24418
▁long	-7.24471
ed	-7.2448
▁ever	-7.24747
▁might	-7.25086
▁after	-7.2518
▁please	-7.26326
▁depends	-7.26764
▁also	-7.27443
▁were	-7.27476
▁"	-7.27714
▁anything	-7.27967
)	-7.28734
▁wait	-7.29017
▁lot	-7.29317
▁around	-7.29672
▁two	-7.29782
▁fun	-7.2999
▁else	-7.30459
▁doesn	-7.31506
▁likes	-7.32196
▁many	-7.32847
▁matter	-7.33354
▁move	-7.35078
/	-7.35173
▁help	-7.35973
▁once	-7.36143
▁wants	-7.36862
▁said	-7.38481
i	-7.38984
▁2	-7.39296
▁trust	-7.39618
▁before	-7.39721
!!	-7.39939
▁happy	-7.40748
▁off	-7.41319
▁day	-7.41389
▁got	-7.4145
▁enjoy	-7.41486
▁come	-7.41761
▁hard	-7.42759
▁im	-7.42803
▁age	-7.43093
▁probably	-7.43503
▁another	-7.44472
▁luck	-7.44936
▁doing	-7.47196
▁great	-7.47941
▁again	-7.48206
▁wife	-7.49104
▁leave	-7.50241
y	-7.52436
:	-7.5314
▁nothing	-7.54373
▁hope	-7.55
▁interested	-7.55194
▁where	-7.55218
▁call	-7.56665
▁until	-7.56769
▁girlfriend	-7.57354
▁young	-7.57917
▁having	-7.58568
▁start	-7.58733
▁stop	-7.60336
▁says	-7.60368
▁little	-7.61131
....	-7.61515
ve	-7.62323
▁true	-7.62942
▁though	-7.63166
▁use	-7.63866
ly	-7.64366
▁however	-7.6605
▁either	-7.66587
▁loves	-7.67147
▁big	-7.6778
▁hurt	-7.68047
▁anyone	-7.68559
▁feelings	-7.69601
n	-7.70481
▁together	-7.70531
▁-	-7.71763
▁while	-7.7189
▁new	-7.72306
▁attractive	-7.72805
▁mind	-7.73026
▁away	-7.7375
▁cannot	-7.742
▁problem	-7.74353
▁dating	-7.75525
▁must	-7.7587
▁own	-7.76711
▁into	-7.77116
▁here	-7.77495
▁down	-7.78047
▁us	-7.78115
▁kiss	-7.78257
▁already	-7.78293
▁each	-7.80004
▁husband	-7.80014
▁ok	-7.80022
▁asking	-7.80668
▁worry	-7.80819
▁getting	-7.81043
▁reason	-7.81832
▁marriage	-7.82361
▁heart	-7.82441
!!!	-7.82639
▁simply	-7.82853
▁stay	-7.83019
▁b	-7.83477
▁kind	-7.84389
▁unless	-7.84723
▁cheat	-7.85358
▁break	-7.8624
▁ex	-7.87148
▁understand	-7.87183
▁end	-7.87659
▁without	-7.87673
▁cheating	-7.88161
▁r	-7.8874
▁enough	-7.89488
a	-7.9121
▁worth	-7.91607
▁money	-7.91786
▁real	-7.91904
▁forget	-7.92146
▁thats	-7.92181
▁sounds	-7.92476
▁looks	-7.9344
▁gay	-7.94302
▁every	-7.95123
▁trying	-7.95208
▁put	-7.95601
▁show	-7.95605
▁sometimes	-7.95757
▁year	-7.96355
▁told	-7.97651
▁everything	-7.98421
▁makes	-7.99177
▁means	-7.99307
..	-7.99742
▁w	-8.00028
▁meet	-8.01222
▁situation	-8.01839
▁talking	-8.01933
▁remember	-8.01983
▁become	-8.02026
▁different	-8.02094
com	-8.02415
▁spend	-8.0259
▁1	-8.02747
▁didn	-8.02893
▁guess	-8.0334
▁which	-8.03942
▁those	-8.04262
▁boy	-8.04738
▁thinking	-8.05271
▁live	-8.0529
▁last	-8.05997
▁myself	-8.07371
▁school	-8.07662
▁marry	-8.07828
▁times	-8.07854
▁&	-8.08262
▁act	-8.09275
▁won	-8.09327
▁self	-8.0996
▁least	-8.10011
▁happen	-8.10142
▁family	-8.10452
▁such	-8.10457
▁isn	-8.10782
▁kids	-8.109
▁honest	-8.11243
▁yet	-8.11541
▁sexual	-8.11655
▁chance	-8.11827
▁everyone	-8.11871
▁perhaps	-8.13456
▁place	-8.13545
▁home	-8.13569
▁wouldn	-8.14042
▁sorry	-8.14308
▁boys	-8.15488
▁since	-8.15547
▁prefer	-8.15939
▁hot	-8.16266
▁actually	-8.16835
▁hang	-8.16883
▁pick	-8.17231
▁saying	-8.17338
▁ready	-8.18199
▁found	-8.1829
▁advice	-8.1856
▁eyes	-8.1859
▁our	-8.18902
▁others	-8.18964
▁course	-8.19244
▁important	-8.19254
▁asked	-8.1932
▁thought	-8.20224
▁listen	-8.21146
and	-8.21202
▁oh	-8.21643
▁seems	-8.21704
▁yahoo	-8.22903
▁possible	-8.23104
▁pretty	-8.23126
▁play	-8.23447
▁consider	-8.23562
▁questions	-8.23816
▁next	-8.24145
▁name	-8.24174
▁able	-8.24642
▁alone	-8.24678
▁male	-8.24849
▁wish	-8.25445
▁alot	-8.25663
▁truly	-8.25745
▁female	-8.26114
▁sexy	-8.26131
▁yeah	-8.26646
▁4	-8.2672
▁older	-8.26928
▁hate	-8.26988
▁later	-8.27638
▁agree	-8.28152
"	-8.28753
▁ya	-8.29077
r	-8.29079
▁stupid	-8.29824
▁seem	-8.30588
▁buy	-8.30862
▁hair	-8.30982
▁cause	-8.31364
▁partner	-8.31414
▁change	-8.31496
▁these	-8.31625
▁idea	-8.32073
▁god	-8.32388
▁type	-8.3239
▁phone	-8.32509
▁choose	-8.3251
▁turn	-8.32946
▁easy	-8.32964
▁baby	-8.32981
▁hey	-8.32996
▁children	-8.33182
▁feels	-8.33869
▁single	-8.34825
▁read	-8.35397
▁done	-8.36273
▁shy	-8.3684
▁stuff	-8.37661
▁:)	-8.38821
▁attracted	-8.38831
er	-8.39363
▁flirt	-8.40211
▁email	-8.40919
▁works	-8.41625
▁needs	-8.42165
▁watch	-8.42453
▁special	-8.42722
▁lol	-8.42791
▁doesnt	-8.42929
▁between	-8.43149
▁send	-8.43471
▁experience	-8.43593
▁opinion	-8.43703
▁mother	-8.43762
you	-8.44125
▁head	-8.44222
▁whatever	-8.44305
▁funny	-8.44758
▁anyway	-8.4476
▁cant	-8.44868
▁difficult	-8.44939
▁fall	-8.44956
▁number	-8.45001
▁anymore	-8.45074
▁feeling	-8.45188
it	-8.4609
▁often	-8.46414
▁okay	-8.46733
▁met	-8.46765
▁close	-8.47175
▁through	-8.47672
▁used	-8.4783
▁hell	-8.47877
▁walk	-8.47985
▁deal	-8.48925
▁wanted	-8.48987
▁likely	-8.49268
▁mom	-8.50089
▁romantic	-8.50363
▁world	-8.51077
▁child	-8.51474
yahoo	-8.51535
▁lose	-8.517
▁made	-8.51838
▁goes	-8.52309
▁happens	-8.52312
▁speak	-8.52361
▁loved	-8.52827
▁beautiful	-8.53048
▁serious	-8.53457
▁aren	-8.53569
▁3	-8.54085
▁movie	-8.54191
▁usually	-8.54213
▁wanna	-8.54569
▁knows	-8.54811
▁learn	-8.54856
o	-8.55135
▁cheated	-8.55375
▁parents	-8.55378
▁treat	-8.55503
▁fine	-8.55922
▁afraid	-8.55976
▁bit	-8.56066
▁night	-8.5607
▁gets	-8.56214
▁few	-8.57429
▁point	-8.5817
but	-8.59485
▁body	-8.60177
▁bed	-8.60194
▁lie	-8.60457
▁shouldn	-8.60503
▁comes	-8.60852
in	-8.60948
▁size	-8.61206
▁soon	-8.6124
▁part	-8.61307
▁face	-8.61329
▁desire	-8.61464
▁run	-8.61714
▁n	-8.62065
▁similar	-8.62649
▁making	-8.63523
▁gonna	-8.63836
▁wont	-8.63848
▁ones	-8.64182
▁mad	-8.65587
▁attention	-8.66226
if	-8.66369
▁respect	-8.6653
??	-8.66599
▁chat	-8.6666
▁rest	-8.66938
th	-8.67025
es	-8.67071
▁sound	-8.67188
▁sister	-8.67522
▁three	-8.67838
▁crazy	-8.67849
▁smile	-8.67858
▁wedding	-8.6835
▁high	-8.68542
▁etc	-8.68799
▁cuz	-8.69213
▁personality	-8.69474
▁hand	-8.69751
▁t	-8.69879
▁heard	-8.70055
▁far	-8.70153
▁telling	-8.70192
▁happened	-8.70403
▁straight	-8.7047
▁cares	-8.71452
▁suggest	-8.71476
▁waiting	-8.71705
▁mature	-8.71876
▁cute	-8.72452
▁normal	-8.72785
▁longer	-8.72966
."	-8.73108
▁father	-8.73415
▁words	-8.74167
▁problems	-8.74257
).	-8.74463
▁small	-8.74531
▁contact	-8.74555
▁online	-8.74604
or	-8.75037
▁past	-8.75197
▁...	-8.75615
▁lots	-8.75645
▁internet	-8.75835
▁continue	-8.75933
▁thinks	-8.76068
▁fact	-8.7649
▁open	-8.77012
▁job	-8.77364
▁friendship	-8.77854
▁went	-8.78418
▁flirting	-8.78743
▁second	-8.78762
▁comfortable	-8.79424
he	-8.79588
▁certain	-8.79828
▁rather	-8.79869
▁especially	-8.8001
▁flowers	-8.80055
▁wonder	-8.80217
▁definitely	-8.80363
▁less	-8.80685
▁left	-8.80778
▁cool	-8.80906
▁months	-8.81138
▁control	-8.81598
▁perfect	-8.81739
▁called	-8.82007
▁careful	-8.82116
▁willing	-8.82226
▁days	-8.82744
▁cheater	-8.82994
▁hear	-8.83029
▁bf	-8.83287
▁realize	-8.83486
▁wear	-8.83632
▁brother	-8.83875
▁house	-8.84319
▁broke	-8.84445
▁seen	-8.84546
▁instead	-8.84571
▁decide	-8.84675
▁answers	-8.85001
.....	-8.85365
▁case	-8.85403
▁e	-8.8607
(	-8.86324
▁truth	-8.86532
▁mine	-8.86766
▁younger	-8.86805
▁!	-8.8684
▁free	-8.87026
▁dump	-8.87309
▁s	-8.87487
▁strong	-8.87965
▁intercourse	-8.87973
▁tried	-8.88485
▁quite	-8.88612
▁5	-8.88672
l	-8.88713
▁dad	-8.88868
▁simple	-8.89176
▁kinda	-8.89373
▁hi	-8.89535
▁gave	-8.91018
▁sweet	-8.91488
▁lady	-8.9193
▁bother	-8.92652
▁deserve	-8.92908
▁unfaithful	-8.93058
▁correct	-8.93479
▁aware	-8.93598
▁week	-8.93902
▁short	-8.94159
▁accept	-8.9422
▁pay	-8.94357
▁gift	-8.94472
▁jealous	-8.95017
▁attempt	-8.95326
▁future	-8.95617
▁liked	-8.96449
▁relationships	-8.96498
▁knew	-8.96775
▁dinner	-8.96851
▁mistake	-8.96884
her	-8.969
▁allow	-8.97198
▁somebody	-8.97362
▁meant	-8.9737
▁divorce	-8.97544
▁lost	-8.97613
▁side	-8.97984
▁inform	-8.98382
▁sleep	-8.98673
▁issue	-8.98884
no	-8.9916
▁smart	-8.99535
▁information	-9.00101
▁moment	-9.00507
▁ways	-9.0115
▁check	-9.01151
u	-9.01388
▁bring	-9.01461
▁black	-9.01599
▁conversation	-9.01634
▁dude	-9.01663
▁ahead	-9.02047
mail	-9.02667
▁ago	-9.02782
▁during	-9.02934
▁takes	-9.03603
▁personally	-9.03615
▁return	-9.03764
▁females	-9.03893
▁weird	-9.03933
▁obviously	-9.04149
▁eat	-9.04283
▁figure	-9.04382
on	-9.04778
▁sit	-9.04888
▁15	-9.05117
▁decision	-9.05141
▁seeing	-9.05148
▁along	-9.05156
???	-9.05384
▁kissing	-9.05757
▁c	-9.05888
▁late	-9.06373
▁themselves	-9.06487
▁forever	-9.06798
▁follow	-9.07024
the	-9.07105
▁depend	-9.07321
▁honestly	-9.07754
▁fat	-9.08159
▁eye	-9.08271
▁involved	-9.08296
▁scared	-9.08302
......	-9.08347
▁using	-9.08399
▁matters	-9.08605
▁word	-9.08688
▁ring	-9.0895
▁miss	-9.0962
▁18	-9.09815
▁dance	-9.09931
▁choice	-9.10003
▁ugly	-9.10188
▁full	-9.10541
▁d	-9.10728
▁helps	-9.11003
▁pregnant	-9.11361
▁lust	-9.11396
▁significant	-9.11411
▁giving	-9.11456
▁search	-9.11779
▁ha	-9.12302
▁loving	-9.12765
▁virgin	-9.12973
▁five	-9.13073
*	-9.13121
▁tend	-9.13169
▁picture	-9.13194
▁notice	-9.13201
▁share	-9.13209
▁otherwise	-9.13266
▁explain	-9.13717
▁difference	-9.13831
▁movies	-9.13861
▁hold	-9.13902
▁waste	-9.14152
▁large	-9.14401
lol	-9.14402
▁appreciate	-9.14423
▁homosexual	-9.14457
▁couple	-9.1514
▁grade	-9.15228
▁almost	-9.15276
▁un	-9.15788
▁taking	-9.15909
▁line	-9.1616
▁f	-9.16766
▁under	-9.17064
▁car	-9.17278
▁10	-9.17297
▁plenty	-9.17847
▁avoid	-9.17964
▁expect	-9.18195
▁didnt	-9.18246
c	-9.18316
▁exactly	-9.18489
▁sense	-9.18509
▁plus	-9.18676
▁front	-9.19777
▁ladies	-9.19879
▁sad	-9.19953
▁order	-9.19958
▁sort	-9.19997
not	-9.20214
▁m	-9.2023
▁personal	-9.20378
▁pain	-9.20433
!!!!	-9.20456
▁felt	-9.20469
▁easier	-9.20524
▁hello	-9.20599
▁issues	-9.20717
▁worse	-9.2085
just	-9.20906
▁hes	-9.20929
▁approach	-9.21658
h	-9.21731
1	-9.22058
▁playing	-9.22398
▁honey	-9.22684
▁;)	-9.22953
▁fight	-9.2314
▁games	-9.23249
▁sexually	-9.23472
▁wondering	-9.23548
▁started	-9.23616
▁hurts	-9.23786
▁romance	-9.24039
▁totally	-9.24072
p	-9.24177
▁hit	-9.24259
▁trouble	-9.24586
▁ignore	-9.2466
▁set	-9.24822
▁wat	-9.24937
▁whole	-9.24951
▁crush	-9.24996
▁four	-9.25044
k	-9.25056
▁6	-9.25074
▁begin	-9.25349
▁although	-9.25515
▁doubt	-9.26061
▁regret	-9.26131
▁jerk	-9.26215
▁haven	-9.26552
▁write	-9.26832
▁y	-9.26894
▁inside	-9.27127
?"	-9.27337
▁step	-9.27586
▁ruin	-9.2762
▁upset	-9.27663
▁penis	-9.27674
▁worst	-9.27708
▁certainly	-9.27711
▁admit	-9.27874
▁stand	-9.28131
▁twice	-9.28386
▁wow	-9.2868
▁du	-9.28687
▁laugh	-9.28829
▁deep	-9.28847
▁gone	-9.28877
▁dumb	-9.29095
▁confident	-9.29211
▁lover	-9.29226
▁p	-9.29652
▁angry	-9.29881
▁mess	-9.30019
▁dream	-9.30396
▁game	-9.30714
▁seriously	-9.30867
▁appear	-9.30879
▁kid	-9.31101
what	-9.3142
▁g	-9.3178
▁o	-9.31966
▁focus	-9.32773
".	-9.33119
▁grow	-9.33268
do	-9.33466
▁nature	-9.33494
▁physical	-9.33732
she	-9.33831
▁rush	-9.34381
▁actions	-9.34452
▁slow	-9.34481
▁eventually	-9.34542
▁catch	-9.34791
▁message	-9.35426
▁wonderful	-9.35544
▁thank	-9.35612
▁six	-9.35728
▁points	-9.36036
▁lead	-9.3609
▁twenty	-9.36109
▁yours	-9.36137
▁somewhere	-9.36218
▁room	-9.363
▁breasts	-9.36381
that	-9.36568
▁interest	-9.36684
▁strange	-9.36828
st	-9.36977
▁till	-9.37244
▁'	-9.37294
at	-9.37493
▁males	-9.37517
▁wouldnt	-9.37621
▁activity	-9.3773
▁busy	-9.37737
▁rude	-9.37756
▁individual	-9.37863
en	-9.38021
▁h	-9.38047
▁upon	-9.38186
▁discuss	-9.38329
is	-9.38511
▁reasons	-9.38603
▁favorite	-9.3865
▁state	-9.38677
▁fool	-9.38746
▁whom	-9.3884
▁action	-9.38914
▁gentleman	-9.394
▁stick	-9.39405
▁relations	-9.39595
rely	-9.39741
▁sign	-9.4015
▁fast	-9.40212
▁white	-9.40439
▁working	-9.40784
▁imagine	-9.41144
▁:	-9.41354
▁suppose	-9.41766
▁visit	-9.41874
▁completely	-9.41926
▁alright	-9.41945
▁dress	-9.42305
ting	-9.42349
▁half	-9.42819
▁forgive	-9.43017
▁bigger	-9.43682
▁finding	-9.43985
▁remain	-9.44496
hether	-9.44836
▁invite	-9.45267
▁dreams	-9.45345
▁fake	-9.45474
▁came	-9.45563
▁book	-9.4559
se	-9.45861
▁worked	-9.45997
▁yea	-9.46247
▁response	-9.46432
▁20	-9.46489
al	-9.46528
▁wit	-9.46736
▁present	-9.47338
▁club	-9.47415
ought	-9.47671
▁plan	-9.47688
▁tells	-9.47813
nt	-9.47933
▁behind	-9.48213
▁tough	-9.4823
▁towards	-9.48274
▁speaking	-9.48425
▁quit	-9.48452
▁space	-9.49148
▁spouse	-9.49193
▁save	-9.49374
▁list	-9.49427
▁dated	-9.49491
nd	-9.49619
▁gott	-9.49737
▁lucky	-9.4979
▁lives	-9.50002
▁16	-9.50007
to	-9.50078
!)	-9.50673
▁positive	-9.50779
▁relax	-9.50803
▁regardless	-9.50814
▁finally	-9.50851
▁blue	-9.50893
▁lying	-9.51045
able	-9.51197
▁add	-9.51439
▁sick	-9.51454
▁couldn	-9.51822
est	-9.51834
▁hands	-9.52246
▁win	-9.52684
▁apologize	-9.5292
▁wasn	-9.52934
▁huge	-9.52956
▁month	-9.52969
▁express	-9.533
▁re	-9.53471
▁drunk	-9.53618
▁ten	-9.53843
▁th	-9.54521
▁caught	-9.54586
▁living	-9.54623
▁average	-9.54733
▁nobody	-9.54798
▁considered	-9.54799
▁daughter	-9.54852
▁outside	-9.55516
▁amount	-9.55597
▁red	-9.55644
one	-9.55745
▁die	-9.55932
▁throw	-9.56084
▁advise	-9.56326
▁acting	-9.56371
▁pursue	-9.56418
▁places	-9.56507
▁concerned	-9.56596
▁calls	-9.56706
▁appearance	-9.56803
▁ass	-9.57005
▁recommend	-9.57381
▁.	-9.57444
g	-9.5769
▁party	-9.57719
▁*	-9.58052
▁christmas	-9.58524
▁kidding	-9.58554
▁calling	-9.58593
▁college	-9.586
▁ppl	-9.58813
f	-9.59137
▁possibly	-9.59567
▁interesting	-9.5979
▁gifts	-9.59853
▁coming	-9.59864
▁theres	-9.59869
▁kick	-9.6024
▁clear	-9.60395
▁asks	-9.60489
▁join	-9.60492
▁meeting	-9.60502
▁force	-9.6058
▁match	-9.60693
▁watching	-9.61031
▁beat	-9.61079
▁herself	-9.61152
▁receive	-9.61476
▁address	-9.61485
▁available	-9.61611
▁today	-9.62047
▁hanging	-9.62226
▁dear	-9.62509
▁song	-9.62944
▁shes	-9.63071
▁excuse	-9.63078
▁himself	-9.63141
▁porn	-9.63532
▁fell	-9.63534
▁commitment	-9.63681
▁anybody	-9.637
▁saw	-9.63705
▁proceed	-9.63844
▁negative	-9.63979
▁behavior	-9.64013
▁touch	-9.64028
▁casual	-9.64699
▁acceptable	-9.64771
▁common	-9.64861
▁chances	-9.64862
▁confidence	-9.6502
▁lesbian	-9.65157
▁sight	-9.65228
▁boyfriends	-9.65459
▁provide	-9.65764
▁loose	-9.65797
like	-9.65888
then	-9.65895
▁whats	-9.65989
▁isnt	-9.66133
▁girlfriends	-9.6637
▁13	-9.66371
▁mouth	-9.66606
▁rid	-9.66859
▁company	-9.66925
up	-9.66939
▁drink	-9.6704
▁pull	-9.67044
▁emotions	-9.67114
▁given	-9.67569
▁freak	-9.67777
▁thoughts	-9.6787
▁support	-9.68049
▁attract	-9.68055
▁engage	-9.68098
▁drive	-9.68147
▁park	-9.68216
ther	-9.6827
▁affair	-9.68393
▁mate	-9.68759
▁currently	-9.69144
▁gives	-9.69176
w	-9.69231
good	-9.69248
▁exist	-9.69497
▁example	-9.6961
▁style	-9.69627
▁kill	-9.69896
--	-9.69958
▁color	-9.70077
▁class	-9.70077
▁discover	-9.70184
▁business	-9.70237
▁crap	-9.7031
▁popular	-9.7035
▁pretend	-9.70551
▁ended	-9.70631
they	-9.70846
an	-9.70885
▁took	-9.70938
▁supposed	-9.7126
▁intimate	-9.71341
▁quickly	-9.71397
▁coffee	-9.71435
my	-9.71504
▁urself	-9.71653
▁position	-9.7183
▁option	-9.71848
▁fix	-9.72249
▁worried	-9.72527
▁boring	-9.72593
▁missing	-9.72778
▁gf	-9.73034
▁helped	-9.73152
0	-9.73397
▁card	-9.7353
▁luv	-9.73754
▁computer	-9.73776
▁near	-9.73801
▁affection	-9.7413
▁group	-9.74165
▁push	-9.74747
▁impress	-9.74802
▁lunch	-9.74919
▁site	-9.75005
▁cut	-9.75059
▁kissed	-9.75314
▁cousin	-9.75559
▁?	-9.75796
▁fish	-9.75908
▁pass	-9.75971
▁decent	-9.76058
▁above	-9.76061
▁confused	-9.7608
▁forward	-9.7611
▁curious	-9.76141
▁sports	-9.76231
▁bar	-9.76325
▁thanks	-9.76332
▁pleasure	-9.76406
▁8	-9.76633
▁whe	-9.76964
love	-9.77331
▁hide	-9.77398
▁14	-9.77512
▁acts	-9.77609
▁shouldnt	-9.77639
▁wise	-9.77666
▁secret	-9.77694
▁purchase	-9.78334
▁fair	-9.78382
▁jump	-9.78419
▁emotional	-9.78471
▁21	-9.78552
▁against	-9.78766
▁shows	-9.7892
▁feet	-9.79174
▁extreme	-9.79707
▁further	-9.79708
▁public	-9.79713
▁anywhere	-9.79742
▁clothes	-9.79754
▁mention	-9.79802
▁beach	-9.79886
▁lips	-9.79924
▁caring	-9.80078
.)	-9.80091
▁broken	-9.80165
▁handle	-9.80173
▁manner	-9.80176
▁tongue	-9.80194
▁death	-9.80205
▁offer	-9.80606
▁complete	-9.80788
▁respond	-9.8094
▁suck	-9.80941
old	-9.81308
▁besides	-9.81406
▁birthday	-9.81476
▁son	-9.81481
▁website	-9.81506
▁fault	-9.81552
▁food	-9.81712
▁hug	-9.81782
▁sometime	-9.81813
▁weight	-9.81922
▁soul	-9.82121
▁ma	-9.82147
▁safe	-9.82235
▁meaning	-9.82379
▁seek	-9.82572
▁minutes	-9.82656
▁taste	-9.82667
▁test	-9.8268
▁coz	-9.82703
▁answered	-9.83112
don	-9.83313
▁former	-9.83548
▁cheap	-9.83625
▁dates	-9.83774
▁taken	-9.83956
▁roses	-9.84086
▁pray	-9.84463
▁yo	-9.84476
▁clean	-9.84731
▁desperate	-9.84768
▁attitude	-9.84814
▁everyday	-9.8483
▁promise	-9.85284
▁ideas	-9.85428
▁id	-9.85958
▁church	-9.86105
▁opportunity	-9.86124
▁naked	-9.86124
▁enjoys	-9.86161
▁insecure	-9.86169
▁wh	-9.86248
▁nope	-9.86379
▁whenever	-9.86389
▁l	-9.86467
▁adult	-9.86739
▁12	-9.86822
▁realy	-9.86861
▁co	-9.86931
▁showing	-9.87031
▁mostly	-9.87034
▁behave	-9.87081
so	-9.87401
▁lonely	-9.87456
▁calm	-9.87501
▁music	-9.87508
▁therefore	-9.87512
▁everybody	-9.87603
▁anyways	-9.87825
▁level	-9.88102
▁drop	-9.88732
▁blind	-9.88803
▁subject	-9.88808
▁glad	-9.88809
▁obvious	-9.88834
▁awesome	-9.88857
▁30	-9.89011
▁details	-9.89016
▁moved	-9.89028
▁learned	-9.89056
▁tall	-9.89074
▁butt	-9.89132
▁joke	-9.89195
▁human	-9.89495
▁heck	-9.89591
am	-9.89829
▁desires	-9.8997
▁patient	-9.90139
▁jus	-9.90166
▁recently	-9.90183
▁known	-9.90213
▁virginity	-9.90217
go	-9.90224
▁natural	-9.90234
▁aint	-9.90345
▁communicate	-9.90449
▁except	-9.90451
▁dog	-9.91015
.......	-9.91141
▁yrs	-9.91236
2	-9.91298
▁individuals	-9.91381
▁bi	-9.91381
▁refrain	-9.91566
▁--	-9.91672
▁normally	-9.91735
▁risk	-9.92195
▁badly	-9.92228
▁store	-9.9234
▁dirty	-9.92984
why	-9.93131
▁divorced	-9.93296
▁searching	-9.93433
▁dislike	-9.936
▁wanting	-9.94345
▁reality	-9.94419
▁attraction	-9.94456
▁tired	-9.94467
▁absolutely	-9.94517
▁moving	-9.94525
▁story	-9.94527
▁judge	-9.94908
▁smell	-9.95114
▁none	-9.95518
▁shower	-9.95707
▁cry	-9.9584
▁quiet	-9.95845
▁country	-9.95854
▁info	-9.95871
▁neither	-9.95896
ness	-9.95948
▁based	-9.95958
▁pants	-9.96004
be	-9.96176
▁faithful	-9.9673
▁general	-9.96811
▁sh	-9.96848
▁lies	-9.97146
▁fifteen	-9.9732
▁unsure	-9.97326
▁cold	-9.97395
▁k	-9.97652
▁hours	-9.97663
▁concern	-9.97837
me	-9.97885
▁experienced	-9.98036
▁valentine	-9.98107
▁knowing	-9.98165
▁post	-9.9822
▁happening	-9.98287
4	-9.98631
as	-9.9865
▁favor	-9.98808
▁terrible	-9.98815
▁basically	-9.98815
▁bored	-9.98825
nable	-9.98826
▁physically	-9.98892
▁middle	-9.98894
z	-9.99065
▁mail	-9.99067
▁kisses	-9.9932
▁low	-9.99605
▁chocolate	-9.99765
▁green	-9.99931
▁nasty	-10.0036
▁boobs	-10.0046
▁brain	-10.0091
▁changed	-10.0104
▁nor	-10.0116
▁practice	-10.0118
well	-10.0119
▁letter	-10.0126
▁options	-10.0127
▁sea	-10.0138
▁inquire	-10.0178
▁current	-10.0183
its	-10.0186
▁proud	-10.0186
▁fighting	-10.0217
,"	-10.0248
▁doctor	-10.026
▁chick	-10.0299
▁total	-10.0305
▁appropriate	-10.0342
▁bedroom	-10.0343
▁intelligent	-10.0343
▁additionally	-10.0344
▁annoying	-10.0348
▁prove	-10.0354
▁..	-10.0356
▁enjoyable	-10.0357
▁legs	-10.037
▁liking	-10.0376
▁apart	-10.0382
▁legal	-10.0393
▁carry	-10.0397
how	-10.0407
▁effort	-10.0428
▁rule	-10.0433
▁honesty	-10.0437
▁event	-10.0442
▁door	-10.0448
▁cost	-10.0478
▁reach	-10.0478
▁english	-10.0501
▁beginning	-10.0502
▁immediately	-10.0502
▁constantly	-10.0502
▁happiness	-10.0503
▁expensive	-10.0503
▁odd	-10.0503
▁da	-10.0504
turned	-10.0507
▁unfortunately	-10.0507
▁surprise	-10.0576
▁avatar	-10.0588
▁rose	-10.0596
▁asian	-10.06
▁gain	-10.0626
▁talked	-10.0644
▁jerks	-10.0658
▁damn	-10.0661
!!!!!	-10.0661
▁creative	-10.0667
▁eachother	-10.0677
▁assume	-10.0677
▁sooner	-10.0682
▁hook	-10.0695
▁finds	-10.0708
out	-10.0726
▁falling	-10.0731
im	-10.0758
▁shit	-10.0759
▁regard	-10.0759
▁light	-10.0781
▁spell	-10.0812
▁oral	-10.0816
▁humor	-10.0823
▁warm	-10.0829
▁hopefully	-10.0837
▁starts	-10.0846
▁beauty	-10.0848
▁soft	-10.0848
less	-10.0859
▁j	-10.0901
▁di	-10.0913
▁request	-10.0915
▁nicely	-10.092
▁sucks	-10.0921
▁breath	-10.093
▁loser	-10.0966
▁states	-10.097
▁los	-10.0986
▁skinny	-10.0994
▁frequently	-10.0994
▁silly	-10.0996
▁handsome	-10.0996
!"	-10.0997
▁deeply	-10.1002
▁generally	-10.1002
ta	-10.1007
year	-10.101
▁engaged	-10.1014
▁keeps	-10.1016
▁shoes	-10.1026
8	-10.1049
&	-10.1058
▁perform	-10.1065
▁christian	-10.1088
▁introduce	-10.1134
▁gross	-10.1163
▁messenger	-10.1163
▁knowledge	-10.1163
▁everywhere	-10.1164
▁kno	-10.1166
▁shame	-10.1167
▁selfish	-10.1168
▁candy	-10.1174
▁hubby	-10.1177
▁)	-10.1182
3	-10.1194
▁needed	-10.1208
▁ice	-10.1209
▁weeks	-10.1231
▁reading	-10.1248
▁orgasm	-10.1264
▁massage	-10.1273
▁prob	-10.13
▁screw	-10.1303
there	-10.131
▁thin	-10.1319
▁amazing	-10.1332
▁brown	-10.1336
▁shallow	-10.1336
▁spice	-10.1337
▁previously	-10.1339
▁unattractive	-10.134
▁leaving	-10.1342
▁directly	-10.1345
▁third	-10.1351
▁pictures	-10.1353
▁wishes	-10.1368
▁pink	-10.1389
▁harder	-10.1393
▁dat	-10.1415
▁lack	-10.1432
▁companion	-10.1439
▁marrying	-10.1445
v	-10.1446
ur	-10.1463
▁thirty	-10.151
▁easily	-10.151
▁stuck	-10.1511
▁top	-10.1513
▁pleasant	-10.1517
▁lines	-10.1519
▁wives	-10.1525
ally	-10.1527
▁wearing	-10.1562
▁:-)	-10.1566
le	-10.1569
**	-10.1606
▁idiot	-10.1619
▁specific	-10.162
▁outcome	-10.1626
▁key	-10.1628
▁blonde	-10.164
▁books	-10.1656
▁nervous	-10.1657
▁finish	-10.1683
▁majority	-10.1689
▁definately	-10.1689
▁protection	-10.169
▁gentlemen	-10.169
▁successful	-10.1693
▁voice	-10.1696
▁power	-10.1698
▁sensitive	-10.1699
▁seven	-10.1714
▁thier	-10.1716
▁treated	-10.1716
▁gals	-10.1733
▁rich	-10.1738
▁hints	-10.1741
▁fear	-10.1759
▁walking	-10.1764
▁view	-10.1797
▁bout	-10.1801
▁period	-10.1812
te	-10.1826
▁lil	-10.1829
▁count	-10.1851
▁previous	-10.1867
▁obtain	-10.1869
▁beyond	-10.1871
▁distance	-10.1871
▁spot	-10.1875
▁prepared	-10.1878
▁sweetie	-10.1885
▁tease	-10.1888
▁inches	-10.1905
▁differently	-10.1907
▁realized	-10.1919
▁items	-10.1926
▁eight	-10.1929
▁,	-10.1981
▁1.	-10.1988
▁per	-10.1996
▁extra	-10.203
▁shirt	-10.2034
ely	-10.2037
▁x	-10.2037
▁addition	-10.2053
▁lazy	-10.2056
▁morning	-10.2056
▁committed	-10.2057
▁weak	-10.207
▁gurl	-10.2078
▁cheats	-10.2102
▁sleeping	-10.2103
▁mr	-10.2142
get	-10.2152
▁clue	-10.2178
▁race	-10.218
▁coitus	-10.2245
▁counseling	-10.2247
▁staring	-10.2265
▁fit	-10.2268
▁fails	-10.23
▁dis	-10.2302
▁pre	-10.2308
▁arent	-10.2316
▁ball	-10.2318
▁awhile	-10.2318
▁area	-10.2319
▁hates	-10.2339
▁street	-10.2365
▁value	-10.2367
▁finger	-10.237
ic	-10.2409
▁convince	-10.2426
▁mood	-10.2429
▁particular	-10.2437
▁television	-10.2437
▁foolish	-10.2438
▁dead	-10.2444
▁appealing	-10.2444
▁bisexual	-10.245
▁couples	-10.2452
▁afterwards	-10.246
▁blame	-10.2468
▁decided	-10.2488
▁mistakes	-10.2502
▁partners	-10.2538
▁condom	-10.2562
▁location	-10.2564
▁player	-10.259
▁understanding	-10.2594
▁em	-10.2596
▁rock	-10.2596
▁american	-10.2599
▁friendly	-10.2616
▁hurting	-10.262
▁poor	-10.2632
▁several	-10.2633
▁complicated	-10.2639
▁shut	-10.2642
▁larger	-10.2658
▁talks	-10.2662
▁dark	-10.267
▁quick	-10.2673
▁truely	-10.2689
▁deserves	-10.2701
:)	-10.2702
▁hint	-10.2705
▁22	-10.2711
▁require	-10.2747
▁chest	-10.277
▁clubs	-10.279
b	-10.2798
▁law	-10.2809
▁rooms	-10.2815
▁birth	-10.2832
▁disagree	-10.2832
▁horrible	-10.2834
▁shopping	-10.2839
▁um	-10.284
........	-10.284
▁earth	-10.2845
),	-10.2846
ers	-10.2847
▁surprised	-10.2849
▁slowly	-10.2854
x	-10.2872
▁tha	-10.2874
▁attempting	-10.2886
▁rules	-10.2923
▁skin	-10.2946
▁yall	-10.2946
▁opposite	-10.2969
all	-10.2977
▁topic	-10.2989
▁signs	-10.3008
▁abuse	-10.3019
▁reply	-10.3022
▁determine	-10.3031
▁local	-10.3032
▁interests	-10.3035
▁thirteen	-10.3037
▁awful	-10.3037
▁million	-10.3037
▁immature	-10.3038
▁city	-10.3041
▁polite	-10.3043
▁starting	-10.3044
▁se	-10.3064
▁pair	-10.307
▁noticed	-10.3081
▁beer	-10.3088
▁lo	-10.3094
▁enter	-10.3122
have	-10.3135
▁keeping	-10.3137
▁complain	-10.3141
▁possess	-10.3143
▁road	-10.3182
▁term	-10.3207
.........	-10.3229
ily	-10.3229
▁buddy	-10.3245
▁assistance	-10.3246
▁unintelligent	-10.3246
▁became	-10.325
▁confront	-10.3251
▁cream	-10.3254
▁thick	-10.3254
▁helpful	-10.3259
▁plz	-10.3261
▁stronger	-10.3262
▁neck	-10.3262
are	-10.3271
we	-10.3283
▁experiences	-10.3293
▁haha	-10.3302
▁tho	-10.3303
▁town	-10.3332
ation	-10.3365
▁waited	-10.3366
▁loss	-10.3371
▁parent	-10.3372
▁rub	-10.3376
▁fond	-10.3385
▁communication	-10.3385
▁weekend	-10.339
▁slap	-10.3397
▁shape	-10.3397
▁remind	-10.3439
▁mutual	-10.3453
▁reject	-10.3455
▁offense	-10.3459
▁repeat	-10.346
▁infidelity	-10.3469
man	-10.3476
▁boss	-10.3477
▁anytime	-10.3485
ce	-10.3489
▁hav	-10.3498
▁de	-10.3499
▁wake	-10.3504
▁seeking	-10.3507
▁following	-10.3507
▁ages	-10.3508
▁40	-10.3521
yes	-10.355
▁tv	-10.3592
▁early	-10.3592
▁occur	-10.3595
▁shot	-10.36
▁names	-10.361
your	-10.363
ng	-10.366
▁chose	-10.3662
▁pressure	-10.3666
▁joking	-10.3671
this	-10.3673
▁50	-10.3675
▁fantasy	-10.3675
▁qualities	-10.3676
▁activities	-10.3676
▁100	-10.3682
▁satisfied	-10.3687
▁argue	-10.3711
▁huh	-10.3719
▁protect	-10.3738
some	-10.3749
▁scare	-10.3769
▁chicks	-10.3782
▁alive	-10.3783
ie	-10.3811
▁preference	-10.3826
▁ego	-10.3842
▁looked	-10.388
▁familiar	-10.3894
▁drama	-10.3897
▁personals	-10.3926
▁born	-10.3936
▁fire	-10.3949
▁lied	-10.4002
▁havent	-10.401
▁types	-10.4011
▁somewhat	-10.4035
▁compliment	-10.4048
▁adore	-10.4049
▁commit	-10.405
????	-10.4052
▁minute	-10.4053
▁breast	-10.4054
▁video	-10.4055
▁court	-10.4097
▁std	-10.4108
▁proper	-10.4122
▁mix	-10.4122
▁daily	-10.4125
▁overweight	-10.4125
▁planning	-10.4125
▁quality	-10.4126
▁telephone	-10.4127
▁jail	-10.4127
▁faith	-10.4128
▁romantically	-10.4128
▁revenge	-10.413
▁necessary	-10.4132
▁disgusting	-10.4137
▁shall	-10.4142
▁spent	-10.4143
▁becoming	-10.4151
▁dumped	-10.4152
▁....	-10.4165
▁stated	-10.4173
▁social	-10.4178
▁ive	-10.4187
▁closer	-10.4197
▁til	-10.4231
▁improve	-10.4256
▁colors	-10.4269
▁cared	-10.43
▁lay	-10.4335
▁blow	-10.4352
▁instant	-10.4355
▁uncomfortable	-10.4358
▁bunch	-10.4359
▁typically	-10.4359
▁chase	-10.4363
▁vote	-10.4367
▁24	-10.4383
▁allowed	-10.439
▁base	-10.4429
▁belive	-10.443
even	-10.447
▁named	-10.447
for	-10.4475
▁cover	-10.4476
▁wild	-10.4484
▁attend	-10.4495
▁ride	-10.4496
▁via	-10.4497
▁band	-10.4497
▁answering	-10.4499
▁connection	-10.4508
▁result	-10.4524
▁fail	-10.4526
▁wa	-10.4573
▁bro	-10.4574
▁eating	-10.4577
▁cook	-10.459
▁biggest	-10.4595
▁teeth	-10.4595
▁french	-10.4595
▁potential	-10.4596
▁possibility	-10.4596
▁dunno	-10.4596
▁challenge	-10.4597
▁impression	-10.4599
▁hiding	-10.46
▁underwear	-10.4602
▁chris	-10.4615
▁suggestions	-10.4637
▁main	-10.4639
▁opinions	-10.4644
▁becua	-10.4672
▁affect	-10.4699
▁bet	-10.4716
▁listening	-10.4727
▁gal	-10.4746
▁teach	-10.4751
▁guessing	-10.4755
▁reaction	-10.4765
▁nose	-10.4771
▁private	-10.4772
▁staying	-10.479
▁active	-10.4792
▁blood	-10.4839
▁basketball	-10.4839
▁promiscuous	-10.4839
▁permission	-10.484
▁police	-10.484
▁exciting	-10.484
▁content	-10.4842
▁effective	-10.4842
▁pornography	-10.4844
▁sixteen	-10.4845
▁dollars	-10.4856
▁related	-10.486
▁perfectly	-10.4861
▁team	-10.4869
▁someday	-10.4897
▁shave	-10.492
▁lovers	-10.4939
ether	-10.4943
▁wut	-10.4963
▁exists	-10.4997
▁sites	-10.5001
thats	-10.5005
?)	-10.5035
▁23	-10.5039
..........	-10.5054
▁grab	-10.5089
▁happier	-10.5089
▁education	-10.5089
▁gender	-10.509
▁unhappy	-10.509
▁creepy	-10.5091
▁soulmate	-10.5092
▁incorrect	-10.5093
▁entirely	-10.5093
▁stalker	-10.5093
▁guilty	-10.5095
▁intelligence	-10.5096
▁daddy	-10.5096
▁loyal	-10.5097
▁kept	-10.5097
▁rarely	-10.5099
em	-10.5099
▁remove	-10.5101
▁peace	-10.5102
▁mentioned	-10.5108
▁nine	-10.5113
▁star	-10.5115
boyfriend	-10.5116
▁item	-10.5119
▁circumstances	-10.5123
▁husbands	-10.5129
▁flirts	-10.5176
▁tons	-10.5176
▁pro	-10.5179
▁condoms	-10.5181
age	-10.5188
dependent	-10.5213
▁sir	-10.5217
▁stare	-10.5234
▁rent	-10.5235
▁worthy	-10.5238
▁wheth	-10.5243
▁propose	-10.5244
▁25	-10.5246
▁approve	-10.526
hey	-10.5265
▁statement	-10.5276
▁mall	-10.5284
▁flower	-10.5293
▁firstly	-10.5305
▁member	-10.5315
▁sum	-10.5318
▁fancy	-10.5345
▁eighteen	-10.5346
▁driving	-10.5346
▁pursuing	-10.5346
▁beleive	-10.5347
▁priority	-10.5347
▁entire	-10.5348
▁non	-10.5351
▁writing	-10.5353
▁emotionally	-10.5355
▁passed	-10.5357
▁horny	-10.536
▁genuine	-10.5366
ity	-10.5367
ion	-10.5368
▁choices	-10.5382
▁informed	-10.5385
▁news	-10.5387
▁hmmm	-10.5395
▁terms	-10.5432
with	-10.5436
▁counts	-10.5453
▁wi	-10.5491
▁travel	-10.5498
▁occasion	-10.5526
▁diamond	-10.5536
▁trick	-10.5539
▁react	-10.5552
▁knock	-10.5556
▁comment	-10.5558
▁leads	-10.5571
▁super	-10.5574
▁fuck	-10.5577
ask	-10.5578
▁innocent	-10.5606
▁unique	-10.5609
▁intimacy	-10.5609
▁hour	-10.5615
▁infatuation	-10.5615
▁courage	-10.5618
▁everytime	-10.5618
▁faster	-10.562
▁goodness	-10.5639
▁holding	-10.5671
ne	-10.5711
▁duh	-10.5722
ment	-10.5732
▁sin	-10.5737
▁wasnt	-10.5744
▁ideal	-10.5785
▁draw	-10.5794
▁anger	-10.5801
▁purpose	-10.5808
▁assist	-10.5839
▁boat	-10.5841
▁messages	-10.5847
▁maintain	-10.5879
▁stomach	-10.5881
▁slept	-10.5882
▁bathroom	-10.5886
▁sweetheart	-10.5886
▁proposed	-10.5892
▁dig	-10.5897
▁umm	-10.5915
▁cd	-10.5916
ous	-10.5921
▁died	-10.5931
▁painful	-10.5946
▁create	-10.5961
▁sincere	-10.6015
▁cake	-10.6064
▁sell	-10.6083
▁harm	-10.6085
ant	-10.6111
▁air	-10.6135
▁within	-10.6149
▁settle	-10.6149
▁advantage	-10.6156
▁naughty	-10.6157
▁dancing	-10.6158
▁impossible	-10.6158
▁passion	-10.6158
▁jesus	-10.6163
▁religion	-10.6164
▁solve	-10.6165
▁clearly	-10.6168
▁required	-10.6174
▁below	-10.619
▁itself	-10.6198
▁lasts	-10.62
▁whoever	-10.62
▁converse	-10.6219
▁box	-10.6223
cause	-10.6266
▁toys	-10.6294
▁sweat	-10.6321
▁ain	-10.6345
▁include	-10.6355
▁version	-10.6364
▁myspace	-10.6367
dont	-10.6377
boy	-10.6384
▁brave	-10.639
▁stranger	-10.64
▁lookin	-10.6431
▁ear	-10.6437
▁mo	-10.6438
▁process	-10.6442
▁football	-10.6442
▁perspective	-10.6442
▁accompany	-10.6443
▁laid	-10.6443
▁clothing	-10.6443
▁stopped	-10.6443
▁experiencing	-10.6444
▁scary	-10.6445
▁bible	-10.6445
▁double	-10.6447
▁genuinely	-10.6447
▁happily	-10.6449
▁indeed	-10.6451
▁responsible	-10.6453
▁consequences	-10.6454
▁ending	-10.6462
▁mental	-10.6465
▁ho	-10.6467
friend	-10.6468
▁water	-10.6474
▁tips	-10.6476
▁drinking	-10.648
▁drugs	-10.6481
▁goals	-10.6497
▁!!	-10.6521
▁trip	-10.654
▁beg	-10.6576
▁brains	-10.6577
maybe	-10.6599
ful	-10.6611
▁lesbians	-10.6636
▁language	-10.6657
▁cheek	-10.667
▁liar	-10.6688
▁jokes	-10.669
▁build	-10.6722
▁limit	-10.6726
▁encourage	-10.6727
▁describe	-10.6733
▁afford	-10.6735
▁hurry	-10.6736
▁illegal	-10.6736
▁sharing	-10.674
▁heterosexual	-10.6744
▁hoping	-10.6744
▁kinds	-10.6747
him	-10.6748
▁cell	-10.675
▁including	-10.6753
▁;-)	-10.6766
▁crying	-10.6766
▁health	-10.6767
▁causes	-10.6772
▁bath	-10.6773
▁miles	-10.6781
▁touching	-10.679
▁dreaming	-10.6794
▁ability	-10.6802
▁played	-10.6806
girl	-10.6814
ha	-10.6838
▁minds	-10.6846
▁thru	-10.6895
▁intend	-10.6905
▁11	-10.6949
▁perfume	-10.6951
▁text	-10.6956
▁stress	-10.6959
▁habit	-10.6967
▁bitch	-10.6994
▁bestfriend	-10.7002
▁cat	-10.7002
men	-10.7021
▁approximat	-10.7029
▁unpleasant	-10.7039
▁responsibility	-10.704
▁referring	-10.704
▁smiling	-10.7041
▁ensure	-10.7042
▁weather	-10.7043
▁lovely	-10.7044
▁sitting	-10.7045
▁pizza	-10.7046
▁abusive	-10.7047
▁obsessed	-10.7049
▁finished	-10.7049
▁loud	-10.7051
▁direct	-10.7054
▁tomorrow	-10.7054
who	-10.7078
▁goodbye	-10.7084
▁q	-10.7092
▁ne	-10.7098
▁paying	-10.7118
▁comments	-10.712
▁weren	-10.7126
▁2.	-10.7135
!!!!!!	-10.7164
tell	-10.7164
▁moves	-10.7175
▁buying	-10.7183
▁valentines	-10.7187
▁surely	-10.72
▁yr	-10.7203
▁note	-10.7227
▁fresh	-10.7233
▁prior	-10.7234
▁yell	-10.7234
ry	-10.725
▁click	-10.7258
▁pic	-10.7259
▁equal	-10.7271
rd	-10.7273
oh	-10.7286
▁spelling	-10.7297
▁advance	-10.733
▁demonstrate	-10.7342
▁accomplish	-10.7346
▁random	-10.7347
▁jewelry	-10.7352
▁vegas	-10.7352
▁receiving	-10.7353
▁dangerous	-10.7353
▁excited	-10.7354
▁summer	-10.7354
▁multiple	-10.7355
▁babies	-10.7356
▁deny	-10.7357
▁yep	-10.7357
▁charming	-10.7361
▁omg	-10.7365
▁mentally	-10.7366
▁across	-10.7369
ish	-10.7374
▁atleast	-10.7385
▁foot	-10.7392
▁35	-10.7441
▁letters	-10.7499
▁brothers	-10.7504
▁smells	-10.7507
▁forgot	-10.7508
▁ill	-10.7509
▁tonight	-10.7522
try	-10.7569
▁aside	-10.7573
▁dr	-10.7581
▁refuse	-10.7591
▁gym	-10.7598
▁photo	-10.7602
▁define	-10.7649
▁india	-10.7661
▁observe	-10.7669
▁teen	-10.767
▁vacation	-10.7674
▁acquainted	-10.7674
▁fourteen	-10.7674
can	-10.7675
▁slightly	-10.7675
▁disappointed	-10.7675
▁somthing	-10.7676
▁proof	-10.7677
▁inappropriate	-10.7678
▁depressed	-10.7682
▁rejected	-10.7683
▁bald	-10.7683
▁lord	-10.7684
▁sincerely	-10.7684
▁lame	-10.769
▁earn	-10.7695
▁features	-10.7699
▁dosent	-10.7722
▁plain	-10.7724
time	-10.773
▁growing	-10.7734
▁decisions	-10.774
▁aids	-10.7749
▁associate	-10.7758
▁learning	-10.7805
▁leaves	-10.7812
▁shoulders	-10.7815
▁las	-10.783
▁hugs	-10.7874
▁relate	-10.7907
▁sisters	-10.7926
▁plans	-10.7928
▁guarantee	-10.7931
▁piece	-10.7933
▁restaurant	-10.7935
▁disease	-10.7936
▁shake	-10.7937
▁sake	-10.7952
▁shop	-10.7966
▁apply	-10.7993
▁acquire	-10.7996
▁usual	-10.8001
▁separate	-10.8001
▁scream	-10.8001
▁hmm	-10.8002
▁texas	-10.8007
▁ridiculous	-10.8008
▁attached	-10.8008
▁report	-10.801
▁trash	-10.8013
▁taller	-10.8014
▁chatting	-10.8014
▁bless	-10.8016
▁history	-10.8019
let	-10.802
▁discovered	-10.8025
▁final	-10.8031
▁breakup	-10.8032
▁assuming	-10.8035
▁correctly	-10.8035
▁strongly	-10.8036
ent	-10.8043
▁scores	-10.8047
▁claims	-10.8047
▁gut	-10.8052
lower	-10.807
ch	-10.8072
▁st	-10.808
▁strangers	-10.8111
▁situations	-10.8112
▁rape	-10.8113
day	-10.8116
▁closes	-10.812
▁tight	-10.8122
▁cases	-10.8151
6	-10.8165
ok	-10.8175
▁fill	-10.8179
▁lived	-10.8207
us	-10.8215
▁net	-10.8229
▁sa	-10.8253
ive	-10.8261
▁strip	-10.8265
▁profile	-10.8278
▁events	-10.8281
▁connect	-10.8291
▁price	-10.8292
▁hasn	-10.8297
▁locate	-10.8348
▁method	-10.8352
▁society	-10.8352
▁split	-10.8352
▁beneficial	-10.8352
▁foreplay	-10.8352
▁puppy	-10.8353
▁occasionally	-10.8354
▁pathetic	-10.8354
▁material	-10.8357
▁admire	-10.8358
▁gentle	-10.836
▁aroused	-10.8361
▁blah	-10.8362
▁naturally	-10.8363
▁reveal	-10.8371
▁bought	-10.8383
▁tickets	-10.8386
think	-10.8389
▁missed	-10.8392
▁truck	-10.8393
▁provided	-10.8394
▁received	-10.8403
▁benefits	-10.8413
▁bite	-10.8423
▁jealousy	-10.8424
▁fly	-10.8435
▁web	-10.8436
▁climax	-10.8438
▁bush	-10.8451
---	-10.8459
▁balls	-10.8462
▁dealing	-10.8511
because	-10.8514
▁cross	-10.852
▁despi	-10.8541
***	-10.8548
▁dogs	-10.8597
▁solution	-10.8628
▁service	-10.8636
▁animal	-10.864
rs	-10.8643
▁dick	-10.8649
▁bag	-10.8667
▁talkin	-10.8679
▁fiance	-10.8685
▁satisfy	-10.8695
▁unusual	-10.8704
▁smooth	-10.8705
▁dribbles	-10.8709
▁easiest	-10.8709
▁mysterious	-10.8709
▁prevent	-10.871
▁infatuated	-10.871
▁phrase	-10.8711
▁miserable	-10.8711
▁arrogant	-10.8713
▁insane	-10.8714
▁devil	-10.8715
▁patience	-10.8718
▁hoe	-10.8719
▁amusing	-10.872
▁classes	-10.8722
▁ignorant	-10.8724
▁ashamed	-10.8724
▁lap	-10.8726
!!!!!!!!!!	-10.8727
▁btw	-10.8728
▁lately	-10.8735
▁smaller	-10.8742
▁lifetime	-10.8758
▁shoots	-10.8762
▁career	-10.878
five	-10.8808
▁contain	-10.8809
esteem	-10.8817
of	-10.8829
▁hearing	-10.8846
▁bill	-10.8852
▁indicate	-10.8857
▁blondes	-10.8866
ating	-10.8868
▁26	-10.8881
▁tape	-10.8898
▁bars	-10.8899
▁burn	-10.8917
▁king	-10.8918
▁fo	-10.8958
"?	-10.8967
would	-10.8968
5	-10.8971
▁dare	-10.8971
▁bear	-10.8992
▁wo	-10.8996
▁effect	-10.8998
▁cos	-10.9
▁bottom	-10.9004
▁li	-10.9009
▁bra	-10.9011
▁worrying	-10.9015
▁setting	-10.9022
line	-10.9022
bad	-10.9025
ut	-10.9037
el	-10.9038
ter	-10.9051
▁fulfill	-10.9068
▁flow	-10.9071
stic	-10.9078
▁twelve	-10.9079
▁variety	-10.908
▁presence	-10.908
▁sugar	-10.908
▁yellow	-10.908
▁confusing	-10.9081
▁african	-10.9082
▁wealthy	-10.9083
▁cash	-10.9083
▁direction	-10.9083
▁false	-10.9084
▁heavy	-10.9084
▁walks	-10.9087
▁overcome	-10.9092
▁steal	-10.9093
▁pack	-10.9096
▁gently	-10.9102
▁stage	-10.9103
▁cease	-10.9106
▁among	-10.9108
which	-10.9121
▁carefully	-10.9124
▁expecting	-10.9159
▁major	-10.9166
▁original	-10.9168
▁train	-10.917
▁mid	-10.9193
▁pen	-10.9301
when	-10.9308
▁ears	-10.9317
▁agreed	-10.9322
▁believed	-10.9324
▁en	-10.9331
▁file	-10.9338
▁smoke	-10.9359
▁relation	-10.937
▁racist	-10.9375
▁breaks	-10.938
▁fashion	-10.9386
hi	-10.9386
▁emotion	-10.9388
▁refer	-10.9391
▁brunette	-10.9392
trust	-10.9447
▁hesitate	-10.9448
▁sufficient	-10.946
▁wierd	-10.9462
▁account	-10.9463
▁seventeen	-10.9464
▁running	-10.9465
▁jeans	-10.9467
▁hitting	-10.9469
▁cocky	-10.947
▁controlling	-10.947
▁actual	-10.947
▁interact	-10.9471
▁grand	-10.9477
▁fairly	-10.9477
▁socks	-10.9477
▁healthy	-10.9479
▁participate	-10.948
▁paid	-10.9487
ay	-10.9489
▁strike	-10.9492
▁google	-10.9494
▁length	-10.9495
▁booty	-10.9497
▁virgins	-10.9514
▁abt	-10.9518
back	-10.9537
▁ground	-10.9542
▁diseases	-10.9548
▁rough	-10.9554
▁laughing	-10.9557
▁emails	-10.9561
▁hire	-10.9562
!!!!!!!!!!!!!!!!	-10.9562
▁develop	-10.9566
▁comfort	-10.957
▁sides	-10.9582
hello	-10.9589
▁uses	-10.962
▁sneak	-10.9661
ey	-10.9662
yrs	-10.9663
▁necessar	-10.9664
▁con	-10.9667
ts	-10.9669
▁goin	-10.9684
▁pet	-10.9694
▁height	-10.9706
!!!!!!!	-10.9732
▁excuses	-10.9742
ize	-10.9747
▁paper	-10.9773
▁smiles	-10.9778
▁benefit	-10.9797
▁freind	-10.9799
sex	-10.9809
▁shoot	-10.982
▁prefers	-10.9826
▁compare	-10.9828
▁dem	-10.9835
way	-10.9844
▁cuddle	-10.985
▁cruel	-10.9862
▁awkward	-10.9864
▁earlier	-10.9864
▁buddies	-10.9864
▁anniversary	-10.9864
▁existence	-10.9864
▁smoking	-10.9865
▁counselor	-10.9866
▁louder	-10.9867
▁pool	-10.9873
▁equally	-10.9879
▁welcome	-10.9879
▁truthful	-10.9882
▁heaven	-10.9883
▁joy	-10.9883
▁boots	-10.9884
▁childish	-10.9887
▁fellow	-10.9888
▁dresses	-10.9896
▁arms	-10.9898
ty	-10.9899
unless	-10.9909
▁intentions	-10.9919
women	-10.9919
▁ponder	-10.9922
▁task	-10.9925
▁bills	-10.9928
▁war	-10.9965
▁bright	-11.0003
▁sl	-11.0004
▁goal	-11.0023
ge	-11.004
tries	-11.0044
ar	-11.0071
▁respectful	-11.0076
▁enjoyed	-11.0076
ling	-11.0105
▁cards	-11.0109
appears	-11.0118
▁positions	-11.0132
ance	-11.0132
lly	-11.014
▁hun	-11.0142
fully	-11.0147
by	-11.0164
▁argument	-11.0165
girlfriend	-11.0194
▁mirror	-11.0204
▁neighbor	-11.0206
▁suggestion	-11.0212
▁gu	-11.0216
▁prostitute	-11.0217
▁engag	-11.0221
ke	-11.0236
right	-11.0239
▁link	-11.0249
▁incredibl	-11.0251
▁confess	-11.0253
▁succeed	-11.0254
ary	-11.0265
▁toward	-11.027
▁unfortunate	-11.0279
▁complex	-11.0279
▁screen	-11.0279
▁panties	-11.0279
▁definition	-11.0279
▁freedom	-11.0279
▁milk	-11.0279
▁wallet	-11.028
▁religious	-11.0281
▁congratulations	-11.0281
▁yesterday	-11.0281
▁homework	-11.0283
▁ourselves	-11.0284
▁according	-11.0289
▁fantasize	-11.029
▁alcohol	-11.029
▁suddenly	-11.0292
tion	-11.0297
▁punch	-11.0299
▁created	-11.0299
▁humorous	-11.03
▁deeper	-11.0302
▁secretly	-11.0305
▁begging	-11.0306
▁casually	-11.0307
▁charge	-11.0309
▁smarter	-11.0309
friends	-11.0315
▁form	-11.0319
▁seduce	-11.0323
▁appeal	-11.0323
▁ca	-11.0325
tta	-11.0327
▁accepted	-11.0327
▁swear	-11.0335
▁trustworthy	-11.0338
▁suit	-11.0349
▁recall	-11.035
▁image	-11.0372
▁messing	-11.0373
▁animals	-11.0375
▁reacts	-11.0383
▁bothers	-11.039
will	-11.0401
▁spa	-11.0422
▁difficulty	-11.0425
▁desired	-11.0437
▁trans	-11.0443
▁sent	-11.0447
▁bye	-11.0468
▁chocolates	-11.0484
▁roll	-11.049
▁changes	-11.0497
▁responds	-11.0524
▁cheaters	-11.0538
▁continues	-11.0545
▁aspect	-11.0574
▁suffer	-11.0577
▁****	-11.0623
▁drag	-11.0635
ever	-11.0636
▁bride	-11.0638
▁instance	-11.0645
▁la	-11.0662
▁bump	-11.0668
▁marriages	-11.0686
son	-11.0688
▁dishonest	-11.07
▁regrets	-11.0701
▁believes	-11.0702
▁reciprocate	-11.0704
▁guilt	-11.0704
▁flirtatious	-11.0709
should	-11.0709
▁feminine	-11.0714
▁excellent	-11.0714
▁cautious	-11.0714
▁occurred	-11.0714
▁prison	-11.0716
▁parties	-11.0717
▁sacrifice	-11.0718
▁desirable	-11.0719
▁status	-11.0724
▁spanish	-11.0726
▁posted	-11.073
▁hormones	-11.0732
▁speaks	-11.0737
▁psycho	-11.0739
▁vows	-11.0741
wife	-11.0747
▁capable	-11.0747
▁subtle	-11.0753
▁yah	-11.0762
▁nuts	-11.0767
▁achieve	-11.0768
end	-11.0768
▁ofcourse	-11.0772
▁fart	-11.0774
▁killing	-11.0782
years	-11.0786
▁release	-11.0793
▁v	-11.0794
▁refuses	-11.0802
▁brunettes	-11.0808
king	-11.0813
▁heads	-11.0818
▁grown	-11.0819
▁shoe	-11.0822
sorry	-11.0832
▁bu	-11.0855
▁explore	-11.0863
▁idiots	-11.0893
▁1)	-11.0909
...........	-11.0917
▁fr	-11.092
▁si	-11.0933
▁pal	-11.0942
▁seconds	-11.0964
▁yup	-11.0969
▁ps	-11.097
▁fate	-11.0981
▁chill	-11.0984
▁drinks	-11.101
▁esteem	-11.1027
▁character	-11.1048
ble	-11.1062
▁friday	-11.1077
▁encounter	-11.1085
ice	-11.1088
▁vagina	-11.1091
▁holiday	-11.1096
!!!!!!!!	-11.1097
▁detail	-11.1098
▁uncle	-11.1111
▁belief	-11.1112
ies	-11.1119
▁ignor	-11.1123
▁lock	-11.1146
▁charm	-11.1147
▁annoy	-11.1151
▁diff	-11.1151
▁affectionate	-11.1165
▁twenties	-11.1168
▁rebound	-11.1169
▁breakfast	-11.1169
▁wrote	-11.1169
▁hottest	-11.117
▁dozen	-11.117
▁security	-11.1171
▁addicted	-11.1172
▁suspect	-11.1172
▁extent	-11.1172
▁entertaining	-11.1175
▁saving	-11.1177
▁intended	-11.1178
▁dying	-11.1178
▁failed	-11.118
▁unaware	-11.1181
▁pride	-11.1181
▁properly	-11.1181
▁maturity	-11.1182
▁consideration	-11.1183
▁yelling	-11.1185
ian	-11.1185
▁stalking	-11.1187
▁gettin	-11.1189
▁grass	-11.119
▁courting	-11.1194
▁mama	-11.1195
▁round	-11.1196
▁firm	-11.1197
▁pounds	-11.1197
▁nurse	-11.1198
▁honor	-11.1198
▁parts	-11.1201
▁field	-11.1204
▁standards	-11.1208
▁sky	-11.1209
▁involve	-11.1217
▁initiate	-11.1219
▁br	-11.1225
▁attempted	-11.1226
▁differences	-11.1228
▁heels	-11.1229
▁despise	-11.1231
▁wink	-11.1232
▁invited	-11.1235
▁phil	-11.1235
▁joe	-11.1238
▁guts	-11.1244
▁watches	-11.1245
▁importantly	-11.1246
▁regular	-11.1249
▁feed	-11.1254
▁3.	-11.1265
▁rate	-11.1284
mon	-11.1284
▁sooo	-11.1291
▁path	-11.1318
▁occurs	-11.1324
▁wen	-11.1326
▁fingers	-11.1343
▁pays	-11.1357
use	-11.1357
▁kisser	-11.1383
▁hung	-11.1384
j	-11.1387
tch	-11.1396
▁trusted	-11.1416
il	-11.1431
▁pure	-11.1465
▁:(	-11.1466
▁drives	-11.1484
▁freaks	-11.149
▁mabe	-11.15
▁mar	-11.1551
our	-11.157
▁momma	-11.1579
▁al	-11.1579
▁exercise	-11.1582
▁min	-11.1589
▁ends	-11.1589
now	-11.1603
▁angel	-11.1604
▁shoulder	-11.1612
▁ease	-11.1621
▁fetish	-11.1627
▁lift	-11.1628
▁fan	-11.1633
................	-11.1638
▁affirmative	-11.1639
▁typical	-11.1641
▁spoil	-11.1641
▁youre	-11.1645
▁fantasies	-11.1645
▁grammar	-11.1645
▁hundred	-11.1645
▁pregnancy	-11.1645
▁viagra	-11.1645
▁paramour	-11.1645
▁darling	-11.1645
▁initial	-11.1645
▁query	-11.1645
▁safety	-11.1646
▁rumor	-11.1646
▁embarrassed	-11.1647
▁resist	-11.1647
▁success	-11.1647
▁frightened	-11.1648
▁sexier	-11.165
▁annoyed	-11.1651
▁professional	-11.1652
▁agreement	-11.1653
▁poorly	-11.1654
▁urge	-11.1655
▁waist	-11.1655
▁stays	-11.1656
▁exact	-11.1656
▁worries	-11.1657
▁sexuality	-11.1658
▁caution	-11.1658
▁apparently	-11.1659
▁perverted	-11.1673
▁concert	-11.1679
▁shorter	-11.168
▁teenagers	-11.1686
▁concerning	-11.1692
▁checked	-11.1695
▁hon	-11.1706
▁assure	-11.1715
▁messy	-11.172
▁wall	-11.1732
▁moon	-11.1732
▁numbers	-11.1733
▁rare	-11.1734
▁rain	-11.1739
▁mothers	-11.1746
▁photos	-11.1753
▁limits	-11.1756
▁stares	-11.177
▁accepting	-11.1777
give	-11.1779
▁tale	-11.1782
▁wasted	-11.1813
look	-11.1818
does	-11.1844
▁bang	-11.1846
▁closed	-11.1858
▁christ	-11.1885
guys	-11.1901
hot	-11.1901
any	-11.1908
▁adults	-11.1911
▁2)	-11.1926
▁closet	-11.1942
most	-11.1952
▁ther	-11.1953
sexual	-11.197
▁wil	-11.1987
▁chin	-11.2004
▁happend	-11.2042
▁pocket	-11.2056
▁window	-11.2065
▁ar	-11.207
▁bug	-11.2073
turns	-11.2081
▁teacher	-11.2091
▁dwell	-11.2094
▁function	-11.2096
▁le	-11.2101
▁whip	-11.2117
▁spoke	-11.2131
▁somethin	-11.2143
▁explanation	-11.2145
▁various	-11.2145
▁rubber	-11.2145
▁socialize	-11.2145
▁lawyer	-11.2145
▁silent	-11.2145
▁radio	-11.2146
▁performance	-11.2146
▁useful	-11.2146
▁violent	-11.2146
▁lifestyle	-11.2148
▁brake	-11.2148
▁beware	-11.2151
▁track	-11.2152
husband	-11.2155
▁magic	-11.2155
▁jerry	-11.2157
▁increase	-11.2159
▁cherish	-11.2159
▁shaving	-11.216
▁discussion	-11.2165
▁negatively	-11.2165
▁aggressive	-11.2166
▁signals	-11.2169
▁chicken	-11.2169
▁block	-11.218
▁soap	-11.2183
▁unlike	-11.2183
▁accidentally	-11.2185
▁flat	-11.219
▁freaky	-11.2191
▁morals	-11.2197
▁contract	-11.2205
▁instincts	-11.2213
▁mmm	-11.2215
▁merry	-11.2217
?!	-11.2218
▁guyz	-11.2222
▁holidays	-11.2225
▁consume	-11.2232
▁28	-11.2233
▁nothin	-11.2234
▁rite	-11.2237
▁heal	-11.2249
▁eve	-11.2258
▁returns	-11.2265
▁returning	-11.2271
▁conversations	-11.2276
▁vice	-11.2281
▁results	-11.2299
▁forty	-11.2317
▁greatly	-11.2319
▁stayed	-11.2319
▁standing	-11.2323
▁gas	-11.2339
▁pleased	-11.2348
night	-11.2358
▁fa	-11.2363
▁bo	-11.2376
etc	-11.2388
ck	-11.2393
▁load	-11.2399
▁decides	-11.2401
.............	-11.2413
▁websites	-11.2439
id	-11.2441
ate	-11.2442
▁minded	-11.2448
▁cousins	-11.2454
▁slut	-11.2486
▁mi	-11.249
ssed	-11.2501
sure	-11.2523
▁whore	-11.2525
▁stalk	-11.2546
▁wash	-11.2565
▁drug	-11.2581
▁crowd	-11.2585
▁picnic	-11.2588
▁horse	-11.2591
▁sentence	-11.2595
▁intention	-11.2596
▁circumstance	-11.2599
▁instinct	-11.2602
▁pu	-11.2604
▁geek	-11.2614
!!!!!!!!!	-11.2615
▁cha	-11.2633
looking	-11.2636
▁hits	-11.2638
▁butts	-11.2642
▁factor	-11.2657
▁abandon	-11.2665
▁frank	-11.2667
▁record	-11.2667
▁chemistry	-11.2671
▁marraige	-11.2671
▁december	-11.2671
▁mountain	-11.2671
▁disloyal	-11.2671
▁proposal	-11.2671
▁studies	-11.2671
▁nowadays	-11.2671
▁grandma	-11.2672
▁goofy	-11.2672
▁intoxicated	-11.2672
▁baggage	-11.2672
▁fifty	-11.2672
▁furthermore	-11.2673
▁forgiveness	-11.2673
▁ultimatum	-11.2673
▁basis	-11.2674
▁financially	-11.2674
▁quote	-11.2675
▁couch	-11.2678
▁confuse	-11.2679
▁utilize	-11.2681
▁compatible	-11.2683
▁empty	-11.2684
▁karma	-11.2684
▁cologne	-11.2684
▁screwed	-11.2689
▁raise	-11.269
▁owe	-11.269
▁queen	-11.2695
▁siblings	-11.2697
▁concentrate	-11.2697
▁communicating	-11.2702
▁perceive	-11.2703
▁cooking	-11.2703
▁located	-11.2714
▁masturbate	-11.2714
▁fiancee	-11.2714
▁sing	-11.2714
▁performing	-11.2716
▁pigs	-11.2717
▁higher	-11.272
▁invest	-11.2727
▁expected	-11.2735
▁range	-11.274
▁rip	-11.274
▁caus	-11.2741
▁south	-11.2743
▁lick	-11.275
ue	-11.2761
▁pop	-11.2771
▁belong	-11.2772
eddy	-11.2775
▁research	-11.2779
▁brad	-11.28
▁culture	-11.2818
▁diamonds	-11.2819
▁hott	-11.2827
▁fits	-11.2835
▁ba	-11.2841
▁compliments	-11.2843
▁trap	-11.2843
▁crack	-11.2847
▁weekends	-11.2859
▁greater	-11.2859
▁uh	-11.2864
▁members	-11.2865
et	-11.2874
▁gurls	-11.2881
▁views	-11.2886
▁nicer	-11.2892
▁meal	-11.2896
▁regards	-11.2908
▁chooses	-11.2914
▁pls	-11.2916
▁gods	-11.2934
▁laws	-11.2971
▁secrets	-11.2994
▁pla	-11.3009
ld	-11.3014
ted	-11.3016
take	-11.3023
talk	-11.3025
▁dnt	-11.3035
▁1/2	-11.3039
▁anal	-11.3046
▁pe	-11.305
▁forth	-11.3057
▁tip	-11.3069
▁whet	-11.3071
▁wears	-11.3075
girls	-11.3101
▁plays	-11.3106
▁blond	-11.3111
▁sayin	-11.3112
know	-11.3117
▁treatment	-11.3139
▁brush	-11.3141
▁onto	-11.3142
▁outfit	-11.3146
▁film	-11.3153
▁magazine	-11.3153
▁gr	-11.3155
▁boo	-11.3174
▁thong	-11.3186
▁disrespect	-11.3197
▁babe	-11.3201
▁table	-11.3213
rew	-11.3221
▁begins	-11.3225
▁john	-11.3226
▁adventurous	-11.3226
▁enemies	-11.3226
▁evidence	-11.3226
▁garbage	-11.3226
▁gossip	-11.3226
▁influence	-11.3226
▁obnoxious	-11.3226
▁remeber	-11.3226
▁saturday	-11.3226
▁senior	-11.3226
▁cruise	-11.3226
▁florida	-11.3226
▁superior	-11.3226
▁excitement	-11.3227
▁swallow	-11.3227
▁credit	-11.3227
▁therapy	-11.3227
▁adultery	-11.3227
▁naive	-11.3227
▁foreign	-11.3227
▁mark	-11.3227
▁consistently	-11.3228
▁amicable	-11.3228
▁built	-11.3228
▁apartment	-11.3228
▁alternatively	-11.3229
▁harsh	-11.3229
▁bleed	-11.323
▁su	-11.323
▁tiny	-11.3231
▁victoria	-11.3231
▁cup	-11.3232
▁initially	-11.3233
▁began	-11.3234
▁mainly	-11.3234
▁mayb	-11.3234
▁arrived	-11.3237
▁bond	-11.3238
▁expectations	-11.3238
▁filled	-11.3239
▁bull	-11.3239
▁cyber	-11.3239
▁insult	-11.324
▁jennifer	-11.324
▁spoken	-11.3242
▁changing	-11.3242
▁leg	-11.3247
mitted	-11.3248
▁office	-11.325
▁preferable	-11.3252
▁responded	-11.3254
▁strict	-11.3255
▁switch	-11.3255
▁indian	-11.3256
▁becasu	-11.326
▁attack	-11.326
▁wind	-11.3264
▁lingerie	-11.3272
▁nerves	-11.329
▁returned	-11.3291
▁piss	-11.331
▁visiting	-11.332
▁interfere	-11.3323
▁aspects	-11.3325
▁manipulate	-11.3348
▁killed	-11.3352
▁traditional	-11.3354
after	-11.3357
▁!!!	-11.3381
▁fi	-11.3384
▁wid	-11.3387
erely	-11.339
▁pi	-11.3395
▁opening	-11.3403
▁soo	-11.342
▁formal	-11.3444
▁flirty	-11.3444
▁proba	-11.3445
▁costs	-11.3458
▁orgasms	-11.3467
▁favors	-11.351
▁classic	-11.3526
▁som	-11.3564
▁ect	-11.3566
▁select	-11.3579
▁cam	-11.3592
▁affairs	-11.3602
▁sport	-11.3619
▁stops	-11.3649
long	-11.3666
▁presents	-11.3687
▁beats	-11.3687
▁fe	-11.3706
▁reputation	-11.3735
▁invitation	-11.3736
▁temptation	-11.3739
his	-11.3741
▁model	-11.3747
▁cheer	-11.3759
▁nerve	-11.3762
▁weigh	-11.3768
▁prom	-11.3768
▁stands	-11.3776
▁lip	-11.3778
▁pill	-11.3783
▁moral	-11.3785
ship	-11.3791
▁doubts	-11.38
▁america	-11.3801
▁seperate	-11.3805
▁system	-11.3815
▁angelina	-11.3815
▁confirm	-11.3815
▁japanese	-11.3815
▁enemy	-11.3815
▁dictate	-11.3815
▁grandmother	-11.3815
▁suspicious	-11.3815
▁label	-11.3815
▁slapped	-11.3816
▁machine	-11.3816
▁bodies	-11.3816
▁fights	-11.3817
▁intimidated	-11.3817
▁beforehand	-11.3818
▁undesirable	-11.3818
▁difficulties	-11.3819
▁pissed	-11.382
▁choosing	-11.382
▁embarrassing	-11.3821
▁evil	-11.3822
▁varies	-11.3823
▁distant	-11.3825
▁elsewhere	-11.3825
▁threesome	-11.3825
▁characteristics	-11.3826
▁intense	-11.3828
▁grandfather	-11.3829
▁cuddling	-11.3829
▁fu	-11.383
▁caucasian	-11.383
▁pornograph	-11.3832
▁cheaper	-11.3833
▁hottie	-11.3835
▁boxers	-11.3836
▁shaved	-11.3836
▁separated	-11.3838
▁resemble	-11.384
▁recognize	-11.3844
▁crime	-11.3845
▁pity	-11.385
▁attending	-11.3851
▁june	-11.3853
▁fling	-11.386
keep	-11.386
▁written	-11.3861
▁knees	-11.3864
▁greet	-11.3866
▁score	-11.3867
▁porno	-11.3869
▁muscles	-11.387
▁code	-11.3872
▁ot	-11.3872
▁damage	-11.3874
▁blast	-11.3877
▁mis	-11.388
otic	-11.388
▁falls	-11.3882
▁bothered	-11.3882
▁curv	-11.3882
▁pushing	-11.3887
▁pace	-11.3887
▁arguments	-11.3919
▁discussing	-11.3922
▁hat	-11.3928
▁rushing	-11.3928
▁bags	-11.3932
▁replace	-11.3935
▁advances	-11.3951
▁gosh	-11.3987
▁dudes	-11.3991
15	-11.3991
▁picked	-11.3991
▁lieing	-11.3993
▁:-	-11.4004
▁gold	-11.4016
ten	-11.403
ex	-11.4037
▁clues	-11.4047
▁hole	-11.4048
um	-11.405
law	-11.4059
yeah	-11.4077
more	-11.4087
cuz	-11.4089
▁picky	-11.4092
▁turning	-11.4113
▁stores	-11.4119
▁manage	-11.4126
▁humans	-11.4136
duh	-11.4184
▁ran	-11.4187
▁stars	-11.4187
▁hated	-11.4197
▁hump	-11.4197
best	-11.4208
----	-11.4214
▁inch	-11.4235
▁songs	-11.4269
tten	-11.4272
▁persist	-11.429
▁understands	-11.4293
▁offend	-11.4294
▁sole	-11.4323
▁conflict	-11.4349
▁/	-11.4357
▁locker	-11.436
▁possession	-11.4361
▁webcam	-11.4364
▁package	-11.4364
aught	-11.438
▁bare	-11.4382
▁minor	-11.4393
▁claim	-11.4394
▁jack	-11.4415
▁whisper	-11.4423
▁surround	-11.4424
▁lesson	-11.4424
▁page	-11.4433
▁murder	-11.4433
▁floor	-11.4436
▁judgement	-11.4439
▁california	-11.444
▁irrelevant	-11.444
▁jessica	-11.444
▁therapist	-11.444
▁fantastic	-11.444
▁muscular	-11.444
▁ocean	-11.444
▁gorgeous	-11.444
▁identity	-11.444
▁stories	-11.444
▁honeymoon	-11.444
▁buttocks	-11.444
▁hilarious	-11.444
▁johnny	-11.444
▁clarify	-11.444
▁highschool	-11.4441
▁nagging	-11.4442
▁genitals	-11.4443
▁percent	-11.4443
▁princess	-11.4443
▁shud	-11.4444
ud	-11.4444
▁retain	-11.4444
▁offended	-11.4447
▁bowling	-11.4448
▁element	-11.4449
▁cliche	-11.4451
▁politely	-11.4453
▁considerate	-11.4453
▁kinky	-11.4454
▁balance	-11.4455
▁curiosity	-11.4455
▁opportunities	-11.4455
▁rejection	-11.4456
▁bucks	-11.4459
▁folks	-11.446
▁display	-11.4462
▁stable	-11.4463
▁disrespectful	-11.4466
▁mommy	-11.4467
▁george	-11.4467
▁playa	-11.4468
▁pleasing	-11.4472
▁clitoris	-11.4472
▁butterflies	-11.4472
ds	-11.4473
▁hooked	-11.4476
▁role	-11.4478
▁relaxed	-11.4481
▁impressed	-11.4482
▁sence	-11.4482
▁complaining	-11.4483
▁camp	-11.4484
▁raised	-11.4485
▁depp	-11.4488
▁hardest	-11.449
▁lacking	-11.4499
▁expert	-11.4504
guy	-11.4504
▁cra	-11.4507
▁hotel	-11.4508
please	-11.4513
▁fishing	-11.4513
▁listed	-11.4518
ac	-11.452
▁geeks	-11.4528
▁meals	-11.4537
▁dressed	-11.4544
▁remaining	-11.4545
▁dry	-11.4549
▁forgiven	-11.4552
▁sub	-11.4562
▁timing	-11.4569
▁appreciated	-11.4577
▁restaurants	-11.458
endency	-11.4589
ical	-11.4602
▁maid	-11.4606
▁moron	-11.4611
▁lasted	-11.4619
▁recieve	-11.4624
▁allows	-11.4629
▁math	-11.4639
▁makeup	-11.4639
sh	-11.4651
▁ju	-11.4656
big	-11.4657
▁obese	-11.467
▁requires	-11.4681
▁lean	-11.4691
▁races	-11.4696
▁bc	-11.4713
▁bob	-11.473
▁yur	-11.4732
▁rear	-11.4762
▁pie	-11.4772
▁gothic	-11.4791
▁16,	-11.481
▁weed	-11.4827
▁bla	-11.484
▁affections	-11.4847
▁doc	-11.4859
worker	-11.4859
thing	-11.4862
▁dropp	-11.4902
▁erotic	-11.4912
▁lik	-11.4941
ide	-11.4967
red	-11.497
▁na	-11.4973
nce	-11.4979
arely	-11.4981
▁remains	-11.4983
▁tub	-11.4987
▁restrain	-11.4994
ties	-11.5002
▁??	-11.5009
head	-11.5014
▁assault	-11.5023
▁corner	-11.5024
▁talent	-11.5029
▁conclusion	-11.503
▁serve	-11.5032
ney	-11.5034
▁poem	-11.5038
▁circle	-11.5038
▁nerd	-11.5039
▁trait	-11.5043
▁meat	-11.5043
▁photograph	-11.5052
****	-11.5065
▁probl	-11.5076
▁cop	-11.5085
▁temper	-11.5089
▁tolerate	-11.5093
▁resolve	-11.5098
▁monkey	-11.5099
▁planet	-11.51
▁spank	-11.51
▁spread	-11.5101
▁accident	-11.5101
▁financial	-11.5102
▁kitchen	-11.5106
▁victim	-11.5106
▁earrings	-11.5106
▁unstable	-11.5106
▁families	-11.5106
▁inclined	-11.5107
▁precious	-11.5107
▁comprehend	-11.5107
▁laundry	-11.5107
▁unfair	-11.5107
▁policy	-11.5107
▁drift	-11.5107
▁curb	-11.5107
▁slutty	-11.5107
▁hygiene	-11.5108
▁license	-11.5108
▁leather	-11.5109
▁cock	-11.5109
▁whomever	-11.5111
▁worthwhile	-11.5111
▁bitter	-11.5113
▁faking	-11.5113
▁advisable	-11.5114
▁nah	-11.5118
▁exclusive	-11.5118
▁hobbies	-11.5119
▁stating	-11.5121
▁frame	-11.5122
▁necklace	-11.5122
▁incest	-11.5122
▁russian	-11.5123
▁licking	-11.5125
▁usa	-11.5127
▁singing	-11.5128
▁fought	-11.5128
▁attributes	-11.513
▁abs	-11.5138
▁po	-11.5139
▁roommate	-11.5142
▁punk	-11.5143
▁passes	-11.5144
▁tear	-11.5145
▁hopes	-11.5146
▁misse	-11.5148
▁spare	-11.5151
▁brand	-11.5153
▁incredible	-11.5154
▁nails	-11.5157
▁consent	-11.5158
▁sp	-11.5159
▁obsess	-11.516
▁ruined	-11.516
▁juice	-11.5162
▁asleep	-11.5164
▁fairy	-11.5166
▁secondly	-11.517
10	-11.5175
ya	-11.5176
ery	-11.5178
▁strings	-11.518
▁candles	-11.5187
▁.....	-11.5187
▁gaze	-11.5188
▁cars	-11.519
▁beside	-11.5191
▁havin	-11.5195
did	-11.5198
▁embrace	-11.5201
om	-11.5206
▁shock	-11.5207
▁riding	-11.521
▁theory	-11.521
life	-11.522
ping	-11.523
▁independent	-11.523
about	-11.524
▁personaly	-11.524
▁freinds	-11.5244
▁rings	-11.5259
▁hunt	-11.5261
▁imply	-11.5281
▁insist	-11.5285
say	-11.5303
inner	-11.5315
▁wine	-11.5318
however	-11.5318
ole	-11.532
▁recover	-11.5329
▁somehow	-11.5336
▁singles	-11.5393
ot	-11.5399
uld	-11.5409
▁ge	-11.5418
▁surprises	-11.5428
▁nude	-11.5467
▁behaves	-11.5473
▁dislikes	-11.5478
▁tone	-11.5479
▁notes	-11.5482
only	-11.5484
▁promises	-11.5494
cool	-11.5496
▁360	-11.551
sing	-11.5524
▁ch	-11.554
▁pa	-11.5564
other	-11.5576
thanks	-11.5577
ace	-11.5586
▁acquaintances	-11.5602
▁pin	-11.5608
▁weddings	-11.5612
pe	-11.5615
▁sur	-11.5668
▁bcuz	-11.567
?????	-11.5675
never	-11.568
▁purple	-11.573
▁artist	-11.573
▁believ	-11.5734
▁arrive	-11.5735
▁skirt	-11.5741
▁object	-11.575
▁snap	-11.5751
▁vibrator	-11.5757
ze	-11.5763
▁fruit	-11.5763
▁ticket	-11.5766
▁pig	-11.5777
▁peer	-11.5789
▁knee	-11.5798
▁def	-11.5802
▁steps	-11.5806
▁strength	-11.5812
▁smack	-11.5816
▁passionate	-11.5817
▁sumthin	-11.5819
▁junior	-11.5821
▁nigeria	-11.5821
▁reccommend	-11.5821
▁satisfaction	-11.5821
▁vulgar	-11.5821
▁identify	-11.5821
▁replies	-11.5821
▁david	-11.5821
▁desperation	-11.5821
▁vehicle	-11.5821
▁committment	-11.5821
▁nineteen	-11.5821
▁primarily	-11.5821
▁bonus	-11.5821
▁definetly	-11.5821
▁energy	-11.5821
▁cherry	-11.5821
▁cowboy	-11.5821
▁companionship	-11.5821
▁appearence	-11.5822
▁granted	-11.5822
▁prolly	-11.5822
▁zone	-11.5823
▁destiny	-11.5823
▁supportive	-11.5824
▁masturbating	-11.5824
▁conversing	-11.5825
▁york	-11.5826
▁sperm	-11.5828
▁wood	-11.583
▁manhood	-11.5831
▁generation	-11.5833
▁progress	-11.5834
▁compromise	-11.5835
▁blank	-11.5837
▁chinese	-11.5837
▁walmart	-11.5837
▁assertive	-11.5838
▁defend	-11.5838
▁ipod	-11.584
▁deleted	-11.5842
▁jay	-11.5844
▁performed	-11.5847
▁spelled	-11.5848
▁hood	-11.585
▁60	-11.5851
▁burger	-11.5853
▁section	-11.5855
▁soccer	-11.5856
self	-11.5856
▁harmful	-11.5858
▁ka	-11.5863
ence	-11.5867
▁persuade	-11.5869
▁ye	-11.587
▁80	-11.5873
▁uncertain	-11.5881
▁eggs	-11.5882
▁fulfilling	-11.5883
▁breathing	-11.5885
▁survive	-11.5888
▁guide	-11.5889
ig	-11.589
destined	-11.5892
▁spy	-11.5892
▁thongs	-11.5895
▁thumb	-11.5898
▁poems	-11.5899
▁pitt	-11.59
play	-11.5901
▁ummm	-11.5902
▁determined	-11.591
▁bff	-11.591
▁200	-11.5912
once	-11.5912
▁18.	-11.592
▁belongs	-11.5921
▁bold	-11.5923
▁dun	-11.5927
▁bow	-11.5948
▁centered	-11.5952
ist	-11.5954
▁breathe	-11.596
▁leading	-11.5962
▁shared	-11.5966
▁begining	-11.5969
ley	-11.5972
00	-11.5973
▁hopeless	-11.5996
▁tr	-11.6
▁sweety	-11.6001
▁woke	-11.6002
▁31	-11.6006
want	-11.6007
▁headed	-11.6014
▁manly	-11.6018
enjoy	-11.6026
▁additional	-11.6028
▁occasions	-11.603
▁income	-11.6036
13	-11.6052
ad	-11.6057
▁preferences	-11.6065
ign	-11.6068
▁ta	-11.6072
baby	-11.6079
ings	-11.6086
▁com	-11.6091
▁topics	-11.6109
live	-11.612
▁companions	-11.6126
▁wih	-11.613
▁pl	-11.6136
▁motion	-11.6179
coz	-11.6186
two	-11.6187
▁risks	-11.6193
having	-11.6204
▁sould	-11.6206
met	-11.6216
put	-11.6218
▁ki	-11.6223
▁friendships	-11.6259
▁bike	-11.6302
▁iran	-11.6307
▁dime	-11.6313
▁mates	-11.6322
spot	-11.6331
▁eh	-11.6335
ns	-11.6337
▁sta	-11.6349
iest	-11.6351
ess	-11.6351
▁gi	-11.6359
▁???	-11.6361
▁dose	-11.6365
▁unite	-11.6376
ss	-11.6376
▁mu	-11.6388
▁pam	-11.6404
▁responses	-11.6434
▁tri	-11.6436
▁land	-11.6445
▁js	-11.6487
▁swing	-11.6499
▁source	-11.6504
over	-11.6506
▁addict	-11.651
▁moder	-11.6515
▁dvd	-11.6516
▁xxx	-11.6517
▁muscle	-11.6517
▁afterward	-11.6521
▁bird	-11.6538
▁conquer	-11.6543
wait	-11.6558
here	-11.6559
▁fav	-11.6565
▁scene	-11.658
▁betray	-11.6581
▁repair	-11.6583
▁unconditional	-11.6585
▁detective	-11.659
▁furniture	-11.659
▁jersey	-11.659
▁testosterone	-11.659
▁worship	-11.659
▁competition	-11.659
▁famous	-11.659
▁concept	-11.659
▁importance	-11.659
▁portray	-11.659
▁inebriated	-11.659
▁sincerity	-11.659
▁minimum	-11.6591
▁routine	-11.6591
▁erection	-11.6591
▁diffrent	-11.6591
▁powerful	-11.6591
▁foremost	-11.6591
▁tree	-11.6591
▁reconsider	-11.6591
▁ohio	-11.6591
▁judging	-11.6592
▁conservative	-11.6592
▁occupy	-11.6592
▁category	-11.6592
▁chasing	-11.6592
▁memory	-11.6593
▁inviting	-11.6593
▁petals	-11.6593
▁whine	-11.6595
▁winter	-11.6595
▁arouse	-11.6597
▁unlikely	-11.6597
2000	-11.66
▁coat	-11.66
▁congrats	-11.66
▁pointless	-11.66
▁upfront	-11.6601
▁personalities	-11.6601
▁revealed	-11.6604
▁reflect	-11.6607
▁interpret	-11.6607
▁authentic	-11.6607
▁odor	-11.661
▁greener	-11.6611
▁teasing	-11.6611
▁educated	-11.6612
▁insight	-11.6613
▁skills	-11.6614
▁secure	-11.6621
▁bcoz	-11.6624
▁army	-11.6624
▁sucked	-11.6629
▁adventure	-11.6631
▁idk	-11.6632
▁yourselves	-11.6633
▁salt	-11.6633
▁grrrs	-11.6634
▁tested	-11.6634
▁tounge	-11.6634
▁persue	-11.6635
▁des	-11.6639
▁youngest	-11.6644
▁askin	-11.6645
▁jest	-11.6645
▁rely	-11.6648
▁gee	-11.6649
▁behalf	-11.6656
▁partial	-11.6657
▁destroy	-11.6657
▁fourth	-11.6659
▁pushy	-11.6664
▁moms	-11.6665
▁ac	-11.6666
▁longest	-11.6668
▁nerds	-11.6676
▁outgoing	-11.6681
▁magazines	-11.6694
un	-11.6696
▁nick	-11.6699
▁forced	-11.6699
▁te	-11.6701
▁straightforward	-11.6702
▁tears	-11.6703
▁fashioned	-11.6705
▁killer	-11.6706
▁hips	-11.6716
▁13,	-11.6718
▁spit	-11.6719
40	-11.6722
▁befriend	-11.6732
▁becuz	-11.6747
▁liars	-11.6752
▁services	-11.6753
help	-11.6765
real	-11.6771
make	-11.6773
▁torn	-11.6814
▁evening	-11.6825
▁lime	-11.6841
▁sho	-11.6843
▁exceptional	-11.6848
▁fed	-11.6856
▁rat	-11.6861
▁gra	-11.6877
?!?	-11.688
ying	-11.6918
ake	-11.6932
...)	-11.695
▁alittle	-11.6962
▁devote	-11.6996
▁nail	-11.7003
▁mistaken	-11.7011
ated	-11.7012
whatever	-11.7038
▁ad	-11.7044
▁jobs	-11.7047
laying	-11.7053
▁creat	-11.7057
especially	-11.7085
▁held	-11.7113
▁mouths	-11.7126
▁sun	-11.713
▁continu	-11.714
:-)	-11.7152
▁bus	-11.7157
ory	-11.7174
oo	-11.7181
▁submi	-11.7197
eight	-11.722
hole	-11.7227
gf	-11.7257
▁flip	-11.7267
net	-11.7284
▁basic	-11.7291
▁ditch	-11.7296
▁doin	-11.7306
ring	-11.7322
▁hearts	-11.7332
▁project	-11.7333
▁standard	-11.7353
ied	-11.7353
▁teenager	-11.7357
ma	-11.7364
▁sis	-11.7367
▁hill	-11.7369
▁dosen	-11.7382
▁ship	-11.7387
▁prioriti	-11.7396
ir	-11.7397
▁relative	-11.7409
▁conclude	-11.741
▁reverse	-11.7412
▁mistress	-11.7418
▁accurate	-11.7418
▁recent	-11.742
▁nag	-11.7422
▁privacy	-11.7423
▁anxious	-11.7423
▁august	-11.7423
▁mexico	-11.7423
▁military	-11.7423
▁platonic	-11.7423
▁vanilla	-11.7423
▁disregard	-11.7423
▁orientation	-11.7423
▁jelous	-11.7423
▁violence	-11.7423
▁premarita	-11.7423
▁abnormal	-11.7423
▁medication	-11.7423
▁eager	-11.7423
▁imagination	-11.7423
▁betrothed	-11.7424
▁panic	-11.7424
▁motivation	-11.7424
▁childhood	-11.7424
▁eleven	-11.7424
▁simultaneously	-11.7424
▁marrage	-11.7424
▁household	-11.7424
▁resort	-11.7424
▁potatoes	-11.7424
▁slave	-11.7424
▁repeatedly	-11.7425
▁hobby	-11.7425
▁pleasurable	-11.7425
▁regain	-11.7426
▁impressive	-11.7427
▁committing	-11.7428
▁unacceptable	-11.7428
▁pussy	-11.7429
▁cried	-11.7429
▁understood	-11.743
▁snow	-11.7433
▁partnership	-11.7433
▁smoothly	-11.7433
▁sexiest	-11.7433
▁tension	-11.7434
▁randomly	-11.7435
▁latino	-11.7435
▁locked	-11.7435
▁blessed	-11.7439
▁paris	-11.7439
▁caps	-11.7439
▁accomplished	-11.744
▁stab	-11.744
▁satisfactory	-11.7441
▁niece	-11.7441
▁poetry	-11.7442
▁baseball	-11.7442
▁whatsoever	-11.7442
▁beacuse	-11.7442
▁automatically	-11.7442
▁gained	-11.7447
▁sober	-11.7448
▁produce	-11.7448
▁superficial	-11.7449
▁reconcile	-11.7453
▁agreeable	-11.7458
▁master	-11.746
▁screaming	-11.746
▁station	-11.7462
▁presently	-11.7463
▁sensation	-11.7463
▁grateful	-11.7464
▁45	-11.7467
▁connected	-11.7473
▁measure	-11.7473
▁lightly	-11.7477
▁grace	-11.7478
▁abused	-11.7479
▁planned	-11.7488
very	-11.7488
▁nipples	-11.7493
▁carefull	-11.7497
▁risky	-11.7497
▁asap	-11.7499
▁holy	-11.7499
▁lovin	-11.7502
need	-11.7504
▁meantime	-11.7512
▁homosexuals	-11.7513
▁heartache	-11.7516
▁hiv	-11.7517
▁similarly	-11.7519
▁posting	-11.7519
2;	-11.752
▁towel	-11.7522
▁reassure	-11.7526
▁suits	-11.7527
believe	-11.7531
▁existing	-11.7537
▁din	-11.7539
▁ups	-11.7547
▁ab	-11.7549
case	-11.755
▁beliefs	-11.7554
▁tie	-11.7556
ee	-11.7558
▁sti	-11.7563
▁pimp	-11.757
▁protected	-11.7576
▁sry	-11.7578
▁pertain	-11.759
▁teens	-11.7591
▁gro	-11.7591
ative	-11.7595
▁aunt	-11.7607
run	-11.7624
▁pages	-11.7628
really	-11.7633
▁str	-11.7642
▁yuck	-11.7642
▁selves	-11.7647
ipped	-11.7657
!!)	-11.7658
▁cats	-11.7667
▁cooks	-11.7675
▁exes	-11.7678
▁acquaintance	-11.7686
▁erect	-11.7736
ions	-11.7737
rate	-11.7744
hope	-11.7757
▁fee	-11.7764
▁periods	-11.7776
▁hairy	-11.7778
▁moan	-11.7785
▁3-	-11.7798
ill	-11.7813
▁losers	-11.7817
▁theater	-11.7824
easy	-11.7827
▁efforts	-11.7829
▁whos	-11.7837
▁chic	-11.7838
versa	-11.7845
money	-11.7846
off	-11.786
▁goth	-11.7863
▁esp	-11.7878
▁versa	-11.7898
▁yer	-11.7918
▁agrees	-11.7924
▁groups	-11.7971
ving	-11.7995
▁fathers	-11.7995
▁collect	-11.8003
ca	-11.8016
box	-11.8018
plus	-11.8022
ah	-11.8022
ol	-11.8035
ternal	-11.8052
▁skip	-11.8053
▁appearances	-11.8079
first	-11.8091
name	-11.8092
ight	-11.8097
▁je	-11.8097
▁par	-11.812
always	-11.8143
▁bum	-11.8152
act	-11.8167
▁happ	-11.817
▁fools	-11.8174
married	-11.8194
cy	-11.8208
read	-11.8209
▁freakin	-11.821
ure	-11.8226
▁resent	-11.8229
▁alternative	-11.823
▁perv	-11.8236
▁21,	-11.8237
▁decline	-11.8239
▁intrest	-11.8251
▁brief	-11.8253
▁gesture	-11.8255
ding	-11.8256
▁stripper	-11.8257
▁student	-11.8258
too	-11.8259
▁channel	-11.8261
▁spanking	-11.8261
▁feature	-11.8262
ial	-11.8272
▁ou	-11.8281
▁36	-11.8281
▁sends	-11.8281
▁ble	-11.8298
▁frighten	-11.8312
▁bein	-11.8316
▁delay	-11.8316
▁bound	-11.8319
ht	-11.8321
▁reward	-11.8322
▁gather	-11.8325
▁engine	-11.8328
▁worlds	-11.8328
▁excessive	-11.8328
▁billion	-11.833
▁speech	-11.8332
▁bracelet	-11.8332
▁attorney	-11.8332
▁burden	-11.8332
▁carolina	-11.8332
▁conduct	-11.8332
▁hawaii	-11.8332
▁hickey	-11.8332
▁schedule	-11.8332
▁testicles	-11.8332
▁vulnerable	-11.8332
▁athletic	-11.8332
▁irresponsible	-11.8332
▁continuously	-11.8332
▁cheesy	-11.8332
▁fellatio	-11.8332
▁sentiment	-11.8332
▁relief	-11.8332
▁unsuccessful	-11.8332
▁relinquish	-11.8332
▁egotistical	-11.8333
▁numerous	-11.8333
▁residence	-11.8333
▁jolie	-11.8333
▁immensely	-11.8333
▁sunday	-11.8333
▁contemplat	-11.8333
▁adorable	-11.8333
▁ignorance	-11.8333
▁kool	-11.8333
▁bottle	-11.8333
▁indication	-11.8333
▁terribly	-11.8333
▁fifth	-11.8333
▁urinate	-11.8333
▁library	-11.8333
▁failure	-11.8333
▁poop	-11.8333
▁cupid	-11.8333
▁realtionship	-11.8333
▁realistic	-11.8333
▁junk	-11.8333
▁specify	-11.8333
▁surgery	-11.8334
▁harmless	-11.8334
▁participating	-11.8334
▁heartbroken	-11.8334
▁masculine	-11.8334
▁colour	-11.8334
▁abstain	-11.8334
▁nonsense	-11.8334
▁debt	-11.8334
▁disturbing	-11.8334
▁freshman	-11.8335
▁ultimately	-11.8335
▁subsequently	-11.8335
▁thanx	-11.8335
▁march	-11.8336
▁judgment	-11.8336
▁jelly	-11.8336
▁selection	-11.8336
▁housework	-11.8336
▁misunderstand	-11.8337
▁engagement	-11.8337
▁obey	-11.8337
▁overboard	-11.8337
▁flattered	-11.8338
▁corny	-11.8338
▁realizing	-11.8338
▁depth	-11.8338
▁flaws	-11.8339
▁typing	-11.8339
▁que	-11.834
▁backwards	-11.834
▁relevant	-11.8341
▁lube	-11.8342
▁celebrate	-11.8342
▁finances	-11.8343
▁studying	-11.8345
▁speed	-11.8347
▁tattoos	-11.8347
▁nerdy	-11.8347
▁budget	-11.8348
▁soooo	-11.835
▁meanwhile	-11.835
▁spring	-11.8351
▁continuing	-11.8351
▁josh	-11.8352
▁borrow	-11.8352
▁apologies	-11.8352
▁cheese	-11.8353
▁laughter	-11.8353
▁bullet	-11.8355
▁waht	-11.8356
▁nike	-11.8357
▁respectable	-11.8358
▁legally	-11.8358
▁elses	-11.8361
▁redheads	-11.8365
ious	-11.8366
▁attended	-11.837
▁rolling	-11.8372
▁lmao	-11.8374
▁mini	-11.8375
▁enjoyment	-11.8376
▁mexican	-11.8377
bout	-11.8378
▁included	-11.8379
▁scratch	-11.8381
▁liek	-11.8385
▁endeavors	-11.8386
▁cow	-11.8386
▁slim	-11.8386
▁penises	-11.8387
▁blowing	-11.8389
▁hooker	-11.839
▁mite	-11.8391
▁reasonable	-11.8394
▁solved	-11.8396
▁accuse	-11.8399
▁perverts	-11.8401
de	-11.8402
▁stink	-11.8403
▁literally	-11.8403
▁discussed	-11.8403
▁definat	-11.8409
▁differ	-11.8411
▁approached	-11.8417
▁dang	-11.8418
▁dirt	-11.8422
▁cops	-11.8425
▁arrives	-11.843
▁responding	-11.8443
▁defin	-11.8447
ver	-11.8455
▁ti	-11.8459
▁alas	-11.846
▁factors	-11.8463
▁joining	-11.8464
▁urges	-11.8474
▁wor	-11.8487
both	-11.8488
▁prostitutes	-11.8498
▁spite	-11.8498
▁advised	-11.8506
-3	-11.8513
▁maby	-11.8513
▁stuffed	-11.8526
▁fade	-11.8528
▁utter	-11.8544
per	-11.8549
▁flick	-11.8552
▁plane	-11.8553
▁ol	-11.8554
▁habits	-11.8562
▁cheeks	-11.857
cal	-11.8591
▁rocks	-11.86
▁stds	-11.8606
ends	-11.8611
▁mac	-11.8614
were	-11.8617
▁dumping	-11.8619
ho	-11.8625
▁16.	-11.8633
▁accus	-11.8647
▁smiled	-11.8653
▁compar	-11.8684
▁north	-11.8684
q	-11.8706
▁players	-11.8711
▁sons	-11.8712
▁proble	-11.8724
▁zoo	-11.8743
▁requests	-11.8752
)!	-11.8766
▁button	-11.8768
▁art	-11.8787
partner	-11.88
▁shirts	-11.8801
▁seth	-11.8808
▁bat	-11.8818
ite	-11.8821
ith	-11.8828
▁rap	-11.8834
▁concerns	-11.884
ou	-11.8842
gether	-11.8862
mo	-11.8879
▁tap	-11.888
▁hers	-11.8889
▁exception	-11.8898
▁sins	-11.89
early	-11.891
shirt	-11.8927
erto	-11.8972
ically	-11.9009
▁generat	-11.9014
,,,	-11.9015
made	-11.9018
▁fac	-11.902
▁putt	-11.9022
confidence	-11.9025
insert	-11.9031
▁beast	-11.9045
wow	-11.9046
▁spirit	-11.9053
▁cultur	-11.9054
▁pump	-11.9063
four	-11.9066
▁wan	-11.9068
▁oppose	-11.9075
▁shell	-11.9078
ept	-11.909
▁gays	-11.9094
▁answ	-11.9107
lots	-11.914
▁sizes	-11.9162
▁reasoning	-11.9175
na	-11.9177
ys	-11.9204
▁involv	-11.9216
▁inlove	-11.9224
▁graduate	-11.9225
▁prince	-11.9232
▁fin	-11.9233
▁---	-11.9239
▁entertain	-11.924
▁silence	-11.924
from	-11.9244
▁seat	-11.9245
▁interaction	-11.9249
▁assumption	-11.9252
▁pervert	-11.9253
▁coupon	-11.9254
▁museum	-11.9255
▁winner	-11.9261
iness	-11.9261
▁dollar	-11.9263
▁expression	-11.9282
ow	-11.929
▁mere	-11.9292
............	-11.9293
ier	-11.93
▁blessing	-11.9301
▁thousand	-11.9303
▁chatroom	-11.9304
inch	-11.9308
▁pakistan	-11.9313
▁inter	-11.9314
▁treasure	-11.9318
▁wrap	-11.9323
▁realise	-11.9323
▁tax	-11.9324
▁examine	-11.9326
▁apparent	-11.9328
▁twist	-11.9331
▁zip	-11.9332
▁banana	-11.9332
▁brazil	-11.9332
▁certificate	-11.9332
▁cheerleader	-11.9332
▁chivalry	-11.9332
▁daniel	-11.9332
▁dictionary	-11.9332
▁discipline	-11.9332
▁eharmony	-11.9332
▁environment	-11.9332
▁equivalen	-11.9332
▁exhibit	-11.9332
▁hospital	-11.9332
▁neglect	-11.9332
▁obligation	-11.9332
▁puberty	-11.9332
▁reception	-11.9332
▁trophy	-11.9332
▁boundaries	-11.9332
▁occupied	-11.9332
▁popcorn	-11.9332
▁stereotypical	-11.9332
▁population	-11.9332
▁slender	-11.9332
▁depression	-11.9332
▁investigate	-11.9332
▁program	-11.9332
▁washington	-11.9332
▁psychic	-11.9332
▁rekindl	-11.9332
▁interracial	-11.9332
▁zero	-11.9332
▁barbie	-11.9333
▁punishment	-11.9333
▁boyfreind	-11.9333
▁sympathy	-11.9333
▁beyonce	-11.9333
▁trimmed	-11.9333
▁agian	-11.9333
▁forehead	-11.9333
▁teenage	-11.9333
▁stressful	-11.9333
▁braces	-11.9333
▁resume	-11.9333
▁smith	-11.9333
▁trailer	-11.9334
▁challenging	-11.9334
▁blog	-11.9334
▁square	-11.9335
▁floats	-11.9335
▁homosexuality	-11.9336
▁winning	-11.9336
▁brag	-11.9337
▁excessively	-11.9337
▁golden	-11.9337
▁exchange	-11.9337
▁threatened	-11.9337
▁arousing	-11.9338
▁passionately	-11.9339
▁unmarried	-11.9339
▁herpes	-11.9339
▁z	-11.934
▁warning	-11.934
▁medium	-11.934
▁glance	-11.934
▁firmly	-11.934
▁greedy	-11.934
▁morally	-11.9341
▁reside	-11.9342
▁shyness	-11.9343
▁latex	-11.9344
▁38	-11.9346
▁upsetting	-11.9347
▁study	-11.9348
▁gap	-11.935
▁target	-11.9353
▁april	-11.9353
▁reunion	-11.9354
▁fortune	-11.9354
▁fortunate	-11.9355
▁blanket	-11.9356
▁alcoholic	-11.9356
▁boyz	-11.9356
▁virtual	-11.9357
▁greetings	-11.9361
▁frankly	-11.9362
▁cents	-11.9363
▁farther	-11.9371
▁sweetest	-11.9373
▁hunting	-11.9375
▁hotter	-11.9375
▁wana	-11.9376
▁texting	-11.938
▁offered	-11.9384
▁protective	-11.9385
li	-11.9386
racial	-11.9386
▁freaked	-11.9388
▁fucking	-11.939
rl	-11.9394
▁stinks	-11.9394
▁sixty	-11.9394
▁relatives	-11.9397
▁bones	-11.9397
▁infront	-11.94
▁fired	-11.9401
▁entering	-11.9402
▁den	-11.9407
▁rice	-11.9409
▁colored	-11.9413
▁wide	-11.9414
▁cutest	-11.9417
▁anderson	-11.9419
▁freely	-11.9422
▁heavi	-11.9426
▁dvds	-11.943
▁developed	-11.9431
▁52	-11.9431
▁crave	-11.9434
▁michael	-11.9438
??????	-11.9439
▁bowl	-11.9444
▁praying	-11.945
▁users	-11.9453
▁offering	-11.9454
▁cheers	-11.9455
▁core	-11.9462
▁pretending	-11.9463
ps	-11.9464
▁films	-11.9465
ned	-11.9465
▁loads	-11.9468
▁doll	-11.9472
▁kicking	-11.9483
dies	-11.9484
ixed	-11.9486
▁suggested	-11.9486
▁jk	-11.9491
▁mint	-11.9492
▁sluts	-11.9499
ones	-11.95
▁neat	-11.9503
▁3)	-11.9506
▁4.	-11.951
▁wax	-11.9525
▁darn	-11.9531
▁cds	-11.9536
▁board	-11.9543
▁flirted	-11.9548
▁moderate	-11.9554
▁profiles	-11.9557
▁avoiding	-11.9563
▁cu	-11.9565
▁pr	-11.9571
▁worn	-11.9577
▁meaningful	-11.9584
▁hall	-11.959
▁prude	-11.9599
anything	-11.9612
▁sms	-11.962
▁tru	-11.9625
▁43	-11.9625
▁1000	-11.9636
▁statements	-11.9637
nice	-11.9638
▁sleeps	-11.9656
▁cum	-11.9661
being	-11.9664
▁continued	-11.9669
▁areas	-11.967
▁adores	-11.9676
gent	-11.9681
breaking	-11.9686
▁sam	-11.9692
▁thus	-11.9696
ard	-11.9699
▁figur	-11.9712
dy	-11.9736
▁spots	-11.9737
great	-11.9751
come	-11.9777
▁pan	-11.9779
▁thankful	-11.9796
▁flag	-11.9811
▁asians	-11.9823
▁ver	-11.9842
▁ski	-11.9848
▁sour	-11.9852
▁2006	-11.9869
▁probabl	-11.9877
▁organ	-11.9888
ect	-11.9909
▁wishing	-11.9924
▁blunt	-11.9925
▁masturbati	-11.9936
▁comming	-11.9939
stop	-11.994
▁spam	-11.9944
▁faults	-11.9955
ple	-12.0014
ny	-12.0018
yo	-12.0036
▁grip	-12.0037
people	-12.0073
▁dec	-12.0083
▁vs	-12.0088
ways	-12.0091
check	-12.0093
▁nuthin	-12.0098
▁cuts	-12.0106
▁picks	-12.0108
24	-12.011
20	-12.0111
▁explor	-12.0124
▁lasting	-12.0125
▁reall	-12.0129
▁hoo	-12.0133
bf	-12.0136
besides	-12.0141
▁fri	-12.015
▁plant	-12.0152
▁rel	-12.0168
▁latin	-12.0172
▁55	-12.0194
ries	-12.0203
pm	-12.0228
rr	-12.0241
▁apple	-12.026
▁boob	-12.0293
▁plac	-12.0297
▁bugg	-12.0311
something	-12.032
▁;	-12.0323
ile	-12.0324
haha	-12.0327
▁compete	-12.0331
▁basket	-12.0339
▁creep	-12.0346
▁scenario	-12.0359
▁thrill	-12.036
▁european	-12.0361
▁error	-12.0361
▁pillow	-12.0364
▁battle	-12.0366
▁vow	-12.0371
▁candle	-12.0382
▁cus	-12.039
▁25,	-12.0401
▁access	-12.0402
ball	-12.0403
▁spill	-12.0409
▁trie	-12.0417
▁troubles	-12.0418
▁laughs	-12.042
▁tech	-12.0422
▁mon	-12.043
▁provid	-12.0431
▁whant	-12.0433
▁suprise	-12.0434
▁punish	-12.0437
▁terminate	-12.0438
▁visual	-12.0439
▁sudden	-12.0439
hing	-12.0441
▁endure	-12.0443
▁japan	-12.0443
▁album	-12.0443
▁challange	-12.0443
▁anatomy	-12.0443
▁anonymous	-12.0443
▁celebrity	-12.0443
▁counciling	-12.0443
▁creatures	-12.0443
▁extravagant	-12.0443
▁fabulous	-12.0443
▁hispanic	-12.0443
▁intuition	-12.0443
▁karaoke	-12.0443
▁lubrication	-12.0443
▁obligated	-12.0443
▁seldom	-12.0443
▁graduation	-12.0443
▁medicine	-12.0443
▁sympathize	-12.0443
▁crawl	-12.0443
▁muslim	-12.0443
▁contrary	-12.0443
▁undergarments	-12.0443
▁amusement	-12.0443
▁redneck	-12.0444
▁chemical	-12.0444
▁afternoon	-12.0444
▁bliss	-12.0444
▁celibate	-12.0444
▁slang	-12.0444
▁bomb	-12.0444
▁occurrence	-12.0444
▁mercy	-12.0444
▁cinema	-12.0444
▁countries	-12.0444
▁combination	-12.0444
▁hatred	-12.0444
▁bastard	-12.0444
▁steak	-12.0444
▁submissive	-12.0444
▁ryan	-12.0444
▁confide	-12.0445
▁inconsiderate	-12.0445
▁loyalty	-12.0445
▁freindship	-12.0445
▁elderly	-12.0445
▁concur	-12.0445
▁unwise	-12.0445
▁humble	-12.0445
▁frustrated	-12.0445
▁macho	-12.0446
▁clingy	-12.0446
▁slob	-12.0446
▁completly	-12.0446
▁favour	-12.0446
▁perky	-12.0446
▁playful	-12.0447
▁witnessed	-12.0448
▁handful	-12.0448
▁directory	-12.0448
▁experiment	-12.0449
▁conscience	-12.0449
▁mister	-12.0449
▁center	-12.0449
▁hugging	-12.0449
▁jesse	-12.045
▁flatter	-12.045
▁guard	-12.045
▁injured	-12.045
▁sappy	-12.045
▁noticing	-12.045
▁knowledgeable	-12.0451
▁shocked	-12.0452
▁thoughtful	-12.0453
▁inexpensive	-12.0453
▁cancer	-12.0453
▁peck	-12.0453
side	-12.0455
▁plate	-12.0455
▁deliver	-12.0456
▁suicide	-12.0456
▁admitted	-12.0457
▁gadgets	-12.0457
▁youthful	-12.0458
tic	-12.0458
▁graduated	-12.0458
▁desir	-12.0459
▁certainty	-12.046
▁curves	-12.046
▁peter	-12.046
▁actuality	-12.0462
▁venus	-12.0463
▁orange	-12.0463
▁piercings	-12.0466
▁intent	-12.0466
▁kindness	-12.0467
▁insecurities	-12.0467
▁compassion	-12.0467
▁adoption	-12.0467
▁murderer	-12.0467
▁defense	-12.0468
▁motivate	-12.0468
▁ment	-12.0468
▁juz	-12.0469
▁attractiveness	-12.0469
▁petite	-12.0471
▁bella	-12.0471
▁msn	-12.0473
▁virus	-12.0475
▁complications	-12.0475
ingly	-12.0476
▁gloves	-12.0477
▁wisely	-12.0477
▁makin	-12.0477
▁thugs	-12.0477
▁quietly	-12.0478
▁sack	-12.0479
▁vibe	-12.048
▁truthfully	-12.0483
▁seasons	-12.0488
▁complement	-12.0489
▁classmates	-12.049
▁satisfying	-12.0491
▁touches	-12.0491
▁steve	-12.0494
▁positively	-12.0497
▁eaten	-12.0497
▁acknowledge	-12.05
▁dearly	-12.0501
referred	-12.0501
▁removed	-12.0503
2004	-12.0505
▁latest	-12.0506
▁strangely	-12.0507
▁improper	-12.0508
▁senses	-12.0511
▁kicked	-12.0514
date	-12.0515
▁string	-12.0519
▁sandwich	-12.0524
▁convinced	-12.0525
peak	-12.0526
▁blessings	-12.0529
▁2005	-12.0531
▁gud	-12.0533
▁students	-12.0537
▁briefs	-12.0537
▁lovable	-12.0538
!!!!!!!!!!!!!!!	-12.0548
▁holds	-12.0549
▁birds	-12.0549
▁swinging	-12.0552
▁teaching	-12.056
▁promised	-12.0564
▁james	-12.0564
▁pills	-12.0571
card	-12.0576
▁jumping	-12.0577
▁dork	-12.0589
▁bait	-12.0599
▁tasks	-12.0601
▁pursued	-12.0602
▁cure	-12.0618
▁anyhow	-12.0619
looks	-12.062
▁valid	-12.0621
▁root	-12.0621
▁duck	-12.0625
▁gun	-12.0629
▁ties	-12.0632
▁flash	-12.0633
ime	-12.0633
▁compensate	-12.0638
...?	-12.0641
▁thou	-12.0643
ably	-12.0646
▁neighbors	-12.0653
▁input	-12.0654
▁alway	-12.0659
)?	-12.0692
▁approaching	-12.0696
▁pieces	-12.0705
▁......	-12.073
▁coast	-12.0732
▁kindly	-12.074
ular	-12.0747
▁lu	-12.0752
▁includes	-12.0753
ew	-12.0758
▁tricks	-12.0768
seven	-12.0771
▁relocate	-12.0779
▁poster	-12.0782
than	-12.0782
ability	-12.0786
▁ouch	-12.0789
11	-12.0792
▁employ	-12.0793
▁rise	-12.0798
▁controling	-12.0823
▁akin	-12.0828
▁demon	-12.0833
▁cheatin	-12.0845
active	-12.0847
▁applie	-12.0852
same	-12.0862
giving	-12.0868
move	-12.0869
▁opposites	-12.0875
own	-12.0876
▁attempts	-12.0878
▁coin	-12.0884
whats	-12.0888
▁lane	-12.0913
▁sale	-12.0915
?...	-12.0915
gged	-12.0917
▁urs	-12.0919
▁wha	-12.0922
▁streets	-12.0922
ved	-12.0942
covered	-12.095
▁peach	-12.0953
bs	-12.0955
▁fears	-12.097
▁title	-12.0973
▁prov	-12.0974
find	-12.0974
▁justify	-12.099
▁peoples	-12.0992
sed	-12.0992
kes	-12.0997
▁threaten	-12.101
▁heat	-12.1017
▁sat	-12.1037
▁slip	-12.1041
bye	-12.1045
arily	-12.1068
sion	-12.1075
ak	-12.1075
▁becareful	-12.1083
ture	-12.1088
▁fries	-12.1097
wise	-12.1132
▁arm	-12.1143
▁downs	-12.1153
▁yu	-12.1171
▁facts	-12.1185
full	-12.1207
hat	-12.1212
▁listens	-12.1237
ities	-12.1237
▁condition	-12.1244
walk	-12.1246
▁behaviors	-12.1283
▁belly	-12.1284
▁haunt	-12.129
three	-12.1292
god	-12.1303
▁res	-12.1315
▁nin	-12.1322
▁comp	-12.1323
▁outlook	-12.1323
..:)	-12.1324
polar	-12.1335
chick	-12.1348
boys	-12.1352
minded	-12.1358
▁anus	-12.1376
except	-12.1394
▁uhh	-12.1404
hmmm	-12.1405
free	-12.1407
▁cr	-12.1412
▁horn	-12.1417
▁girly	-12.1421
doing	-12.1426
▁sand	-12.1434
▁ans	-12.1447
▁fl	-12.145
willing	-12.1469
dd	-12.1473
trained	-12.15
▁befor	-12.1512
▁tire	-12.1532
▁paint	-12.1533
▁rai	-12.1538
▁abo	-12.154
see	-12.1546
rapped	-12.1547
▁noone	-12.1553
▁engra	-12.1554
▁wins	-12.1577
▁stud	-12.1582
▁.........	-12.1587
▁runs	-12.1594
▁advertisement	-12.1601
▁degree	-12.1602
▁kn	-12.1606
▁ob	-12.1609
▁nickname	-12.161
▁frequent	-12.1611
▁requirement	-12.1615
▁jacket	-12.1616
▁posterior	-12.1617
▁endeavor	-12.1619
▁novel	-12.1619
▁grrr	-12.1622
▁imagin	-12.1626
▁nic	-12.1628
▁cafe	-12.1632
▁bank	-12.1636
▁swim	-12.1636
▁frinds	-12.1637
▁dosn	-12.1638
▁blam	-12.1645
rital	-12.1647
laws	-12.1651
▁determin	-12.1663
▁pressur	-12.1673
▁tickle	-12.1674
▁woul	-12.1675
▁pm	-12.1677
▁deceive	-12.1681
▁wealth	-12.1683
▁noise	-12.1687
▁spontaneous	-12.1689
▁depart	-12.169
▁relieve	-12.1693
▁incident	-12.1693
aid	-12.1693
▁royal	-12.1693
▁craigslist	-12.1693
▁anorexic	-12.1693
▁bachelor	-12.1693
▁carnival	-12.1693
▁egypt	-12.1693
▁episode	-12.1693
▁ceremony	-12.1693
▁dessert	-12.1693
▁distasteful	-12.1693
▁identification	-12.1693
▁incarcerated	-12.1693
▁monogamous	-12.1693
▁optimistic	-12.1693
▁pencil	-12.1693
▁persevere	-12.1693
▁predator	-12.1693
▁rhythm	-12.1693
▁stubborn	-12.1693
▁cindy	-12.1693
▁england	-12.1693
▁harbor	-12.1693
▁replied	-12.1693
▁homemaker	-12.1693
▁pantyhose	-12.1693
▁abroad	-12.1693
▁absurd	-12.1693
▁dilemma	-12.1693
▁exceedingly	-12.1693
▁nonetheless	-12.1693
▁comparison	-12.1693
▁defensive	-12.1693
▁valuable	-12.1693
▁username	-12.1693
▁ebay	-12.1693
▁nanny	-12.1693
▁disaster	-12.1694
▁mystery	-12.1694
▁rephrase	-12.1694
▁jungle	-12.1694
▁statistic	-12.1694
▁narrow	-12.1694
▁sarcastic	-12.1694
▁xmas	-12.1694
▁escort	-12.1694
▁unnecessary	-12.1694
▁excess	-12.1694
▁catholic	-12.1694
▁drastic	-12.1694
▁generous	-12.1694
▁disappointment	-12.1694
▁lottery	-12.1694
▁implants	-12.1694
▁portion	-12.1694
▁surface	-12.1694
▁adopt	-12.1694
▁attentive	-12.1694
▁intersted	-12.1694
▁preppy	-12.1694
▁rubbing	-12.1694
▁marrige	-12.1694
▁surname	-12.1694
▁starbu	-12.1694
▁uncut	-12.1694
▁reflection	-12.1694
▁dramatic	-12.1694
▁monday	-12.1694
▁discard	-12.1694
▁realistically	-12.1694
▁fantasizing	-12.1694
▁austin	-12.1694
▁ginger	-12.1694
▁hesitant	-12.1694
▁remainder	-12.1695
▁disturbed	-12.1695
▁awsome	-12.1695
▁ankle	-12.1695
▁pester	-12.1695
▁irritating	-12.1695
▁restroom	-12.1695
▁unwanted	-12.1695
▁alba	-12.1695
▁responce	-12.1695
▁motto	-12.1696
▁unreasonable	-12.1696
▁insecurity	-12.1696
▁spray	-12.1696
▁unkind	-12.1697
▁canada	-12.1697
▁opinon	-12.1697
▁clueless	-12.1697
▁assuredly	-12.1697
▁corse	-12.1697
▁stepping	-12.1697
▁straw	-12.1698
▁practically	-12.1698
▁alongside	-12.1698
▁objection	-12.1699
▁springer	-12.1699
▁stock	-12.1699
▁sooooooo	-12.17
▁intellect	-12.17
▁struggle	-12.17
▁hassle	-12.17
▁employed	-12.1701
▁irritated	-12.1701
▁deserving	-12.1701
▁constant	-12.1702
▁convo	-12.1702
▁ga	-12.1702
▁stealth	-12.1703
▁sumone	-12.1704
▁offence	-12.1706
▁accent	-12.1707
▁embarrass	-12.1707
▁headache	-12.1708
▁spoiled	-12.171
▁preferred	-12.171
▁greed	-12.1711
▁implying	-12.1711
▁harry	-12.1712
▁employment	-12.1712
▁suffered	-12.1712
▁fullest	-12.1712
0)	-12.1713
▁kama	-12.1713
▁differnt	-12.1714
▁frightening	-12.1714
▁escape	-12.1719
▁unknown	-12.172
▁community	-12.172
▁penetration	-12.1721
▁movements	-12.1722
▁seperated	-12.1722
▁fro	-12.1722
▁golf	-12.1723
▁preferably	-12.1723
▁busted	-12.1724
▁indiscretions	-12.1724
▁luckily	-12.1725
▁witch	-12.1725
▁fitting	-12.1725
▁wherever	-12.1726
▁insulting	-12.1728
▁sneaky	-12.1728
▁knw	-12.1732
int	-12.1735
▁eric	-12.1736
▁useless	-12.1737
▁burning	-12.174
▁obsessive	-12.1748
▁verbal	-12.1748
▁prettie	-12.1748
53	-12.175
▁lolz	-12.1752
▁described	-12.1754
▁hahaha	-12.1754
▁grl	-12.1761
▁leader	-12.1762
▁vi	-12.1765
▁tel	-12.1766
▁flattering	-12.1766
▁existed	-12.1769
▁doggy	-12.177
▁touched	-12.1771
▁oil	-12.1771
▁training	-12.1772
▁prepare	-12.1775
▁apples	-12.1777
▁productive	-12.1778
huh	-12.1779
▁vase	-12.1785
couse	-12.1787
▁nun	-12.1795
▁rushed	-12.1797
▁totaly	-12.1799
▁sadly	-12.1799
▁strippers	-12.18
▁shortly	-12.18
▁dreamed	-12.1804
▁steam	-12.1806
dding	-12.1807
▁screwing	-12.1808
▁chuck	-12.181
▁prepar	-12.1814
▁rope	-12.1818
▁fret	-12.1822
▁couse	-12.1823
▁slower	-12.1824
going	-12.1826
buzz	-12.1827
▁bl	-12.1827
▁endowed	-12.1828
▁traits	-12.183
▁friendster	-12.1832
..............	-12.1832
▁talents	-12.1837
▁pastor	-12.1841
▁cleaning	-12.1842
▁wnat	-12.1846
▁ohh	-12.1849
▁hmmmm	-12.1854
▁pals	-12.1858
▁sucking	-12.1858
▁sane	-12.1859
▁nup	-12.1862
▁scum	-12.1863
coming	-12.1864
▁vent	-12.1865
▁lyk	-12.1871
▁tad	-12.1872
▁closely	-12.1876
▁handed	-12.188
▁hoped	-12.1892
▁tryin	-12.1899
▁tied	-12.1911
▁65	-12.1912
point	-12.1919
▁sexes	-12.1921
▁estimate	-12.1925
▁whereas	-12.193
▁girlz	-12.1939
▁asses	-12.1959
▁lastly	-12.1961
▁overlook	-12.1961
led	-12.1971
▁shops	-12.1974
▁sicko	-12.1977
▁figures	-12.1982
▁boot	-12.2
tempted	-12.2002
▁dip	-12.2015
▁fuss	-12.2025
ra	-12.2035
con	-12.204
ught	-12.204
▁afterall	-12.2046
▁lake	-12.2047
supposedly	-12.2065
▁farm	-12.2069
hell	-12.207
ul	-12.208
▁prep	-12.2083
▁wars	-12.2087
idden	-12.2088
▁stat	-12.2092
▁insert	-12.2102
▁pose	-12.2103
▁cud	-12.2103
▁egos	-12.2111
▁shout	-12.2119
set	-12.212
▁del	-12.213
▁coke	-12.2166
▁beard	-12.2171
▁thinkin	-12.2176
▁ah	-12.2194
send	-12.2204
bc	-12.221
100	-12.2218
▁carrie	-12.2235
▁accepts	-12.2266
▁persons	-12.2266
▁stu	-12.2273
term	-12.228
va	-12.2288
lying	-12.2293
da	-12.2306
▁thi	-12.2309
▁cart	-12.232
▁2006.	-12.2321
▁0	-12.2326
ls	-12.2328
interested	-12.2334
▁wed	-12.234
-5	-12.2351
▁hearted	-12.2352
▁pee	-12.2355
ong	-12.2361
start	-12.2365
▁typed	-12.2389
▁loos	-12.239
▁jo	-12.239
▁listener	-12.2397
ons	-12.2397
▁dust	-12.2415
▁boi	-12.2415
zy	-12.2424
▁absolutl	-12.2427
▁belt	-12.2428
▁woo	-12.2441
▁levels	-12.2442
▁brit	-12.2444
▁grove	-12.2453
▁mrs	-12.2455
hoo	-12.2458
▁edit	-12.2465
down	-12.2478
called	-12.248
forget	-12.2489
sometimes	-12.2489
▁props	-12.2495
▁hadn	-12.2496
rst	-12.2497
someone	-12.2505
type	-12.2519
lew	-12.2538
▁cou	-12.2556
▁tool	-12.2562
listen	-12.2574
smile	-12.2575
!!!!!!!!!!!!!!	-12.2575
▁nut	-12.258
▁6-	-12.2621
watch	-12.2623
hip	-12.2635
rise	-12.2644
▁pun	-12.2648
▁neva	-12.2656
wish	-12.267
every	-12.2674
▁keeper	-12.268
www	-12.2692
▁warrant	-12.2705
▁fren	-12.271
ans	-12.2719
▁meetings	-12.272
!!!!!!!!!!!	-12.2723
▁reads	-12.2732
wink	-12.2741
kinda	-12.2741
face	-12.2742
loving	-12.2747
iving	-12.2748
cos	-12.2753
ja	-12.2761
▁35.	-12.2761
seriously	-12.2767
aking	-12.2774
gs	-12.2785
lady	-12.2786
mmy	-12.2787
▁acc	-12.2789
six	-12.279
american	-12.2826
▁cons	-12.2829
▁gang	-12.2834
▁fry	-12.2834
centered	-12.2848
▁womans	-12.2854
▁loo	-12.2855
itty	-12.286
lbs	-12.2866
▁cur	-12.2872
la	-12.2873
mails	-12.2883
ded	-12.2893
rent	-12.2902
▁faces	-12.2928
...............	-12.2929
pose	-12.293
uch	-12.2939
.5	-12.2942
▁2-	-12.2953
hy	-12.2963
ove	-12.298
▁gl	-12.2987
hair	-12.3002
ba	-12.3014
▁unles	-12.3029
▁download	-12.303
▁spark	-12.3035
▁outdoor	-12.3037
▁addiction	-12.3038
▁description	-12.3038
▁cartoon	-12.3044
▁infant	-12.3046
▁demand	-12.3047
▁stereotype	-12.3048
▁sibling	-12.3049
▁predict	-12.3052
▁reson	-12.3058
▁foundation	-12.3058
▁counsel	-12.306
????????	-12.3064
▁pleasur	-12.3066
▁feather	-12.3071
▁signal	-12.3073
400	-12.3074
▁geez	-12.3084
▁21.	-12.31
▁grandpa	-12.31
▁consist	-12.3103
▁giggle	-12.3107
▁discourage	-12.3109
▁distress	-12.311
▁discreet	-12.3117
▁acted	-12.3117
▁subsequent	-12.3118
▁ultimate	-12.3118
▁numb	-12.3121
▁livinlifeintheo	-12.3122
riyaz	-12.3122
▁diminish	-12.3122
▁50/50	-12.3122
▁cleavage	-12.3122
▁clinton	-12.3122
▁cycle	-12.3122
▁injury	-12.3122
▁investigating	-12.3122
▁neutral	-12.3122
▁overprotective	-12.3122
▁paradise	-12.3122
▁possibilities	-12.3122
▁presume	-12.3122
▁receptive	-12.3122
▁vicinity	-12.3122
▁envy	-12.3122
▁rascal	-12.3122
▁vampire	-12.3122
▁wisdom	-12.3122
▁loneliness	-12.3122
▁preoccupied	-12.3122
▁grammer	-12.3122
▁skool	-12.3122
▁thoroughly	-12.3122
▁turkey	-12.3122
▁comunication	-12.3122
▁implies	-12.3122
▁sacred	-12.3122
▁flaunt	-12.3122
▁twinkie	-12.3122
▁attatched	-12.3122
▁grudge	-12.3122
▁rabbit	-12.3122
▁descent	-12.3122
▁attachment	-12.3122
▁behaviour	-12.3122
▁disorder	-12.3122
▁plump	-12.3122
▁cellphone	-12.3122
▁perception	-12.3122
▁bookstore	-12.3122
▁realationship	-12.3122
▁memories	-12.3122
▁pepper	-12.3122
▁entertainment	-12.3122
▁happiest	-12.3122
▁capital	-12.3122
▁retard	-12.3123
▁exercising	-12.3123
▁embarassed	-12.3123
▁investment	-12.3123
▁genetic	-12.3123
▁zipper	-12.3123
▁immaturity	-12.3123
▁alert	-12.3123
▁fuzzy	-12.3123
▁utilizing	-12.3123
▁mtv	-12.3123
▁species	-12.3123
▁millionaire	-12.3124
▁confusion	-12.3124
▁reserved	-12.3124
▁supply	-12.3124
▁suspicion	-12.3124
▁silk	-12.3124
▁universe	-12.3124
▁arguing	-12.3124
▁liquor	-12.3124
▁represent	-12.3124
▁taht	-12.3124
▁slayer	-12.3124
▁squad	-12.3124
▁promotion	-12.3125
▁accompanied	-12.3125
▁mistreat	-12.3125
▁syndrome	-12.3125
▁chew	-12.3125
▁rotten	-12.3125
▁illness	-12.3125
▁unclear	-12.3125
▁uneasy	-12.3125
▁witness	-12.3126
▁inquiring	-12.3126
▁racing	-12.3126
▁messaging	-12.3126
▁mushy	-12.3126
▁stood	-12.3126
▁spicy	-12.3126
▁frustrating	-12.3127
▁undone	-12.3127
▁verbally	-12.3127
▁dishes	-12.3127
▁misleading	-12.3128
▁snuggle	-12.3128
▁overwhelming	-12.3128
▁throat	-12.3128
▁genius	-12.3128
hehehe	-12.3129
▁assholes	-12.3129
▁frown	-12.3129
▁stolen	-12.3129
▁rico	-12.313
▁thrilled	-12.313
▁beutiful	-12.313
▁brutal	-12.313
▁ja	-12.3131
▁regretted	-12.3131
▁approch	-12.3132
light	-12.3133
▁hotline	-12.3133
▁disclose	-12.3134
▁preacher	-12.3134
▁awake	-12.3135
▁phase	-12.3135
▁dearest	-12.3135
▁concider	-12.3135
▁disappointing	-12.3135
▁irrational	-12.3136
▁deceived	-12.3136
▁remarried	-12.3137
▁knwo	-12.3137
▁suited	-12.3137
▁cutting	-12.3137
▁accordingly	-12.3138
▁chatted	-12.3138
▁convey	-12.3138
▁kelly	-12.3139
▁talkative	-12.3139
▁witty	-12.3141
▁shades	-12.3143
▁interupt	-12.3143
▁adjust	-12.3145
▁privately	-12.3149
▁masochist	-12.315
▁adress	-12.3151
▁offline	-12.3151
▁union	-12.3151
co	-12.3151
▁adequate	-12.3152
▁sunshine	-12.3152
▁maintenance	-12.3152
▁belongings	-12.3153
▁absorbed	-12.3153
▁lilies	-12.3153
▁quicker	-12.3154
▁relay	-12.3155
▁thighs	-12.3156
▁boredom	-12.3156
▁intelligently	-12.3164
▁occasional	-12.3166
▁profit	-12.3166
▁fyi	-12.3166
▁srry	-12.3167
▁thigh	-12.3167
▁edge	-12.3167
▁island	-12.317
▁perfer	-12.317
▁patiently	-12.317
▁remarks	-12.3171
▁boost	-12.3176
▁bun	-12.3179
▁fold	-12.3179
▁wounds	-12.3179
65	-12.318
▁comforting	-12.3181
▁acquired	-12.3183
▁tea	-12.3184
▁geeky	-12.3184
▁comb	-12.3186
▁viewed	-12.3189
▁jeez	-12.3192
5.00	-12.3192
▁hills	-12.3192
▁chicago	-12.3194
▁eles	-12.3204
▁ro	-12.3204
???????	-12.3206
▁32	-12.3206
▁goodnight	-12.3209
▁posteriors	-12.3211
▁pains	-12.3211
▁debat	-12.3212
▁polish	-12.3213
▁groom	-12.3216
▁addressed	-12.3216
tting	-12.3219
▁42	-12.3221
▁approaches	-12.3221
▁county	-12.3222
▁inexperienced	-12.3223
▁amaze	-12.3236
▁olds	-12.3236
▁tails	-12.3237
▁controll	-12.324
▁pimps	-12.3242
▁aid	-12.3243
▁inquired	-12.3254
▁building	-12.3255
▁resolved	-12.3261
▁grader	-12.3262
▁sal	-12.3263
▁earned	-12.3264
▁openly	-12.3267
▁insists	-12.3268
▁classy	-12.3282
nnnn	-12.3284
)...	-12.3284
▁washing	-12.3286
ending	-12.3286
▁photographs	-12.3288
▁ve	-12.3291
▁assured	-12.3298
▁constitute	-12.3298
▁undress	-12.3303
uh	-12.3303
ght	-12.3304
▁angle	-12.3305
▁webcams	-12.3305
▁packages	-12.3306
▁models	-12.3311
py	-12.3311
▁kim	-12.3313
▁temptations	-12.3317
▁sec	-12.3317
ual	-12.3327
▁san	-12.3327
▁yuo	-12.3331
▁eather	-12.3333
▁theirs	-12.334
▁sentences	-12.334
ye	-12.3345
▁33	-12.3346
▁behaved	-12.3348
entered	-12.3354
▁libra	-12.3355
▁teachers	-12.3355
▁blonds	-12.3357
▁venture	-12.3357
▁partying	-12.3358
▁alternate	-12.3373
▁satan	-12.3376
▁backup	-12.3387
cured	-12.3395
▁dressing	-12.3395
▁paths	-12.3399
▁mirrors	-12.3399
▁nervouse	-12.34
▁settings	-12.3419
▁gau	-12.3438
▁oneself	-12.3438
▁ignored	-12.3442
▁dances	-12.3444
▁effects	-12.3447
▁weirdo	-12.3449
▁permit	-12.3452
▁lone	-12.3459
;)	-12.346
▁shaves	-12.3467
▁meets	-12.3475
killed	-12.3477
▁sucker	-12.3479
▁whores	-12.3481
▁exchang	-12.3483
▁outright	-12.3489
▁texts	-12.349
ulous	-12.3495
care	-12.3495
▁equals	-12.3501
ct	-12.3502
▁fist	-12.3505
has	-12.3508
▁playin	-12.3512
▁bot	-12.3513
▁deed	-12.3521
native	-12.3523
▁breaker	-12.3525
▁endings	-12.353
▁moments	-12.3531
▁pronounce	-12.3536
▁hid	-12.3537
▁steer	-12.3562
▁cuter	-12.358
▁heals	-12.3581
▁courts	-12.3585
▁degrad	-12.3587
▁overall	-12.3594
rated	-12.3595
▁privates	-12.3605
▁:))	-12.3608
!!!!!!!!!!!!!	-12.3609
lie	-12.3615
▁mus	-12.362
▁videos	-12.3637
▁1:	-12.3639
▁led	-12.3644
ave	-12.3646
wrong	-12.3648
ela	-12.3656
woman	-12.3659
depends	-12.3663
lot	-12.3665
▁heartbreak	-12.3673
▁lov	-12.3679
▁rubi	-12.3709
might	-12.371
▁locations	-12.3726
▁rage	-12.3727
▁bore	-12.3733
▁20,	-12.3738
▁dave	-12.3739
also	-12.375
happy	-12.3756
ust	-12.376
▁contin	-12.3767
▁bears	-12.3769
true	-12.3788
mate	-12.3797
▁dam	-12.3808
grade	-12.3815
part	-12.3819
ngs	-12.3824
▁25.	-12.3827
▁subtl	-12.3834
▁5.	-12.3851
▁palm	-12.3852
▁avatars	-12.3854
▁lotion	-12.3854
▁wound	-12.3857
les	-12.3869
▁wrappe	-12.3876
▁pics	-12.3876
pending	-12.388
01	-12.3881
!!!!!!!!!!!!	-12.3899
▁14.	-12.3903
quid	-12.3909
os	-12.3918
▁danger	-12.3926
▁abundan	-12.3939
ible	-12.3945
ferent	-12.3946
▁foods	-12.3986
▁doors	-12.3993
arry	-12.4
▁drops	-12.4003
▁vers	-12.4004
acial	-12.4014
kiss	-12.4027
▁row	-12.4033
special	-12.4035
comes	-12.4043
▁abus	-12.4045
▁operate	-12.4052
▁bodi	-12.4056
place	-12.4059
▁hoes	-12.4061
school	-12.4074
▁hum	-12.4075
▁manners	-12.4077
:(	-12.4082
▁46	-12.4094
▁anna	-12.4099
▁thug	-12.4108
sounds	-12.4119
itation	-12.4135
▁bak	-12.4146
▁era	-12.4153
▁11.	-12.4154
▁feelin	-12.4155
pick	-12.4178
▁comf	-12.4191
gay	-12.4205
▁wham	-12.4217
▁delight	-12.4219
children	-12.4226
▁freek	-12.4233
ped	-12.4234
▁east	-12.4235
▁crushe	-12.4251
stand	-12.4254
▁seri	-12.4264
▁negatives	-12.4271
anger	-12.4274
cha	-12.4279
respect	-12.428
ugly	-12.4299
▁gall	-12.4306
▁wal	-12.4306
▁swor	-12.4314
1)	-12.4316
ber	-12.4318
rry	-12.4325
thank	-12.4333
board	-12.4334
control	-12.4334
simple	-12.4358
▁admitt	-12.4364
loaded	-12.4368
gurl	-12.4378
▁pour	-12.438
▁press	-12.4391
smart	-12.4393
▁wave	-12.4397
almost	-12.4406
was	-12.4414
▁notion	-12.4416
▁beau	-12.4428
▁22.	-12.4433
▁max	-12.4433
ages	-12.4434
ward	-12.4435
▁bud	-12.444
ump	-12.4442
nobody	-12.4449
▁pot	-12.445
size	-12.4454
▁giver	-12.4456
▁sold	-12.4464
ell	-12.4464
/1	-12.4467
▁rele	-12.4467
ters	-12.4478
36	-12.4481
fold	-12.4489
born	-12.4494
▁tendenc	-12.4498
▁feb	-12.45
continue	-12.4504
▁err	-12.4506
yea	-12.4517
usally	-12.4521
ger	-12.4524
ugging	-12.4526
protected	-12.4527
stal	-12.4531
▁cl	-12.4531
storm	-12.4536
▁toes	-12.4555
istic	-12.4566
▁corn	-12.4566
▁clos	-12.4569
▁favorites	-12.4572
▁pat	-12.4581
▁adam	-12.4585
▁expresse	-12.4586
trustworthy	-12.4591
van	-12.4591
ez	-12.4592
playing	-12.4601
▁aol	-12.4609
▁tempt	-12.4625
▁girlie	-12.4627
▁teh	-12.4629
atch	-12.4635
▁egg	-12.4643
gh	-12.4648
▁mile	-12.4656
▁definite	-12.4657
ep	-12.4658
lover	-12.4666
email	-12.4668
▁fur	-12.467
▁wet	-12.4682
!?!?!	-12.4694
▁counter	-12.4694
▁roman	-12.4695
▁article	-12.4696
▁assignment	-12.4696
▁ejaculation	-12.4696
▁substance	-12.4696
state	-12.4697
▁exp	-12.47
▁objective	-12.4704
▁adolescent	-12.4705
▁camera	-12.4707
ink	-12.4709
▁clown	-12.471
▁hehehe	-12.4711
▁disagreement	-12.4714
▁consequence	-12.4715
▁season	-12.4726
▁taco	-12.4726
▁stroke	-12.4727
▁hormone	-12.473
oregon	-12.4733
▁officer	-12.4737
▁quickie	-12.4744
▁jock	-12.4745
06	-12.4748
▁shoul	-12.4749
▁needy	-12.4749
▁improv	-12.475
▁twin	-12.4753
ain	-12.476
▁disappoint	-12.4767
▁frnd	-12.4769
▁drool	-12.4775
▁delete	-12.4779
▁biological	-12.4784
▁unexpected	-12.4785
▁surprising	-12.4785
▁instruct	-12.4788
▁arrest	-12.4788
▁construct	-12.4788
▁lustful	-12.4788
▁criticism	-12.4789
verdale	-12.4789
▁abilities	-12.4789
▁atrocious	-12.4789
▁bahamas	-12.4789
▁bubble	-12.4789
▁claudia	-12.4789
▁criminal	-12.4789
▁demeanor	-12.4789
▁deodorant	-12.4789
▁discouraging	-12.4789
▁document	-12.4789
▁femininity	-12.4789
▁guidance	-12.4789
▁horror	-12.4789
▁inferior	-12.4789
▁iraq	-12.4789
▁korean	-12.4789
▁legitimate	-12.4789
▁malaysi	-12.4789
▁marijuana	-12.4789
▁matrimony	-12.4789
▁ordinary	-12.4789
▁peculiar	-12.4789
▁psychiatrist	-12.4789
▁retaliate	-12.4789
▁retirement	-12.4789
▁skeptical	-12.4789
▁tequila	-12.4789
▁trivial	-12.4789
▁underneath	-12.4789
▁wednesday	-12.4789
▁wrinkly	-12.4789
▁january	-12.4789
▁scorpio	-12.4789
▁anwser	-12.4789
▁clooney	-12.4789
▁conceited	-12.4789
▁ethnic	-12.4789
▁joshua	-12.4789
▁shotgun	-12.4789
▁stacey	-12.4789
▁tactic	-12.4789
▁velma	-12.4789
▁apology	-12.4789
▁authority	-12.4789
▁civilian	-12.4789
▁bbw	-12.4789
▁divine	-12.4789
▁science	-12.4789
▁starbucks	-12.4789
▁garlic	-12.4789
▁germs	-12.4789
▁gradually	-12.4789
▁unhealthy	-12.4789
▁icecream	-12.4789
▁katie	-12.4789
▁eliminate	-12.4789
▁neighborhood	-12.4789
▁columbus	-12.4789
▁duration	-12.4789
▁envision	-12.4789
▁australia	-12.4789
▁immoral	-12.4789
▁furious	-12.4789
▁overseas	-12.4789
▁approval	-12.4789
▁lipstick	-12.4789
▁pinned	-12.4789
▁desprate	-12.4789
▁appetite	-12.4789
▁unappealing	-12.4789
▁unwrap	-12.4789
▁experiance	-12.4789
▁uneducated	-12.4789
▁stumble	-12.4789
▁generalization	-12.4789
2002	-12.4789
▁tango	-12.4789
▁embarrassment	-12.4789
▁initiative	-12.4789
▁offensive	-12.4789
▁psychotic	-12.4789
▁ambition	-12.4789
▁fathom	-12.4789
▁unavailable	-12.4789
▁technically	-12.4789
responsibilities	-12.4789
▁snake	-12.4789
▁participant	-12.4789
▁grunt	-12.4789
▁hilton	-12.4789
▁horney	-12.4789
▁fancies	-12.4789
▁snack	-12.4789
▁paperwork	-12.479
▁viewpoint	-12.479
▁nathan	-12.479
▁silver	-12.479
▁garage	-12.479
▁foster	-12.479
▁aishw	-12.479
▁capacity	-12.479
▁eternally	-12.479
▁precisely	-12.479
▁shoudl	-12.479
▁profess	-12.479
▁caveat	-12.479
▁exceed	-12.479
▁tyler	-12.479
▁denny	-12.479
▁comparable	-12.479
▁8.5	-12.479
▁psychologist	-12.479
▁definitly	-12.479
▁embarassing	-12.479
▁greek	-12.479
▁monster	-12.479
▁stork	-12.479
▁disgusted	-12.4791
▁promptly	-12.4791
▁depressing	-12.4791
▁paul	-12.4791
▁intentionally	-12.4791
▁aisle	-12.4791
▁chubby	-12.4791
▁manifest	-12.4791
▁coworker	-12.4791
▁choir	-12.4791
▁fondling	-12.4791
▁butthole	-12.4791
▁pooh	-12.4792
▁occurring	-12.4792
▁advertise	-12.4792
▁divide	-12.4792
▁inquiry	-12.4792
▁spears	-12.4792
▁idiotic	-12.4793
▁nearby	-12.4793
▁guests	-12.4793
▁dense	-12.4793
▁execute	-12.4794
▁explode	-12.4794
▁fornicate	-12.4795
▁aww	-12.4795
▁insincere	-12.4795
▁sux	-12.4795
▁adage	-12.4795
▁visually	-12.4795
glob	-12.4796
▁germany	-12.4796
▁arrested	-12.4796
▁ollec	-12.4797
▁bluntly	-12.4797
▁intently	-12.4797
▁graphic	-12.4797
▁kayl	-12.4798
stration	-12.4798
▁solving	-12.4798
▁chop	-12.4798
▁vowed	-12.4798
▁unconditionally	-12.4799
▁flame	-12.4799
▁dismiss	-12.4799
▁vain	-12.48
▁conversate	-12.48
▁intrested	-12.4801
▁leap	-12.4801
▁300	-12.4802
▁intensely	-12.4802
▁purse	-12.4802
,,,,,	-12.4802
▁dorky	-12.4803
▁110	-12.4803
▁discouraged	-12.4804
▁relieved	-12.4804
▁talented	-12.4805
▁pursuit	-12.4805
▁mindset	-12.4806
▁biceps	-12.4806
▁preach	-12.4807
▁delivery	-12.4807
▁demanding	-12.4807
▁seriousness	-12.4807
▁contest	-12.4807
▁dodge	-12.4808
▁suprised	-12.4808
▁fastest	-12.4809
▁troublesome	-12.4809
▁snores	-12.4809
▁terminated	-12.4809
etera	-12.4811
▁endured	-12.4811
▁workplace	-12.4811
▁presentable	-12.4811
▁slamm	-12.4812
▁scale	-12.4813
▁encountered	-12.4814
posed	-12.4814
▁trapped	-12.4814
▁ascertain	-12.4815
▁pacific	-12.4816
▁frist	-12.4816
▁warn	-12.4817
▁glass	-12.4817
▁rewarding	-12.4817
▁gutter	-12.482
▁holla	-12.4821
▁tiger	-12.4821
ady	-12.4822
▁noticeable	-12.4822
▁sunset	-12.4822
▁sloppy	-12.4823
▁frineds	-12.4823
▁menstrua	-12.4823
▁delicious	-12.4824
▁flatulence	-12.4824
▁gratification	-12.4824
▁shaggy	-12.4824
▁survival	-12.4824
▁decade	-12.4824
▁nations	-12.4824
▁carmen	-12.4825
▁surroundings	-12.4825
▁swingers	-12.4825
▁incorrectly	-12.4826
▁theatre	-12.4826
▁stressed	-12.4826
▁mutually	-12.4827
▁harmed	-12.4827
▁uncool	-12.4827
▁cries	-12.4831
▁disappear	-12.4832
▁fucked	-12.4832
▁flurt	-12.4832
▁technique	-12.4833
▁claimed	-12.4834
▁stimulated	-12.4834
▁sufficiently	-12.4835
▁scent	-12.4836
▁softly	-12.4836
work	-12.4838
▁cigarettes	-12.4838
▁mouse	-12.484
▁tenth	-12.4842
▁ple	-12.4844
▁backside	-12.4845
▁trend	-12.4845
▁grey	-12.4846
▁lighten	-12.4847
▁loudly	-12.4848
▁desperately	-12.485
▁girth	-12.485
girlfriends	-12.4851
▁arrangements	-12.4852
▁bully	-12.4853
▁tacos	-12.4853
▁uber	-12.4854
▁spoon	-12.4854
▁cowards	-12.4855
sk	-12.4855
▁1-	-12.4858
▁developing	-12.4859
▁usualy	-12.4861
▁wore	-12.4863
▁revealing	-12.4866
▁tougher	-12.4867
▁disagreements	-12.4867
▁addresses	-12.4867
▁smelled	-12.4867
▁matches	-12.4869
stroller	-12.4869
▁ciara	-12.487
▁glue	-12.487
▁whichever	-12.4871
▁encouraged	-12.4872
bladder	-12.4873
▁commited	-12.4874
▁clever	-12.4875
▁sutra	-12.4878
▁stressing	-12.4878
▁settled	-12.4878
:))	-12.488
▁chi	-12.4883
▁melt	-12.4885
▁media	-12.4891
kaw	-12.4892
▁packing	-12.4896
▁exc	-12.4896
▁pound	-12.4898
▁hu	-12.4898
▁prospect	-12.4899
▁vision	-12.4902
▁worker	-12.4903
▁revolve	-12.4905
▁recommended	-12.4906
▁proove	-12.4909
▁yard	-12.4909
-----	-12.491
▁chosen	-12.4912
▁roam	-12.4913
▁defecate	-12.4913
▁appologize	-12.4916
▁upside	-12.4916
▁hangout	-12.4917
▁protecting	-12.4919
▁fooled	-12.492
▁pete	-12.4922
▁youngster	-12.4923
▁museums	-12.4923
▁ashley	-12.4924
▁expressions	-12.4925
▁lawn	-12.4929
▁safer	-12.4929
▁inbox	-12.4933
▁tables	-12.4933
▁tab	-12.4935
▁gestures	-12.4937
▁daydream	-12.4944
▁tools	-12.4953
clock	-12.4954
▁mamma	-12.4956
▁deni	-12.4957
▁5'	-12.4959
▁avoided	-12.4963
where	-12.4966
▁disliked	-12.4967
▁explained	-12.4967
▁addicts	-12.4968
▁mmmm	-12.4969
▁adviser	-12.497
ore	-12.4974
▁izzy	-12.4976
▁goodlooking	-12.4977
▁objects	-12.4979
round	-12.498
▁classif	-12.4981
ently	-12.4983
ine	-12.4984
▁fred	-12.4988
▁holes	-12.4991
▁........	-12.4992
kin	-12.4992
▁conclusions	-12.4994
▁corners	-12.4994
skater	-12.4997
▁marks	-12.5014
▁dull	-12.5019
▁becoz	-12.5021
▁18-	-12.5027
▁34	-12.5034
tely	-12.5037
ang	-12.5038
▁(5	-12.5039
▁arnt	-12.5044
di	-12.5055
▁coo	-12.5059
▁greg	-12.5059
▁preferrabl	-12.5065
▁functions	-12.5066
▁norm	-12.5069
▁13.	-12.5076
▁iron	-12.5083
▁sen	-12.5085
▁pole	-12.5087
truck	-12.5087
▁wimp	-12.5089
▁shine	-12.5092
▁encounters	-12.5095
num	-12.5097
▁3:	-12.5102
lier	-12.5104
ro	-12.511
▁pets	-12.5113
▁lbs	-12.5113
ked	-12.5115
▁cups	-12.5115
▁vid	-12.5124
ttle	-12.5129
ddle	-12.5136
▁themself	-12.514
▁smokes	-12.5148
▁stylis	-12.5148
▁mars	-12.5149
?!?!?	-12.5153
▁introduc	-12.5154
▁fallin	-12.5154
mar	-12.5154
▁baths	-12.5156
▁amber	-12.5159
▁bottoms	-12.5163
▁ernie	-12.5163
▁marries	-12.5167
ders	-12.5169
▁doubting	-12.5173
natal	-12.5181
land	-12.5188
▁avenue	-12.5192
▁primar	-12.52
▁dan	-12.52
▁raz	-12.5202
▁mans	-12.5202
▁guarantees	-12.5207
▁smash	-12.5208
oke	-12.5218
▁nu	-12.5222
▁zac	-12.5222
▁workout	-12.5225
nsult	-12.5229
▁tick	-12.524
ki	-12.5244
▁wuss	-12.5247
▁combine	-12.5253
▁hangin	-12.5254
▁trips	-12.5264
better	-12.5264
ease	-12.5285
ility	-12.5287
▁purposes	-12.5307
▁phat	-12.5308
▁coll	-12.5309
yr	-12.5314
limp	-12.5314
person	-12.5315
▁escalate	-12.5323
▁bands	-12.5327
86	-12.5328
▁bearer	-12.5335
ome	-12.5341
▁fried	-12.5342
▁nowhere	-12.5345
▁guessed	-12.535
▁cla	-12.5362
▁peep	-12.5365
▁rea	-12.5366
rantee	-12.5372
▁steel	-12.5384
▁ev	-12.5387
▁nv	-12.5388
▁tryed	-12.5388
▁reference	-12.5397
▁!..	-12.5399
site	-12.5404
may	-12.5405
under	-12.5421
▁matured	-12.5422
▁cho	-12.5428
▁ra	-12.5443
got	-12.5447
port	-12.5449
▁chests	-12.5453
▁hike	-12.5461
▁pc	-12.5467
▁bestfriends	-12.5467
▁tink	-12.5485
earning	-12.549
▁americans	-12.5499
italia	-12.55
▁rep	-12.5508
▁prop	-12.5509
dn	-12.5511
▁values	-12.5521
▁eww	-12.5522
▁rais	-12.5538
▁pep	-12.5545
▁wher	-12.5568
44	-12.5582
▁23.	-12.5586
base	-12.5599
▁massages	-12.5611
▁hop	-12.5616
▁anti	-12.5617
ail	-12.5621
▁christians	-12.5624
tive	-12.5639
gun	-12.5643
▁nite	-12.5651
course	-12.566
either	-12.5662
fun	-12.567
▁kan	-12.5675
▁owner	-12.5677
cial	-12.5678
▁tx	-12.5692
many	-12.5696
▁rec	-12.5708
ase	-12.5708
▁14-	-12.5708
▁callin	-12.5709
▁bone	-12.5713
▁doens	-12.5718
gy	-12.5722
▁toned	-12.5722
▁houses	-12.5763
until	-12.5766
▁pos	-12.5795
▁helper	-12.5814
ggy	-12.5836
▁showers	-12.5839
uck	-12.5842
away	-12.5846
kind	-12.5851
28	-12.5852
▁interrupt	-12.5854
pposed	-12.586
ik	-12.5867
▁scar	-12.5868
eat	-12.5872
ually	-12.5878
33	-12.5893
together	-12.5899
indulge	-12.5905
▁ena	-12.591
▁someting	-12.5911
▁bust	-12.5912
ife	-12.5912
hes	-12.5922
ses	-12.5924
specially	-12.5939
▁inspire	-12.5951
lets	-12.596
od	-12.5962
43	-12.5966
without	-12.5966
▁14-1	-12.5974
uz	-12.5978
tial	-12.6004
rries	-12.6005
▁thnk	-12.6011
done	-12.6026
body	-12.6026
▁mat	-12.6036
▁succ	-12.6051
▁examples	-12.606
▁leo	-12.6067
▁styles	-12.6067
ner	-12.6068
▁tu	-12.6071
ged	-12.6076
▁4-	-12.6079
top	-12.6085
▁var	-12.6096
▁gre	-12.6097
▁madam	-12.6104
▁emo	-12.6118
pretty	-12.6121
zz	-12.6122
cuse	-12.6131
▁sombod	-12.6133
▁desp	-12.6142
▁statu	-12.6149
upper	-12.6151
making	-12.6158
ins	-12.6165
ficially	-12.6178
▁remembering	-12.6178
ized	-12.6192
▁cheet	-12.62
sized	-12.6201
▁20.	-12.6205
▁tellin	-12.6225
▁ku	-12.6228
wear	-12.6242
▁trav	-12.6244
okay	-12.6244
ations	-12.6244
▁mor	-12.6261
ike	-12.6267
father	-12.6268
▁51	-12.6272
perfect	-12.6273
▁vari	-12.6274
▁absolute	-12.6289
ria	-12.6295
llies	-12.6298
▁wonders	-12.6303
▁elope	-12.631
▁van	-12.631
flowers	-12.6312
mp	-12.6322
dinner	-12.6356
▁chats	-12.6366
▁behinds	-12.6367
personal	-12.6372
ass	-12.6384
que	-12.639
▁giv	-12.6399
▁sc	-12.6401
ppy	-12.6408
▁needles	-12.642
average	-12.6422
▁cleans	-12.6431
ug	-12.6435
seeing	-12.6436
▁alter	-12.6447
rture	-12.6452
things	-12.6453
▁tortur	-12.6461
beauty	-12.6466
▁breed	-12.6469
standing	-12.6476
food	-12.6479
▁dominat	-12.6479
honesty	-12.6483
inches	-12.6485
goodbye	-12.6496
quit	-12.6496
fearing	-12.6497
▁dies	-12.6497
▁whi	-12.6502
goodluck	-12.6504
-6	-12.6507
rable	-12.6508
fashioned	-12.651
▁messe	-12.6514
stone	-12.6515
dad	-12.6516
rish	-12.6521
timing	-12.6533
▁dealer	-12.6536
hand	-12.654
▁liz	-12.6546
▁caress	-12.6546
action	-12.6556
▁mil	-12.6557
pages	-12.6558
bly	-12.6564
ks	-12.657
pack	-12.6579
▁skate	-12.658
▁meow	-12.6581
hood	-12.6582
83	-12.6593
▁shold	-12.6598
▁surge	-12.6598
res	-12.66
▁trusts	-12.6603
oc	-12.661
lock	-12.6612
▁speaker	-12.6618
▁manual	-12.6618
rom	-12.6628
14	-12.6649
▁practic	-12.6656
ors	-12.6656
ounding	-12.6687
500	-12.6689
▁digger	-12.6695
feel	-12.6696
▁obsession	-12.6698
▁appointment	-12.6699
▁molester	-12.6699
▁stroll	-12.6702
▁tune	-12.6705
▁coward	-12.6708
▁nightmare	-12.6708
▁cloud	-12.671
▁arrangement	-12.6712
xx	-12.6714
▁nipple	-12.6715
▁attribute	-12.6715
▁folk	-12.672
▁remark	-12.6723
▁sigh	-12.6728
▁bounce	-12.6728
▁abortion	-12.6737
▁boxer	-12.6747
▁carpe	-12.6748
▁deli	-12.6749
▁stil	-12.6749
mise	-12.675
▁divorc	-12.6753
▁africa	-12.6773
▁enlarge	-12.6773
▁humiliate	-12.6774
▁accord	-12.6775
▁squeez	-12.6776
▁stimulate	-12.6776
▁remarry	-12.6777
sigh	-12.6779
▁exclaim	-12.6783
▁practical	-12.6784
▁permanent	-12.6784
▁62	-12.6786
▁ejaculat	-12.6788
▁hahahaha	-12.6788
▁uncontrollable	-12.6789
▁corinth	-12.6789
▁fascinat	-12.6789
▁abdominal	-12.6789
▁apologetic	-12.6789
▁applicable	-12.6789
▁apprehensive	-12.6789
▁braclet	-12.6789
▁broadcast	-12.6789
▁celebs	-12.6789
▁criticiz	-12.6789
▁desparate	-12.6789
▁devastated	-12.6789
▁dynami	-12.6789
▁filipin	-12.6789
▁fountain	-12.6789
▁fraud	-12.6789
▁intriguing	-12.6789
▁jewlery	-12.6789
▁libido	-12.6789
▁lubricant	-12.6789
▁murray	-12.6789
▁obstacle	-12.6789
▁pajamas	-12.6789
▁physique	-12.6789
▁proximity	-12.6789
▁reiterate	-12.6789
▁soundtrack	-12.6789
▁swimsuit	-12.6789
▁unemployed	-12.6789
▁unethical	-12.6789
▁automobile	-12.6789
▁diversity	-12.6789
▁envious	-12.6789
▁gospel	-12.6789
▁implied	-12.6789
▁intimidating	-12.6789
▁newspaper	-12.6789
▁discomfort	-12.6789
▁einstein	-12.6789
▁integrity	-12.6789
▁promiscuity	-12.6789
▁consummate	-12.6789
▁crotch	-12.6789
▁genitalia	-12.6789
▁dirtbags	-12.6789
▁dissolution	-12.6789
▁investigator	-12.6789
▁likelihood	-12.6789
optimal	-12.6789
▁backbone	-12.6789
▁mannerisms	-12.6789
▁akward	-12.6789
▁biased	-12.6789
▁compensation	-12.6789
▁flexible	-12.6789
▁repugnant	-12.6789
▁womanizer	-12.6789
▁dignity	-12.6789
▁gilr	-12.6789
▁stabbed	-12.6789
▁temperature	-12.6789
▁vocal	-12.6789
▁enroll	-12.6789
▁instrument	-12.6789
▁togather	-12.6789
▁bridesmaid	-12.6789
▁socializing	-12.6789
▁celebration	-12.6789
▁customer	-12.6789
▁biggie	-12.6789
▁displeasure	-12.6789
▁barrymore	-12.6789
▁underware	-12.6789
▁queries	-12.6789
▁department	-12.6789
▁significance	-12.6789
▁holler	-12.6789
▁collectively	-12.6789
▁pawn	-12.6789
▁6'2	-12.6789
▁grabbing	-12.6789
▁salva	-12.6789
▁premature	-12.6789
▁tummy	-12.6789
▁infected	-12.679
▁struggling	-12.679
▁cowgirl	-12.679
ghetto	-12.679
▁preteen	-12.679
▁europe	-12.679
▁pearl	-12.679
▁flutter	-12.679
▁thanksgiving	-12.679
▁realization	-12.679
▁comical	-12.679
▁motel	-12.679
▁forthright	-12.679
▁strategy	-12.679
▁pierced	-12.679
▁peaceful	-12.679
▁prick	-12.679
cologist	-12.6791
▁tennis	-12.6791
▁tomboy	-12.6791
▁printed	-12.6791
▁established	-12.6791
▁hungry	-12.6791
▁overdo	-12.6791
▁crude	-12.6791
▁petty	-12.6791
▁mentality	-12.6791
▁feline	-12.6791
▁trois	-12.6791
▁somtimes	-12.6791
▁dissapointed	-12.6792
▁property	-12.6792
▁remote	-12.6792
▁bloom	-12.6792
▁emphasize	-12.6792
▁observing	-12.6792
▁shining	-12.6792
▁thickness	-12.6792
▁essentially	-12.6792
▁sorrow	-12.6793
▁gates	-12.6793
▁concealed	-12.6793
▁counselling	-12.6793
▁whining	-12.6793
▁chunk	-12.6793
▁entitled	-12.6793
▁intrigued	-12.6793
▁tacky	-12.6793
▁prolong	-12.6793
▁contrast	-12.6793
▁stairs	-12.6793
▁softness	-12.6793
▁indicator	-12.6793
▁popularity	-12.6793
▁moist	-12.6793
▁kong	-12.6793
▁regretful	-12.6795
▁timid	-12.6795
▁possessive	-12.6795
▁accountable	-12.6795
▁groomed	-12.6795
▁impact	-12.6795
▁blushing	-12.6796
▁arrange	-12.6796
▁doormat	-12.6796
▁renew	-12.6796
▁soooooo	-12.6796
▁paranoid	-12.6796
▁hunny	-12.6796
▁spontaneously	-12.6796
▁combed	-12.6796
▁composed	-12.6797
▁semi	-12.6797
▁improvement	-12.6797
▁injure	-12.6797
▁backfire	-12.6798
▁kiddin	-12.6798
▁wager	-12.6798
▁gaming	-12.6799
▁diapers	-12.6799
▁dummies	-12.6799
▁golddiggers	-12.6799
▁wtf	-12.6799
▁uncon	-12.6799
▁flies	-12.6799
▁penetrated	-12.6799
▁embaress	-12.6799
▁prize	-12.68
▁seventy	-12.68
▁punished	-12.6801
▁upbringing	-12.6801
▁scrap	-12.6801
▁opion	-12.6802
▁bashful	-12.6802
▁slice	-12.6802
edible	-12.6802
▁exclusively	-12.6803
▁accidently	-12.6803
▁evict	-12.6804
▁squeezing	-12.6804
▁amazed	-12.6805
▁ohhh	-12.6805
▁liberals	-12.6805
▁doomed	-12.6806
▁william	-12.6806
▁underage	-12.6807
▁petting	-12.6807
▁jane	-12.6808
reputable	-12.6808
▁aliens	-12.6809
▁deceit	-12.6809
▁politics	-12.681
▁uptown	-12.6811
▁musical	-12.6811
▁overreact	-12.6811
▁betrayed	-12.6812
▁invested	-12.6812
▁ploy	-12.6812
▁halfway	-12.6812
▁prime	-12.6812
▁tank	-12.6813
▁turnoff	-12.6813
▁groin	-12.6814
▁woody	-12.6814
▁speedy	-12.6814
▁background	-12.6815
▁abandoned	-12.6815
▁republicans	-12.6816
▁enhance	-12.6816
▁highlights	-12.6816
▁sensible	-12.6817
▁troll	-12.6817
▁chains	-12.682
▁gir	-12.682
▁alluring	-12.682
▁shrink	-12.6822
▁spying	-12.6822
▁confessed	-12.6822
▁served	-12.6822
▁fruity	-12.6823
▁concluded	-12.6823
▁sneek	-12.6824
▁bridge	-12.6826
▁irritate	-12.6826
▁redhead	-12.6826
▁waves	-12.6827
▁expand	-12.6827
▁decency	-12.6827
▁comply	-12.6828
▁clash	-12.6829
▁traffic	-12.683
▁arcade	-12.683
▁analyze	-12.6831
▁deception	-12.6831
▁battery	-12.6831
▁ribbon	-12.6831
▁arabic	-12.6831
▁pedophile	-12.6831
▁beholder	-12.6831
▁givin	-12.6831
▁fingernails	-12.6831
▁exhausted	-12.6831
▁passage	-12.6831
▁homewrecker	-12.6832
▁proposing	-12.6832
▁resources	-12.6833
▁register	-12.6833
▁clicked	-12.6833
▁reck	-12.6834
▁takin	-12.6836
▁consistent	-12.6837
▁foxy	-12.6839
quainted	-12.6839
▁depen	-12.684
▁traveled	-12.6841
▁beaver	-12.6843
▁review	-12.6844
▁motives	-12.6845
gu	-12.6846
▁drooling	-12.6848
▁sitter	-12.685
▁elder	-12.685
▁booze	-12.6853
▁xx	-12.6855
▁fortunately	-12.6858
▁tater	-12.6859
▁raw	-12.6859
▁socially	-12.6859
▁cuddled	-12.6863
▁overmuch	-12.6863
▁trashy	-12.6865
▁bitches	-12.6868
▁infact	-12.6869
▁excite	-12.687
▁gyn	-12.687
iate	-12.6871
ress	-12.6871
tional	-12.6871
roach	-12.6872
▁requested	-12.6874
swimming	-12.6874
▁armpits	-12.6875
▁140	-12.6875
▁lopez	-12.6875
▁intimately	-12.6876
▁temporary	-12.6878
little	-12.6879
▁fellas	-12.688
▁jocks	-12.6885
▁dancers	-12.6887
▁usage	-12.6888
▁flowing	-12.6889
▁comin	-12.6893
▁materialistic	-12.6893
▁shoud	-12.6894
gone	-12.6895
▁deside	-12.6897
:00	-12.6898
▁cought	-12.6899
▁infants	-12.69
▁persistent	-12.6901
▁infection	-12.6901
▁cartoons	-12.6903
▁demands	-12.6904
▁sparks	-12.6904
▁digest	-12.6905
▁obtained	-12.6908
▁sweating	-12.6908
salar	-12.6909
lef	-12.6911
▁coerc	-12.6912
▁chased	-12.6913
▁hyper	-12.6913
▁anyday	-12.6917
▁fixed	-12.6924
▁ri	-12.6924
1.	-12.6926
▁fox	-12.6927
▁britt	-12.6928
▁starters	-12.6928
male	-12.6933
▁cope	-12.6933
▁sheets	-12.6935
▁getaway	-12.6935
much	-12.6938
curring	-12.6948
▁jan	-12.6953
▁thousands	-12.6955
table	-12.6956
▁critical	-12.6956
▁chatrooms	-12.6957
▁naw	-12.6958
essed	-12.6959
while	-12.6959
▁nosy	-12.6962
▁mice	-12.6966
▁skill	-12.6967
minate	-12.6967
▁parenting	-12.6968
▁declines	-12.6975
ikes	-12.6992
▁peers	-12.6993
▁warming	-12.6993
▁wary	-12.6993
▁sag	-12.6994
▁hunni	-12.6995
fa	-12.6995
oochie	-12.6996
▁goodies	-12.6997
▁glove	-12.6998
▁cooler	-12.7003
▁mum	-12.7005
▁rican	-12.7009
▁basics	-12.7012
▁signed	-12.7012
▁za	-12.7013
▁dish	-12.7015
▁hunk	-12.7025
▁stri	-12.7026
▁proven	-12.7026
za	-12.7027
paired	-12.7031
igan	-12.7032
▁cab	-12.7042
▁defeat	-12.7046
▁cont	-12.7048
▁azz	-12.7049
▁dancer	-12.7053
▁tina	-12.7054
▁youself	-12.7057
▁friggin	-12.7062
▁wif	-12.7065
▁lessons	-12.7069
▁floss	-12.707
▁invitations	-12.708
▁records	-12.7084
ood	-12.7084
▁mud	-12.7085
▁weekly	-12.7088
▁host	-12.7088
▁dial	-12.709
osity	-12.7091
▁*****	-12.7094
ified	-12.7096
▁shar	-12.7097
▁fla	-12.71
▁pops	-12.71
▁aka	-12.7102
wer	-12.7103
▁shown	-12.7104
▁fame	-12.7112
▁storm	-12.7118
▁increases	-12.7123
nal	-12.7125
▁cutie	-12.713
▁exercises	-12.7145
▁evry	-12.7146
▁smoker	-12.7146
▁prayer	-12.7153
▁,,,	-12.7154
ahhness	-12.7154
▁lend	-12.7159
▁sue	-12.7159
tice	-12.7161
▁supose	-12.7163
▁uncles	-12.7163
▁praise	-12.7164
ductive	-12.7166
▁vaginas	-12.7167
ear	-12.7168
▁cone	-12.7184
▁instances	-12.7186
ried	-12.7188
ering	-12.7189
evaluate	-12.719
▁tapes	-12.7199
135	-12.7209
▁goodluck	-12.721
▁firend	-12.7216
▁follows	-12.7226
lace	-12.7231
▁clair	-12.7234
till	-12.7234
▁bac	-12.7235
anged	-12.7242
still	-12.7245
▁develops	-12.7247
▁consi	-12.7254
ky	-12.7259
▁feelins	-12.7264
tha	-12.7269
▁thang	-12.7269
▁sink	-12.7275
▁distract	-12.7276
▁prices	-12.7278
zed	-12.7281
▁tales	-12.7281
▁print	-12.7281
▁amiss	-12.7282
▁latina	-12.7303
ssy	-12.731
leve	-12.7311
▁probal	-12.7311
▁citizen	-12.7312
▁gyms	-12.7321
▁tag	-12.7323
▁focuse	-12.7327
pelled	-12.7327
tory	-12.7336
▁clicks	-12.7342
▁sw	-12.7347
▁appr	-12.7349
▁mold	-12.7383
rong	-12.7387
▁reconnect	-12.7388
cent	-12.7427
▁bj	-12.7434
▁**	-12.7434
▁dolls	-12.7435
▁reduce	-12.7436
az	-12.7455
ians	-12.7461
pron	-12.7471
▁severe	-12.7474
▁approves	-12.7476
tly	-12.7481
den	-12.7491
▁gel	-12.7498
▁op	-12.7517
nds	-12.7518
▁reactions	-12.7528
▁stone	-12.7532
cing	-12.7552
▁whit	-12.7554
▁1-2	-12.7558
vl	-12.7571
100.	-12.758
▁ke	-12.7588
av	-12.7598
▁tony	-12.7611
▁attends	-12.7612
▁idol	-12.7612
▁eg	-12.7623
▁dedicate	-12.7626
▁bru	-12.7626
▁yank	-12.7643
▁pit	-12.7644
them	-12.7657
▁18...	-12.7671
▁2:	-12.7676
umb	-12.769
▁mush	-12.769
▁chating	-12.7692
tal	-12.7692
▁complet	-12.7692
call	-12.7693
fe	-12.7706
been	-12.7724
4.	-12.7728
cept	-12.7728
▁myth	-12.7732
mone	-12.7739
▁orally	-12.774
▁rubs	-12.775
▁stra	-12.7756
pends	-12.7756
▁keys	-12.7758
▁phones	-12.7784
hang	-12.7791
ai	-12.7813
):	-12.7815
luck	-12.782
▁mich	-12.7822
▁chee	-12.7829
▁5,	-12.783
▁attic	-12.7835
!!!)	-12.7841
▁sweets	-12.7845
▁strap	-12.7849
▁tee	-12.7854
▁spe	-12.7862
))	-12.7872
...!	-12.7873
ere	-12.7882
ern	-12.7887
▁gidd	-12.7915
die	-12.7916
▁digit	-12.792
▁conversational	-12.7931
▁ea	-12.7934
▁nee	-12.7938
art	-12.7939
▁sk	-12.794
overtly	-12.796
rade	-12.7964
▁scor	-12.7965
bam	-12.7968
izing	-12.7976
again	-12.7991
▁har	-12.7995
eed	-12.7997
iff	-12.8001
leave	-12.8006
ft	-12.8006
▁itch	-12.8022
?????????	-12.8024
▁dome	-12.8032
▁mas	-12.8033
gging	-12.8039
▁abou	-12.804
▁rob	-12.8041
▁prey	-12.8045
filed	-12.8051
op	-12.8059
▁hur	-12.8063
▁anthing	-12.8063
▁fir	-12.8072
hose	-12.8078
000	-12.8106
▁hairs	-12.8107
heart	-12.8108
20.	-12.8111
spite	-12.812
▁possi	-12.8128
▁sle	-12.8132
▁compell	-12.8151
▁whim	-12.8156
▁15.	-12.8165
lic	-12.8171
▁char	-12.818
▁birthdays	-12.8196
▁hrs	-12.82
▁pap	-12.8202
nexperienced	-12.821
elf	-12.821
▁denie	-12.8226
▁ko	-12.8233
marriage	-12.8238
ify	-12.824
-18	-12.8243
ilty	-12.8243
acious	-12.8247
mic	-12.8249
▁conc	-12.8254
▁reli	-12.8259
nite	-12.8263
▁babysit	-12.827
acting	-12.827
uous	-12.8273
tty	-12.8282
▁prenupt	-12.8286
lation	-12.8287
aming	-12.8292
▁ru	-12.8294
▁frend	-12.8298
▁pleasures	-12.8299
▁buck	-12.8312
jo	-12.8316
etorical	-12.8319
▁sn	-12.833
aly	-12.8332
▁zo	-12.8333
filling	-12.8346
stay	-12.835
anian	-12.8352
bo	-12.8367
remember	-12.8371
oooooo	-12.8379
▁nutti	-12.8391
▁eva	-12.8401
▁10,	-12.8401
wit	-12.8408
????????????????	-12.8413
:-	-12.8436
hug	-12.8436
aged	-12.8437
....(	-12.844
▁dep	-12.8445
▁dateing	-12.8446
▁mouthful	-12.846
▁vol	-12.8461
▁mack	-12.8466
▁happenes	-12.8468
room	-12.8474
gn	-12.8474
▁opera	-12.8478
▁spin	-12.8479
dependant	-12.8499
▁sup	-12.8502
▁sy	-12.8503
▁mak	-12.8507
kids	-12.8514
xxx	-12.852
?....	-12.8528
owed	-12.8529
▁hence	-12.8535
▁tack	-12.8538
▁covers	-12.8543
stupid	-12.8544
▁enuf	-12.8548
▁arn	-12.8573
*)	-12.858
▁cond	-12.8586
▁godd	-12.8595
lk	-12.8607
▁sha	-12.8608
34	-12.8609
mom	-12.8614
▁mass	-12.8615
fi	-12.8616
als	-12.8625
nk	-12.8627
alot	-12.8632
mind	-12.8635
world	-12.8649
cz	-12.8655
wanna	-12.8659
mature	-12.8683
▁mins	-12.8695
crazy	-12.8704
▁pleas	-12.8708
▁fare	-12.8711
logical	-12.8711
hon	-12.8714
ppl	-12.8717
▁bec	-12.8718
ag	-12.8726
▁oppos	-12.873
▁summe	-12.8732
prove	-12.8748
▁tradition	-12.875
days	-12.8764
▁spouses	-12.8771
gal	-12.8771
works	-12.8773
bal	-12.8774
drive	-12.8778
▁cent	-12.8781
▁drum	-12.8782
dump	-12.8784
▁apt	-12.8785
▁frends	-12.8787
fect	-12.8804
excuse	-12.8808
ndness	-12.8811
▁opp	-12.8816
forever	-12.8819
selling	-12.8819
ously	-12.882
gi	-12.8827
-8	-12.8828
honey	-12.8837
adulterer	-12.8845
▁frog	-12.8845
nish	-12.8848
ggie	-12.8849
hold	-12.8851
▁gaz	-12.8861
▁decis	-12.8865
ray	-12.8872
lian	-12.8874
dumb	-12.8874
▁grave	-12.8876
nny	-12.888
101	-12.888
gen	-12.8881
fine	-12.8883
matic	-12.8888
club	-12.8891
ipping	-12.8895
blue	-12.8895
example	-12.8908
popular	-12.8909
▁dj	-12.8911
tted	-12.8917
▁whipp	-12.8919
everybody	-12.8926
chocolate	-12.8937
▁compl	-12.8943
▁rad	-12.8952
66	-12.8963
older	-12.8971
411	-12.8984
ully	-12.8986
trans	-12.8988
▁famil	-12.8993
*****	-12.8994
lessly	-12.9003
meaning	-12.9005
james	-12.9007
▁!!!!!!	-12.9008
michael	-12.9008
55	-12.9009
endowed	-12.9012
▁oct	-12.9013
jack	-12.9014
thumb	-12.9019
weigh	-12.902
fire	-12.9022
▁brides	-12.9025
tape	-12.9029
oul	-12.9032
atly	-12.9032
common	-12.9033
▁bea	-12.9034
illa	-12.9037
chances	-12.9039
lips	-12.9053
▁pers	-12.9054
ards	-12.9061
▁user	-12.9062
ouch	-12.9063
driver	-12.9068
▁west	-12.907
dog	-12.907
daman	-12.907
ster	-12.9082
▁liv	-12.9099
babe	-12.9099
▁initiat	-12.91
marie	-12.9101
ological	-12.9102
▁mater	-12.9115
kay	-12.9122
▁sch	-12.9128
▁22-	-12.9128
used	-12.9142
▁probab	-12.9149
▁quits	-12.9152
mailing	-12.916
▁arse	-12.9163
▁logical	-12.9165
ladder	-12.9165
▁lykin	-12.9166
▁damp	-12.9175
sexy	-12.9176
▁memor	-12.9187
sting	-12.9195
ats	-12.9195
▁port	-12.9196
▁dinosaur	-12.9196
▁commercial	-12.9196
▁president	-12.9196
▁lawsuit	-12.9196
▁garden	-12.9196
cture	-12.9197
▁censor	-12.9198
▁quirk	-12.9199
▁taboo	-12.92
▁peanut	-12.9205
▁priest	-12.9208
▁weapon	-12.9208
▁cigarette	-12.9211
sy	-12.9212
▁rebel	-12.9212
▁mode	-12.9212
▁complication	-12.9214
▁embarras	-12.9215
▁session	-12.9216
▁curl	-12.9219
fidelity	-12.922
▁motive	-12.9221
▁roof	-12.9221
▁product	-12.9225
ugh	-12.9226
▁shift	-12.9226
exist	-12.9226
▁el	-12.9229
▁homo	-12.923
▁va	-12.9231
▁demons	-12.9242
▁perfection	-12.9257
▁suicid	-12.9258
▁fianc	-12.9259
▁phon	-12.9263
▁yeh	-12.9263
▁multipl	-12.9263
▁devorce	-12.9273
▁concentrat	-12.9274
▁greeting	-12.9274
▁intimidate	-12.9276
▁complicate	-12.9277
▁penetrate	-12.9277
▁german	-12.9277
▁stole	-12.9279
cked	-12.9279
▁extrovert	-12.9282
▁expose	-12.9284
▁essential	-12.9284
▁wander	-12.9285
▁trail	-12.9287
▁settl	-12.9287
agna	-12.9288
▁telepath	-12.9288
▁macsteed	-12.9289
▁champa	-12.9289
▁spongebob	-12.9289
thickchix	-12.9289
▁disgrace	-12.9289
▁hygein	-12.9289
nawaz	-12.9289
pittsburgh	-12.9289
pubescent	-12.9289
▁acquiesce	-12.9289
▁aerosmith	-12.9289
▁airplane	-12.9289
▁anguino	-12.9289
▁announce	-12.9289
▁antonio	-12.9289
▁anxiety	-12.9289
▁applications	-12.9289
▁aspirations	-12.9289
▁bizarre	-12.9289
▁calories	-12.9289
▁caribbean	-12.9289
▁catnip	-12.9289
▁ceremonies	-12.9289
▁clayton	-12.9289
▁consensual	-12.9289
▁contraceptives	-12.9289
▁convenience	-12.9289
▁cuckold	-12.9289
▁cupcakes	-12.9289
▁deceptive	-12.9289
▁democrat	-12.9289
▁dialogue	-12.9289
▁disingenuous	-12.9289
▁energetic	-12.9289
▁enthusiasm	-12.9289
▁expirience	-12.9289
▁fornicating	-12.9289
▁georgia	-12.9289
▁georgio	-12.9289
▁hawkins	-12.9289
▁inconvenience	-12.9289
▁intervene	-12.9289
▁jasmine	-12.9289
▁juvenile	-12.9289
▁kewl	-12.9289
▁lavalife	-12.9289
▁leopard	-12.9289
▁liverwurst	-12.9289
▁mapquest	-12.9289
▁mccartney	-12.9289
▁metaphor	-12.9289
▁murphy	-12.9289
▁netflix	-12.9289
▁obliged	-12.9289
▁oppertunit	-12.9289
▁oppinion	-12.9289
▁outrageous	-12.9289
▁overbearing	-12.9289
▁oysters	-12.9289
▁phallus	-12.9289
▁philippines	-12.9289
▁philosophy	-12.9289
▁pupils	-12.9289
▁python	-12.9289
▁qualify	-12.9289
▁reunite	-12.9289
▁semester	-12.9289
▁slogan	-12.9289
▁supermarket	-12.9289
▁taylor	-12.9289
▁thursday	-12.9289
▁transplant	-12.9289
▁transvestite	-12.9289
▁unbelievable	-12.9289
▁unforgettable	-12.9289
▁unrealistic	-12.9289
▁xanga	-12.9289
▁abdomen	-12.9289
▁accommodat	-12.9289
▁affraid	-12.9289
▁buisness	-12.9289
▁chapstick	-12.9289
▁eminem	-12.9289
▁fossil	-12.9289
▁jeopard	-12.9289
▁robots	-12.9289
▁sausage	-12.9289
▁alphabet	-12.9289
▁altercation	-12.9289
▁barbeque	-12.9289
▁canadian	-12.9289
▁component	-12.9289
▁copulation	-12.9289
▁darcy	-12.9289
▁diversions	-12.9289
▁guitar	-12.9289
▁hamster	-12.9289
▁imperfections	-12.9289
▁jeeves	-12.9289
▁populated	-12.9289
▁quiero	-12.9289
▁spectacular	-12.9289
▁tragic	-12.9289
▁bourke	-12.9289
▁deceiving	-12.9289
▁irritable	-12.9289
▁november	-12.9289
▁spiral	-12.9289
▁thailand	-12.9289
▁university	-12.9289
▁assessment	-12.9289
▁earliest	-12.9289
▁haddaway	-12.9289
▁houston	-12.9289
▁spencer	-12.9289
fluellen	-12.9289
▁durex	-12.9289
▁crooked	-12.9289
▁miracles	-12.9289
▁discern	-12.9289
▁horsepower	-12.9289
▁verify	-12.9289
▁equate	-12.9289
preciate	-12.9289
▁flesh	-12.9289
▁poison	-12.9289
▁prostitution	-12.9289
▁vigorous	-12.9289
▁napole	-12.9289
▁soldier	-12.9289
▁dishonor	-12.9289
▁principle	-12.9289
▁awnser	-12.9289
▁dallas	-12.9289
▁juliet	-12.9289
▁plunge	-12.9289
▁thirties	-12.9289
▁wedlock	-12.9289
▁chapel	-12.9289
▁yiea	-12.9289
▁unpredictable	-12.9289
▁smert	-12.9289
▁counterpart	-12.9289
▁declare	-12.9289
▁aquarius	-12.9289
▁gracious	-12.9289
▁pansy	-12.9289
▁politician	-12.9289
▁marvin	-12.9289
▁derriere	-12.9289
▁sensual	-12.9289
▁undecided	-12.9289
▁unreliable	-12.9289
▁eyelashes	-12.9289
▁ironically	-12.9289
▁unfriendly	-12.9289
▁british	-12.9289
▁forthcoming	-12.9289
▁sustain	-12.9289
▁tennessee	-12.9289
▁orgasim	-12.9289
▁tickling	-12.9289
▁simpson	-12.9289
▁volume	-12.9289
▁telepathic	-12.9289
▁abstinence	-12.9289
▁unload	-12.9289
▁notebook	-12.9289
▁buffet	-12.9289
▁linda	-12.9289
▁distraction	-12.9289
▁extensive	-12.9289
▁appreciation	-12.9289
▁crashers	-12.9289
▁courthouse	-12.9289
▁hurried	-12.9289
▁laptop	-12.9289
▁tendencies	-12.9289
▁facade	-12.9289
▁neighbour	-12.9289
▁pagan	-12.9289
▁olivia	-12.9289
▁arkansas	-12.9289
▁keyboard	-12.9289
▁resturant	-12.9289
▁gymnast	-12.9289
▁suprising	-12.9289
▁pudding	-12.9289
▁seprate	-12.9289
▁festival	-12.929
▁celebrating	-12.929
▁misery	-12.929
▁masochism	-12.929
▁slightest	-12.929
▁hollywood	-12.929
▁repulsive	-12.929
▁droop	-12.929
▁stoop	-12.929
▁crisis	-12.929
▁stretch	-12.929
existent	-12.929
▁babysitter	-12.929
▁paddle	-12.929
▁immediate	-12.929
▁smear	-12.929
▁qualified	-12.929
▁utah	-12.929
▁diane	-12.929
▁feedback	-12.929
▁biatch	-12.929
▁homie	-12.929
▁hustler	-12.929
▁offspring	-12.929
▁fridge	-12.929
▁5-6	-12.929
▁goatee	-12.929
▁haircut	-12.929
▁involvement	-12.929
▁jules	-12.929
▁freezing	-12.929
▁compromising	-12.929
▁trauma	-12.929
imony	-12.9291
▁descend	-12.9291
▁chlor	-12.9291
▁magical	-12.9291
▁leering	-12.9291
▁denise	-12.9291
▁expired	-12.9291
▁purposefully	-12.9291
▁adoration	-12.9291
▁climbing	-12.9291
▁permitted	-12.9291
▁secretary	-12.9291
▁supervisor	-12.9291
▁advantageous	-12.9291
▁equality	-12.9291
▁generalizing	-12.9291
▁roundabout	-12.9292
▁digging	-12.9292
▁fearful	-12.9292
▁munch	-12.9292
eyed	-12.9292
▁weaknesses	-12.9292
▁tremendously	-12.9292
▁purchasing	-12.9292
▁rambling	-12.9292
▁unimportant	-12.9292
▁ninety	-12.9292
▁worms	-12.9292
riously	-12.9292
▁entirety	-12.9292
▁pastels	-12.9292
▁barney	-12.9292
▁flavor	-12.9292
▁posture	-12.9293
▁grlfriend	-12.9293
▁potion	-12.9293
▁altogether	-12.9293
▁unfold	-12.9293
▁leigh	-12.9293
▁brick	-12.9293
▁overwhelmed	-12.9293
▁hitched	-12.9294
▁humanity	-12.9294
▁presure	-12.9294
▁association	-12.9295
▁penus	-12.9295
▁wendy	-12.9295
▁promoted	-12.9295
▁dumps	-12.9295
▁actress	-12.9295
▁deity	-12.9295
▁jason	-12.9295
▁chipm	-12.9295
▁shelter	-12.9295
▁extroverted	-12.9295
▁pampered	-12.9295
▁snooping	-12.9295
▁extended	-12.9296
▁doubtful	-12.9296
▁ruff	-12.9297
▁conversating	-12.9297
▁untrue	-12.9297
▁whimp	-12.9297
▁megan	-12.9297
▁smothering	-12.9297
▁napa	-12.9298
▁entry	-12.9298
▁cheezy	-12.9298
fortable	-12.9299
▁admini	-12.9299
▁infactuat	-12.9299
▁mock	-12.9299
jimmy	-12.9299
▁refresh	-12.93
▁bulge	-12.93
▁clothed	-12.93
▁sickness	-12.93
▁supper	-12.93
▁duty	-12.93
▁ineffective	-12.9301
▁funn	-12.9302
▁surveys	-12.9302
▁balloons	-12.9302
▁olives	-12.9302
▁symptoms	-12.9302
▁doughnuts	-12.9302
▁eyebrows	-12.9302
▁colleagues	-12.9302
▁laff	-12.9302
nner	-12.9302
▁sunflowers	-12.9302
▁adultry	-12.9302
▁impersonal	-12.9302
▁briefly	-12.9303
▁suffocate	-12.9303
▁reese	-12.9303
▁yoga	-12.9303
▁conceal	-12.9304
▁cube	-12.9304
▁indicating	-12.9304
▁boner	-12.9304
▁denied	-12.9304
▁basicly	-12.9304
▁lumber	-12.9305
▁uniform	-12.9306
▁pile	-12.9306
▁woudn	-12.9307
▁sumthing	-12.9307
▁independence	-12.9307
▁playmate	-12.9307
▁puss	-12.9308
▁stems	-12.9308
▁snort	-12.9309
▁tiring	-12.9309
▁france	-12.9309
▁shaun	-12.9309
▁exposed	-12.931
▁river	-12.931
▁harshly	-12.931
▁cig	-12.931
▁wrestle	-12.9311
▁certian	-12.9312
▁conquered	-12.9313
▁spunk	-12.9313
▁smacked	-12.9313
▁sci	-12.9314
stern	-12.9314
▁angeles	-12.9315
▁regularly	-12.9316
▁spanked	-12.9316
▁watever	-12.9316
▁tickled	-12.9316
▁poodle	-12.9316
▁floored	-12.9317
▁summ	-12.9317
▁yor	-12.9318
▁filler	-12.9318
▁irises	-12.9318
▁grandparent	-12.9319
▁comedy	-12.9319
▁stru	-12.9319
▁divert	-12.932
▁heavenly	-12.932
▁strengthen	-12.932
▁braids	-12.9321
▁overthinking	-12.9322
▁deprav	-12.9322
▁brushed	-12.9322
▁linked	-12.9323
turkish	-12.9323
▁independant	-12.9324
▁director	-12.9324
▁leftovers	-12.9324
▁hunters	-12.9324
▁sleeve	-12.9325
▁broom	-12.9325
▁chik	-12.9325
▁flirtation	-12.9325
▁queer	-12.9327
▁realised	-12.9327
▁mcm	-12.9328
▁warned	-12.9328
▁itchy	-12.9329
▁beverage	-12.9329
▁barry	-12.933
▁outdated	-12.933
▁declined	-12.9331
▁pluck	-12.9331
▁hershey	-12.9332
▁onward	-12.9332
▁nap	-12.9332
▁slight	-12.9333
▁uglies	-12.9333
▁auto	-12.9333
▁consistant	-12.9333
▁perish	-12.9334
▁custo	-12.9335
▁clots	-12.9337
▁divorse	-12.9337
▁everbody	-12.9337
▁trump	-12.9337
▁awaken	-12.9338
▁inhibit	-12.9338
sp	-12.9339
▁sequel	-12.9339
▁packed	-12.934
▁compatibility	-12.934
▁nething	-12.934
▁incidentally	-12.9341
arius	-12.9341
▁investigation	-12.9342
▁necessity	-12.9343
▁comitment	-12.9343
▁yummy	-12.9343
▁forbidden	-12.9343
▁mingle	-12.9343
▁playstation	-12.9343
▁extend	-12.9344
▁maxim	-12.9344
▁grill	-12.9344
▁evidently	-12.9344
▁payment	-12.9344
▁manga	-12.9344
▁bondage	-12.9344
▁zen	-12.9345
▁fabrics	-12.9346
▁inflict	-12.9347
▁185	-12.9347
▁wrappers	-12.9347
▁fellings	-12.935
▁sweatshirt	-12.9353
▁awfully	-12.9353
▁spreading	-12.9354
▁sadist	-12.9354
▁tulips	-12.9355
▁grant	-12.9358
▁stiff	-12.9358
800	-12.9358
▁peice	-12.9359
▁pier	-12.9359
▁360)	-12.9359
▁longterm	-12.9359
▁undertake	-12.9361
▁instantly	-12.9362
▁oils	-12.9362
▁admirer	-12.9363
▁asia	-12.9363
▁fuckin	-12.9364
▁sessions	-12.9364
▁amazingly	-12.9365
▁wimps	-12.9365
▁annu	-12.9365
▁password	-12.9366
▁sanity	-12.9366
▁worthless	-12.9368
▁merci	-12.9368
▁repeated	-12.9369
▁weapons	-12.937
▁tempting	-12.937
▁proclaim	-12.9372
▁outward	-12.9372
▁products	-12.9372
▁electric	-12.9373
▁josi	-12.9375
▁occured	-12.9377
▁homeboy	-12.9377
▁reciprocated	-12.9378
relationship	-12.9378
▁rehab	-12.9379
▁charged	-12.938
▁contend	-12.9383
▁examined	-12.9384
▁easter	-12.9384
▁glare	-12.9385
▁advis	-12.9385
▁plati	-12.9385
▁signifi	-12.9386
4/	-12.9388
▁quiz	-12.9388
▁repuls	-12.9389
▁hola	-12.9391
▁crossed	-12.9391
▁clouds	-12.9392
▁nightmares	-12.9393
▁imper	-12.9393
▁confessing	-12.9395
52	-12.9395
▁femme	-12.9396
utton	-12.9397
▁defen	-12.9397
ickle	-12.9397
▁nosey	-12.9399
▁rum	-12.9399
▁penpals	-12.94
▁strokes	-12.9402
▁readers	-12.9402
▁insensitive	-12.9407
21	-12.9411
▁ova	-12.9412
▁mist	-12.9412
▁observed	-12.9413
▁jen	-12.9414
▁clowns	-12.9415
▁pamper	-12.9415
▁monsters	-12.9416
▁oth	-12.9416
▁objectives	-12.9417
?!?!	-12.9417
▁officers	-12.9418
monag	-12.9419
▁peek	-12.9421
▁procur	-12.9422
hould	-12.9423
▁softer	-12.9425
▁genes	-12.9426
ciate	-12.9427
▁widow	-12.943
cola	-12.943
▁consuming	-12.9433
▁lonly	-12.9435
▁sumtime	-12.9436
▁rib	-12.9436
▁tunes	-12.9437
▁85	-12.9437
▁astrolog	-12.9438
▁jell	-12.9439
ound	-12.9441
▁lovemaking	-12.9442
rank	-12.9442
rash	-12.9443
▁noises	-12.9447
▁perk	-12.9449
▁july	-12.9451
raging	-12.9451
▁41	-12.9451
▁armed	-12.9452
ph	-12.9456
▁dread	-12.9457
zer	-12.9457
eva	-12.9459
▁ag	-12.9459
▁loop	-12.946
▁moody	-12.9461
▁jackets	-12.9462
▁requirements	-12.9463
▁separat	-12.9463
▁graders	-12.9464
▁outdoors	-12.9464
▁coach	-12.9466
▁abby	-12.9468
▁kiddo	-12.9472
▁rained	-12.9473
▁spand	-12.9474
▁entertainer	-12.9475
▁jealos	-12.9475
▁improved	-12.9477
jk	-12.9479
▁stern	-12.948
quander	-12.9482
nies	-12.9484
▁battles	-12.9484
▁tender	-12.9485
▁daytime	-12.9485
▁pant	-12.9485
▁pillows	-12.9485
▁spiritual	-12.9485
▁update	-12.949
▁pressured	-12.949
▁national	-12.9494
▁cows	-12.9494
urned	-12.95
▁damm	-12.9501
▁secretive	-12.9502
luc	-12.9502
▁creeps	-12.9502
▁stead	-12.9503
▁coupons	-12.9505
▁browse	-12.9506
▁likewise	-12.9506
▁replying	-12.9507
▁assumptions	-12.9509
▁distanced	-12.9512
▁oops	-12.9516
▁italy	-12.9517
▁recommendation	-12.9518
cruzy	-12.9519
▁deplo	-12.9519
eng	-12.9519
▁boast	-12.952
▁passive	-12.9523
▁predica	-12.9523
600	-12.9524
donald	-12.9527
▁moreover	-12.9528
▁measures	-12.953
gne	-12.9531
▁mcg	-12.9533
▁lighting	-12.9534
vv	-12.9536
▁clit	-12.9539
ums	-12.9541
▁nicky	-12.9541
▁becau	-12.9545
▁cave	-12.9547
▁messin	-12.955
▁bark	-12.9551
lment	-12.9553
▁scenes	-12.9553
▁mal	-12.9557
▁rider	-12.9558
▁kidnapp	-12.9558
dam	-12.9562
▁rela	-12.9562
▁ov	-12.9567
▁blurt	-12.9573
▁sm	-12.9574
▁alike	-12.9574
ital	-12.9576
▁sista	-12.9577
▁cuss	-12.9585
dept	-12.9587
▁indifferent	-12.9593
▁invent	-12.9597
▁cage	-12.96
▁skirts	-12.9601
▁vibrators	-12.9602
▁poser	-12.9603
▁samething	-12.9606
serves	-12.9606
▁seal	-12.9607
je	-12.9611
heads	-12.9613
▁matt	-12.9618
▁bread	-12.9623
▁planets	-12.9626
ids	-12.9627
pened	-12.9629
▁purchased	-12.9631
▁8-	-12.9632
▁poe	-12.9639
ap	-12.964
▁ques	-12.964
▁jud	-12.964
▁anyth	-12.9648
▁possessions	-12.9651
▁bonds	-12.9655
▁oc	-12.9655
▁corrected	-12.9656
erogat	-12.9656
▁ether	-12.9659
attered	-12.9665
antly	-12.9672
▁reputations	-12.9673
▁hoop	-12.9674
▁completed	-12.9674
gle	-12.9682
▁toleran	-12.9686
▁jel	-12.9688
ran	-12.9689
ines	-12.969
nna	-12.9692
▁jai	-12.9698
could	-12.9705
ranch	-12.9711
aters	-12.9713
▁sticky	-12.9714
-12	-12.9718
▁proceeding	-12.9719
▁jacka	-12.972
▁mace	-12.9721
▁skinn	-12.9725
aol	-12.9726
▁writer	-12.9728
shy	-12.9739
▁windows	-12.9741
▁tim	-12.9743
▁gig	-12.9744
▁cole	-12.9745
▁trin	-12.9759
▁dares	-12.976
▁angels	-12.9761
▁forplay	-12.9765
rah	-12.9765
boyfriends	-12.977
▁links	-12.9775
▁wayz	-12.9776
▁blackmail	-12.9781
▁respected	-12.9782
-4	-12.9783
rist	-12.9786
▁dey	-12.9787
▁ky	-12.9787
▁watcher	-12.979
▁metal	-12.9793
▁sheep	-12.9797
eeee	-12.9802
domin	-12.9803
▁ruminat	-12.9805
▁immer	-12.9805
conscious	-12.9811
rape	-12.9812
▁marin	-12.9814
▁jewer	-12.9819
▁hip	-12.9825
pped	-12.9826
ka	-12.9826
▁linger	-12.9834
▁sant	-12.9834
▁mask	-12.9838
mber	-12.9847
mi	-12.9861
▁ann	-12.9862
▁sco	-12.9868
tious	-12.9874
▁soda	-12.9879
▁30.	-12.9896
▁cleaner	-12.9896
oooooooooooooooo	-12.991
▁cumm	-12.9913
▁bam	-12.9921
▁kitt	-12.9928
▁fearing	-12.9929
▁virg	-12.993
18	-12.9932
▁woud	-12.9935
ished	-12.9937
pat	-12.9938
eling	-12.9938
han	-12.994
▁destin	-12.994
▁data	-12.9943
dou	-12.9943
▁chore	-12.9944
▁sponse	-12.9952
lust	-12.996
▁sample	-12.9966
▁mut	-12.9967
sporting	-12.9975
▁loathe	-12.9977
▁cove	-12.9979
▁stance	-12.9988
▁locks	-12.999
oney	-13.0003
otta	-13.0003
-10	-13.0009
▁mart	-13.0012
2.	-13.0016
cuzz	-13.0024
town	-13.0051
arz	-13.0056
▁hanger	-13.0057
▁characteriz	-13.0062
▁refus	-13.0064
▁poke	-13.0066
▁pointed	-13.0068
▁languages	-13.0073
omg	-13.0081
...).	-13.0083
bi	-13.0084
12	-13.0092
▁knocks	-13.0092
ances	-13.0096
tches	-13.0097
▁log	-13.01
hit	-13.0102
abie	-13.0104
▁unti	-13.0107
,000	-13.0108
latter	-13.0108
▁confrontational	-13.012
ives	-13.0144
▁circum	-13.0148
etroi	-13.0158
▁sakes	-13.0164
▁wording	-13.0164
▁develope	-13.017
▁forum	-13.0173
star	-13.0174
▁posses	-13.0193
▁dil	-13.0194
▁boats	-13.0195
▁usher	-13.0209
▁prima	-13.0214
▁chit	-13.022
▁senc	-13.0227
dham	-13.023
▁unit	-13.0235
▁ham	-13.0241
▁serios	-13.0243
▁nav	-13.0245
▁frien	-13.0254
▁relates	-13.0256
▁jam	-13.0267
▁feal	-13.0274
▁ethical	-13.0276
wa	-13.0277
▁tur	-13.0278
mulate	-13.0278
sign	-13.0279
shirts	-13.0289
▁ladys	-13.0295
▁answere	-13.0298
bate	-13.0305
▁hats	-13.0308
pies	-13.0321
pon	-13.0326
▁ec	-13.0328
▁toss	-13.0339
▁dragg	-13.034
late	-13.0342
▁gripe	-13.0347
▁shapes	-13.0352
▁hah	-13.0358
▁handy	-13.0368
▁relat	-13.0373
▁selfless	-13.0378
roce	-13.0383
ummer	-13.0412
▁kissin	-13.0421
▁beings	-13.0421
▁vie	-13.0423
vr	-13.0424
▁mike	-13.0427
appreciative	-13.0429
unt	-13.0435
▁communications	-13.045
lanat	-13.0459
dden	-13.0462
anna	-13.0465
▁preg	-13.0477
▁gem	-13.0489
▁forceful	-13.0493
lo	-13.0505
▁360.	-13.0506
▁remov	-13.0513
▁spec	-13.0521
reless	-13.0526
gressive	-13.0529
ield	-13.0532
▁imp	-13.0533
▁lion	-13.0539
ope	-13.0551
natured	-13.0552
ction	-13.0559
▁13-	-13.0564
▁delica	-13.0568
▁compris	-13.0577
marita	-13.0581
▁mono	-13.0589
▁txt	-13.0602
***.	-13.0618
match	-13.0619
▁plead	-13.0622
rying	-13.0623
▁whoop	-13.0631
▁complaint	-13.0638
sa	-13.0651
▁sail	-13.0652
force	-13.0654
▁violat	-13.0657
...(	-13.0658
▁wheel	-13.0664
▁yum	-13.0677
▁slack	-13.0688
▁lemm	-13.0689
▁manipulat	-13.0699
utch	-13.07
▁jaz	-13.0706
had	-13.0708
selves	-13.0708
▁dispose	-13.0718
▁skinne	-13.072
ax	-13.0723
▁dif	-13.0726
▁aries	-13.073
ause	-13.0742
nto	-13.0742
troy	-13.0742
▁24-2	-13.0747
▁frind	-13.0774
ulent	-13.0777
▁dads	-13.0778
▁lee	-13.078
pplies	-13.0783
nder	-13.0784
50	-13.0785
▁exclud	-13.0793
pl	-13.0803
▁buggin	-13.0807
▁mos	-13.0813
▁attain	-13.0814
▁hm	-13.0815
▁bots	-13.0817
▁sid	-13.0818
▁boink	-13.0826
list	-13.0829
351	-13.0844
▁jigg	-13.0852
hink	-13.0855
▁rights	-13.0858
rio	-13.0861
▁stai	-13.0864
du	-13.0865
ays	-13.0896
....*	-13.09
gr	-13.0909
hard	-13.0916
though	-13.0918
▁16/	-13.0926
eyes	-13.0927
urself	-13.0947
teen	-13.0948
▁gen	-13.0953
cking	-13.0959
▁origin	-13.096
▁uns	-13.0966
orn	-13.097
series	-13.0978
▁wishy	-13.0983
nine	-13.0983
aked	-13.0985
fic	-13.099
alk	-13.099
ning	-13.0992
▁nicest	-13.0994
faithfull	-13.1
favorable	-13.1003
▁mone	-13.1005
▁restrict	-13.1006
ember	-13.1008
eats	-13.1008
▁ster	-13.101
ssing	-13.1016
pr	-13.1019
▁miche	-13.1031
els	-13.1036
ishn	-13.1043
▁hap	-13.105
▁sala	-13.1071
hehe	-13.1075
▁makeout	-13.1076
deal	-13.1089
1:	-13.1092
▁transmi	-13.1092
mas	-13.1098
▁deem	-13.11
▁weights	-13.1109
hurt	-13.1114
▁(6	-13.1137
)!!	-13.1154
hop	-13.116
▁fig	-13.1161
teria	-13.1163
ugged	-13.1179
young	-13.1184
▁tongues	-13.119
▁crash	-13.1197
▁jaw	-13.1205
▁solo	-13.1206
200	-13.1242
▁marr	-13.1251
▁ni	-13.1262
▁rev	-13.1278
lle	-13.1282
reason	-13.1282
▁nay	-13.1291
miss	-13.1303
▁vel	-13.1308
▁sixt	-13.1308
▁vin	-13.132
▁mattered	-13.1322
▁devi	-13.1324
nate	-13.1328
▁????	-13.1337
▁toooo	-13.1343
▁disc	-13.135
bj	-13.135
▁mines	-13.1366
▁psycholog	-13.1374
▁lit	-13.1379
last	-13.139
everything	-13.1398
▁lon	-13.1406
▁earl	-13.1418
▁sol	-13.1418
▁align	-13.1423
already	-13.1423
turn	-13.1425
▁meanings	-13.1443
wards	-13.1445
ien	-13.1446
,,,,	-13.1452
ool	-13.1456
!...	-13.1456
▁prat	-13.1464
▁fuk	-13.1467
▁aim	-13.1475
**.	-13.1481
osing	-13.1486
tude	-13.1493
ia	-13.1495
▁notch	-13.1496
nger	-13.1499
ack	-13.1512
honest	-13.1515
hr	-13.1515
rogen	-13.1516
guess	-13.1521
▁obv	-13.1524
myself	-13.1532
ga	-13.1534
▁ow	-13.1535
▁comple	-13.155
refers	-13.1551
female	-13.1562
erable	-13.1572
▁confrontation	-13.1573
-25	-13.1597
▁reciev	-13.1607
16	-13.1613
advice	-13.1614
those	-13.1624
▁26.	-13.1625
▁sav	-13.163
▁longing	-13.1631
▁confin	-13.1631
anyway	-13.1636
ales	-13.1648
▁abstin	-13.1649
hen	-13.1658
med	-13.1659
dle	-13.166
ucket	-13.1666
ulate	-13.1669
raped	-13.1669
▁..........	-13.167
house	-13.1674
▁canine	-13.1675
tter	-13.1679
iden	-13.1688
truly	-13.1693
wy	-13.1702
▁!.....	-13.1705
seems	-13.1705
choose	-13.1706
nding	-13.1712
)(	-13.1717
such	-13.1722
▁gras	-13.1732
rt	-13.1737
▁accessor	-13.1739
▁dependen	-13.174
sky	-13.1745
35	-13.1746
flirt	-13.175
▁vir	-13.1756
▁daughters	-13.1761
▁sca	-13.1764
▁fam	-13.1766
▁atti	-13.177
nted	-13.1772
funny	-13.1797
beautiful	-13.1798
serious	-13.1802
▁reali	-13.1806
usually	-13.181
▁peda	-13.1815
fish	-13.1824
mother	-13.1827
ould	-13.1831
rant	-13.1832
▁qu	-13.1834
▁ache	-13.1842
▁2!	-13.1843
▁relati	-13.185
nevermind	-13.1856
▁sever	-13.1862
dressed	-13.1866
tension	-13.1869
loved	-13.1878
22	-13.1879
oops	-13.1882
?!?!?!	-13.189
week	-13.1892
speak	-13.1892
▁wer	-13.1894
▁rack	-13.1912
▁replac	-13.1913
contact	-13.1917
friendship	-13.1919
short	-13.193
definitely	-13.1931
thier	-13.1934
wonder	-13.1943
moore	-13.1945
eing	-13.1948
af	-13.1948
flirting	-13.1949
mited	-13.1949
cute	-13.1951
▁lea	-13.1952
▁liqu	-13.1953
obby	-13.1958
treat	-13.197
idding	-13.1974
half	-13.1975
joy	-13.1978
▁ima	-13.1982
▁accu	-13.1994
▁compla	-13.1997
step	-13.2002
ups	-13.2008
truth	-13.2008
▁lease	-13.2016
nature	-13.2019
obviously	-13.2027
der	-13.2027
-2	-13.2032
word	-13.2035
black	-13.2039
umm	-13.2043
follow	-13.2043
leaning	-13.2044
waiting	-13.2049
significant	-13.2051
figure	-13.2052
posing	-13.2058
loves	-13.2062
▁owners	-13.2067
▁flipp	-13.2076
▁plug	-13.2077
yet	-13.2077
yone	-13.2079
surance	-13.208
▁jew	-13.2082
formed	-13.2084
confident	-13.2094
although	-13.2096
grow	-13.2102
uary	-13.2102
zo	-13.2104
pay	-13.2112
▁leash	-13.2112
somewhere	-13.2119
whole	-13.2127
aids	-13.2132
▁10-	-13.2133
penis	-13.2135
▁tak	-13.2138
boom	-13.2139
style	-13.2143
white	-13.2144
bigger	-13.2144
▁reci	-13.2149
▁mont	-13.2154
spouse	-13.2157
iality	-13.2158
▁bail	-13.216
wanted	-13.2163
eating	-13.2163
chat	-13.2166
relax	-13.2167
▁ser	-13.2167
ches	-13.2168
ham	-13.2168
▁bab	-13.217
college	-13.217
ited	-13.2175
▁handl	-13.2182
▁embrac	-13.2183
▁unli	-13.219
mouth	-13.2194
computer	-13.2194
core	-13.2201
curious	-13.2201
broken	-13.2202
headed	-13.2203
assured	-13.2204
blonde	-13.2207
sel	-13.221
kill	-13.2216
▁babys	-13.222
absolutely	-13.2223
shaking	-13.2225
engage	-13.2226
hubby	-13.2233
working	-13.2233
pants	-13.2234
natural	-13.224
350	-13.224
drop	-13.224
atic	-13.2246
▁becaus	-13.2247
massage	-13.2251
boat	-13.2255
ately	-13.2256
distance	-13.2258
period	-13.2261
mormon	-13.2261
kisses	-13.2262
wives	-13.2262
▁28.	-13.2265
▁sai	-13.2268
▁migh	-13.227
sheesh	-13.2273
dark	-13.2274
mostly	-13.2282
join	-13.2285
▁lab	-13.2286
plz	-13.2288
safe	-13.229
mannered	-13.229
▁expel	-13.2292
▁10.	-13.2296
0,000	-13.23
▁pale	-13.2301
cup	-13.2302
assuming	-13.2304
ening	-13.2305
google	-13.2312
material	-13.2312
brush	-13.2312
length	-13.2313
;-)	-13.2314
blah	-13.2315
verizon	-13.2315
booty	-13.2315
page	-13.2319
accidentally	-13.232
bound	-13.2324
▁amuse	-13.2326
lingerie	-13.2326
atleast	-13.2328
critical	-13.233
written	-13.2331
capable	-13.2333
literally	-13.2334
ashley	-13.2334
▁bay	-13.2335
developed	-13.2335
arch	-13.2336
sandwich	-13.2337
2005	-13.2338
▁achiev	-13.234
swinging	-13.234
nky	-13.2341
planned	-13.2342
▁effe	-13.2343
80	-13.2346
merry	-13.2353
resolved	-13.2356
lit	-13.2357
lovable	-13.2359
string	-13.236
8.	-13.2361
▁gener	-13.2361
nicky	-13.2364
▁anticipat	-13.2364
traditional	-13.237
▁rational	-13.2379
hmmmm	-13.2385
pu	-13.2392
hearted	-13.2396
▁cour	-13.2401
▁sil	-13.2408
▁spou	-13.2409
foot	-13.2413
ature	-13.2416
wen	-13.2419
freaks	-13.242
▁brat	-13.2421
polite	-13.2422
determined	-13.2423
june	-13.2424
▁vigi	-13.2426
cheaters	-13.2444
earth	-13.2445
eel	-13.2451
▁boyf	-13.2451
▁brea	-13.2463
etting	-13.2463
chu	-13.2472
inity	-13.2475
▁dia	-13.2477
▁cheez	-13.2478
▁flu	-13.248
▁gon	-13.2481
▁todays	-13.2486
▁bestow	-13.2493
▁grin	-13.2495
lf	-13.2495
tangled	-13.2496
▁referenc	-13.2496
bit	-13.2499
eone	-13.2502
1/2	-13.2505
▁soup	-13.2511
▁worrie	-13.2513
▁civil	-13.2516
serving	-13.2522
▁veteran	-13.253
sayin	-13.2532
pens	-13.2535
▁drawback	-13.2535
▁wheelchair	-13.2538
▁transpire	-13.2538
▁penpal	-13.2542
▁fabric	-13.2542
▁resource	-13.2544
▁armpit	-13.2544
▁indiscretion	-13.2546
▁piercing	-13.2547
▁characteristic	-13.2548
▁hobbie	-13.2548
▁frined	-13.2548
eek	-13.2549
ferred	-13.2549
▁classmate	-13.2549
ride	-13.2552
nail	-13.2558
gurr	-13.2562
▁swinger	-13.2567
▁expectation	-13.2569
▁nurs	-13.257
▁enjo	-13.2571
▁sati	-13.2573
▁shade	-13.2576
▁40-	-13.258
▁logic	-13.2584
▁convinc	-13.2584
▁hormon	-13.2588
▁slam	-13.2588
▁overwhelm	-13.2589
▁wrestl	-13.2593
▁describ	-13.2594
▁glanc	-13.2594
▁toy	-13.2596
▁priv	-13.2597
25	-13.2603
▁gril	-13.2604
▁volunteer	-13.2604
gling	-13.2605
▁mislead	-13.2607
▁distinct	-13.2609
▁examin	-13.2609
lant	-13.261
▁educate	-13.261
▁poly	-13.261
▁gag	-13.261
▁categor	-13.2611
▁compose	-13.2611
▁et	-13.2611
▁bragg	-13.2614
▁captivat	-13.2614
ology	-13.2615
▁charact	-13.2615
isn	-13.2615
▁modest	-13.2616
tail	-13.2616
▁provocative	-13.2617
▁tremendous	-13.2617
▁potato	-13.2618
▁caucasi	-13.2619
lloween	-13.2619
▁paranoi	-13.2619
▁ooooh	-13.262
▁precio	-13.2621
▁cheri	-13.2621
▁skateboard	-13.2621
▁automatic	-13.2622
▁substan	-13.2622
▁suzann	-13.2622
▁transform	-13.2622
millenium	-13.2622
extinct	-13.2622
▁frusterat	-13.2622
▁cucumber	-13.2622
▁lasciv	-13.2622
abbreviat	-13.2622
amuffin	-13.2622
monogomous	-13.2622
▁:0(	-13.2622
▁accuracy	-13.2622
▁acronym	-13.2622
▁adolescence	-13.2622
▁agitated	-13.2622
▁anniversaries	-13.2622
▁bouquet	-13.2622
▁brunnet	-13.2622
▁century	-13.2622
▁chocalate	-13.2622
▁comprimise	-13.2622
▁compulsive	-13.2622
▁condolences	-13.2622
▁conjunction	-13.2622
▁contagious	-13.2622
▁correspond	-13.2622
▁cuisine	-13.2622
▁cunnilingus	-13.2622
▁daphne	-13.2622
▁desicion	-13.2622
▁diploma	-13.2622
▁eliza	-13.2622
▁embellish	-13.2622
▁exclusivity	-13.2622
▁ferrari	-13.2622
▁frivolous	-13.2622
▁frugal	-13.2622
▁fuuny	-13.2622
▁gigolo	-13.2622
▁goosebumps	-13.2622
▁hickies	-13.2622
▁inaccurate	-13.2622
▁indecisive	-13.2622
▁irresistible	-13.2622
▁journey	-13.2622
▁lunatic	-13.2622
▁matinee	-13.2622
▁mbleditor	-13.2622
▁nauseous	-13.2622
▁nonchalant	-13.2622
▁oblivious	-13.2622
▁pedicure	-13.2622
▁perversions	-13.2622
▁phsyco	-13.2622
▁preposterous	-13.2622
▁procedure	-13.2622
▁prohibit	-13.2622
▁proportion	-13.2622
▁quantity	-13.2622
▁recluse	-13.2622
▁repercussions	-13.2622
▁reprimand	-13.2622
▁saliva	-13.2622
▁scoundr	-13.2622
▁sophomore	-13.2622
▁syrup	-13.2622
▁taurus	-13.2622
▁technology	-13.2622
▁terminology	-13.2622
▁tommorow	-13.2622
▁trojan	-13.2622
▁trousers	-13.2622
▁unattainable	-13.2622
▁unintentionally	-13.2622
▁unkempt	-13.2622
▁unsavory	-13.2622
▁unspoken	-13.2622
▁wardrobe	-13.2622
▁warrior	-13.2622
▁accomodat	-13.2622
▁buffoon	-13.2622
▁drowning	-13.2622
▁falafel	-13.2622
▁inquisitive	-13.2622
▁lyrics	-13.2622
▁probelm	-13.2622
▁stunningly	-13.2622
▁wagons	-13.2622
▁atlanta	-13.2622
▁clumsy	-13.2622
▁metropoli	-13.2622
▁resilien	-13.2622
▁sophisticat	-13.2622
▁unzipped	-13.2622
▁ackward	-13.2622
▁authorities	-13.2622
▁caliber	-13.2622
▁cheerleading	-13.2622
▁hallmark	-13.2622
▁illusion	-13.2622
▁implore	-13.2622
▁inadvisable	-13.2622
▁neccessary	-13.2622
▁peirc	-13.2622
▁sensitivity	-13.2622
▁stamina	-13.2622
savvy	-13.2622
▁circumcised	-13.2622
▁coarse	-13.2622
▁mirac	-13.2622
▁shadow	-13.2622
▁discrimination	-13.2622
▁horible	-13.2622
▁hypo	-13.2622
▁konw	-13.2622
▁peaple	-13.2622
▁phillipe	-13.2622
▁procreation	-13.2622
▁scrapbook	-13.2622
▁skank	-13.2622
▁vague	-13.2622
▁wrinkles	-13.2622
▁orlando	-13.2622
▁pattern	-13.2622
▁shortcomings	-13.2622
▁audience	-13.2622
▁emphatic	-13.2622
▁nymphomaniac	-13.2622
▁wifebeater	-13.2622
concious	-13.2622
▁adverse	-13.2622
▁chlamydia	-13.2622
▁depresion	-13.2622
▁eventuality	-13.2622
▁rescue	-13.2622
▁rooster	-13.2622
▁spiky	-13.2622
▁sterotype	-13.2622
▁temporarily	-13.2622
▁transportation	-13.2622
▁bruise	-13.2622
▁fornication	-13.2622
▁stimulation	-13.2622
▁pregunt	-13.2622
▁vacate	-13.2622
▁parlor	-13.2622
▁mediator	-13.2622
▁courteous	-13.2622
▁fifthteen	-13.2622
▁inevitable	-13.2622
▁inhibitions	-13.2622
▁anticipation	-13.2622
▁reproducing	-13.2622
▁falsehood	-13.2622
incentive	-13.2622
▁adapt	-13.2622
▁civilization	-13.2622
▁kittie	-13.2622
▁hillary	-13.2622
▁frantic	-13.2622
▁prevail	-13.2622
▁romatic	-13.2622
▁distortion	-13.2622
▁comittment	-13.2622
▁opposition	-13.2622
▁resolution	-13.2622
▁nutcase	-13.2622
▁plumber	-13.2622
▁inocent	-13.2622
▁commiment	-13.2622
▁guardian	-13.2622
▁moisture	-13.2622
▁pshyc	-13.2622
▁amateur	-13.2622
▁sector	-13.2622
▁ridgid	-13.2622
▁pussies	-13.2622
▁adulterous	-13.2622
▁squirt	-13.2622
-&-	-13.2622
▁decorat	-13.2622
▁stroking	-13.2622
▁devious	-13.2622
▁designation	-13.2623
▁butch	-13.2623
▁chaeted	-13.2623
▁fittest	-13.2623
▁forbid	-13.2623
▁freckles	-13.2623
▁waterfront	-13.2623
▁bundy	-13.2623
▁definetely	-13.2623
▁separation	-13.2623
▁sauce	-13.2623
gratify	-13.2623
▁admirable	-13.2623
▁stoners	-13.2623
▁servant	-13.2623
▁transgender	-13.2623
▁unruly	-13.2623
▁safty	-13.2623
▁abbey	-13.2623
▁seafood	-13.2623
▁riddance	-13.2623
▁spotlight	-13.2623
▁doorstep	-13.2623
▁partener	-13.2623
▁butterfl	-13.2623
▁seattle	-13.2623
consolation	-13.2623
▁evrything	-13.2623
▁eternity	-13.2623
▁royalty	-13.2623
▁choise	-13.2623
▁conform	-13.2623
▁preparation	-13.2623
▁acutally	-13.2623
climate	-13.2623
▁micheal	-13.2623
▁exagerat	-13.2623
▁unfavorable	-13.2623
▁attainable	-13.2623
▁fireplace	-13.2623
▁hallway	-13.2623
▁shortcut	-13.2623
▁cavity	-13.2623
▁saggy	-13.2623
▁funeral	-13.2623
▁gaurd	-13.2623
▁personallity	-13.2623
▁relationshiop	-13.2624
▁midnight	-13.2624
▁altar	-13.2624
▁lonesome	-13.2624
▁uncaring	-13.2624
▁666	-13.2624
▁closure	-13.2624
▁retail	-13.2624
▁masterbating	-13.2624
▁moderation	-13.2624
▁fanatic	-13.2624
▁globe	-13.2624
▁18-20	-13.2624
▁congratulat	-13.2624
▁thief	-13.2624
▁occurence	-13.2624
▁bosom	-13.2624
▁ofcors	-13.2624
▁transition	-13.2624
▁uninteresting	-13.2624
▁speechless	-13.2624
▁norwalk	-13.2624
▁beatiful	-13.2624
▁unnatural	-13.2624
▁wierdos	-13.2624
▁freddy	-13.2625
▁tidy	-13.2625
▁hammer	-13.2625
▁jolly	-13.2625
▁recreation	-13.2625
▁seventies	-13.2625
▁stability	-13.2625
▁impatient	-13.2625
▁flute	-13.2625
▁vibrates	-13.2625
▁whiskey	-13.2625
▁beggin	-13.2625
stigate	-13.2625
▁blink	-13.2625
▁5'4	-13.2625
▁pretense	-13.2625
▁voting	-13.2625
▁aggravating	-13.2625
▁relocating	-13.2625
▁whiny	-13.2625
▁rogue	-13.2625
▁cocoa	-13.2626
▁percentage	-13.2626
fat	-13.2626
▁surfer	-13.2626
▁copulate	-13.2626
▁cybersex	-13.2626
▁introverted	-13.2626
▁commentment	-13.2626
▁foward	-13.2626
▁10,000	-13.2626
▁oooohh	-13.2626
▁rapist	-13.2626
▁deviant	-13.2626
▁deployed	-13.2626
▁virtue	-13.2627
quarters	-13.2627
▁daddies	-13.2627
▁endearing	-13.2627
▁provocatively	-13.2627
▁procession	-13.2627
wwii	-13.2627
▁abide	-13.2627
▁scrub	-13.2627
▁jokin	-13.2627
▁lobes	-13.2627
▁verb	-13.2627
▁activeness	-13.2627
▁flake	-13.2628
▁prompt	-13.2628
▁loca	-13.2628
▁region	-13.2628
▁campus	-13.2628
▁interesed	-13.2628
▁precaution	-13.2628
▁employee	-13.2628
▁islam	-13.2629
▁wicked	-13.2629
▁retrieve	-13.263
▁analogy	-13.263
▁peop	-13.263
▁derive	-13.263
▁foolishness	-13.263
▁vile	-13.263
▁worshipper	-13.263
▁menacing	-13.263
▁nervousness	-13.2631
▁permanently	-13.2631
▁cowardly	-13.2631
▁gaga	-13.2631
▁starved	-13.2631
▁honorable	-13.2631
▁astray	-13.2632
air	-13.2632
▁agenda	-13.2632
▁virgen	-13.2632
▁surprisingly	-13.2632
▁glasses	-13.2632
▁unexpectedly	-13.2633
▁scott	-13.2633
▁superstar	-13.2633
▁socio	-13.2634
▁bloke	-13.2634
▁stupi	-13.2634
05	-13.2634
▁maria	-13.2634
▁anoying	-13.2634
▁modesty	-13.2634
▁withdraw	-13.2635
▁puke	-13.2635
▁rental	-13.2635
cliff	-13.2635
▁supplies	-13.2635
▁flee	-13.2636
▁noisy	-13.2636
▁commence	-13.2636
▁dee	-13.2636
▁protest	-13.2636
▁institution	-13.2636
▁especial	-13.2637
▁expenses	-13.2637
04	-13.2637
▁pornstar	-13.2637
▁delighted	-13.2637
▁toughness	-13.2637
▁gambl	-13.2638
▁bowel	-13.2638
▁honour	-13.2638
miliar	-13.2638
▁oath	-13.2638
▁inquiries	-13.2638
▁affordable	-13.2638
▁backstabbing	-13.2638
▁presentation	-13.2639
▁differentiate	-13.2639
▁lesbo	-13.2639
▁scarce	-13.264
dependency	-13.264
▁gyno	-13.264
▁prying	-13.2641
▁impulses	-13.2641
▁spel	-13.2641
concession	-13.2641
▁realtions	-13.2641
▁wandering	-13.2641
▁bedsheets	-13.2641
▁homeschool	-13.2641
▁instructions	-13.2641
▁overrated	-13.2642
▁waterfall	-13.2642
▁enlighten	-13.2642
▁panty	-13.2642
▁noticable	-13.2642
▁embarress	-13.2643
▁happenned	-13.2643
▁quickest	-13.2643
▁cookies	-13.2643
stabbing	-13.2644
▁surrounding	-13.2644
▁stella	-13.2644
▁weakness	-13.2644
▁accurately	-13.2644
steve	-13.2644
▁outloud	-13.2645
5,000	-13.2647
▁movement	-13.2647
▁rigth	-13.2647
▁humiliated	-13.2648
▁lern	-13.2648
lousy	-13.2648
▁masterbate	-13.2648
▁drain	-13.2649
▁hookup	-13.2649
▁rocket	-13.2649
▁yonger	-13.2649
▁betrayal	-13.265
▁hilar	-13.265
▁repute	-13.265
▁thro	-13.265
▁chap	-13.2651
▁awareness	-13.2651
▁livin	-13.2651
▁permissi	-13.2651
▁remarrying	-13.2651
▁ditched	-13.2652
▁progresses	-13.2652
▁detest	-13.2652
▁fal	-13.2653
▁handcuff	-13.2653
▁psyche	-13.2653
&*	-13.2654
▁parkway	-13.2654
▁invad	-13.2655
▁badger	-13.2656
▁unus	-13.2657
▁grrs	-13.2657
▁earings	-13.2658
▁sooooooooo	-13.2658
▁tightly	-13.2659
▁stupidity	-13.2659
▁flashy	-13.266
▁chair	-13.266
▁professionally	-13.2661
▁quesion	-13.2662
▁distressing	-13.2662
▁stereotyped	-13.2663
▁involove	-13.2663
▁belonging	-13.2663
▁leary	-13.2663
▁boned	-13.2664
▁contry	-13.2665
▁playfully	-13.2665
▁sq	-13.2665
▁dries	-13.2666
▁market	-13.2666
▁gary	-13.2666
▁peeve	-13.2667
▁indecent	-13.2667
grin	-13.2667
▁surf	-13.2667
▁coff	-13.2667
▁cmon	-13.2667
▁justified	-13.2668
▁subjet	-13.2668
▁filmed	-13.2669
▁rig	-13.2669
▁fence	-13.2669
▁insulted	-13.267
▁biz	-13.267
▁enthusiast	-13.267
▁disrespected	-13.267
staff	-13.2671
▁ghosts	-13.2673
▁eyeballs	-13.2673
.....!!!!!!	-13.2673
▁boogers	-13.2673
▁boobies	-13.2674
▁resteraunts	-13.2674
▁electronics	-13.2674
▁measurements	-13.2674
▁smother	-13.2674
▁tissue	-13.2674
▁msg	-13.2675
▁quetion	-13.2675
▁treasured	-13.2677
▁blatant	-13.2677
mela	-13.268
ficient	-13.268
ging	-13.268
▁crock	-13.2681
▁knead	-13.2681
▁abstinen	-13.2681
▁gathering	-13.2682
▁jose	-13.2683
▁linens	-13.2684
▁masks	-13.2684
▁repaired	-13.2686
▁singer	-13.2686
▁succeeded	-13.2687
▁disrupt	-13.2687
▁avail	-13.2687
▁intellegen	-13.2688
▁recovery	-13.2688
▁washed	-13.2688
▁blade	-13.2689
▁arbit	-13.2689
▁premi	-13.2689
▁kyle	-13.2691
isco	-13.2691
▁coures	-13.2691
▁reversed	-13.2692
▁fucker	-13.2693
▁rupe	-13.2693
▁voluntar	-13.2693
▁boxes	-13.2693
▁delaying	-13.2694
▁innocently	-13.2694
▁fwd	-13.2694
▁collecting	-13.2694
▁niether	-13.2695
▁exchanged	-13.2695
▁pointers	-13.2695
▁suffice	-13.2695
▁bullsh	-13.2695
sort	-13.2696
lke	-13.2696
▁iceman	-13.2696
▁merit	-13.2697
▁trustful	-13.2697
urban	-13.2698
▁vanessa	-13.2698
▁shainne	-13.2698
▁lazarus	-13.2698
▁caroline	-13.2698
▁badboys	-13.2698
▁monogamy	-13.2698
▁louisiana	-13.2698
▁nevertheless	-13.2699
▁rugged	-13.2699
▁breats	-13.2699
▁daycare	-13.2699
▁cosmopolitan	-13.27
dominant	-13.2701
▁confession	-13.2702
▁bingo	-13.2704
▁scam	-13.2704
▁knots	-13.2704
▁transpires	-13.2707
▁yuk	-13.2707
▁wheelchairs	-13.2708
▁bearable	-13.2708
▁overeating	-13.2708
▁triple	-13.2708
▁judgemental	-13.2708
rates	-13.2708
▁follw	-13.2709
▁jokingly	-13.2709
▁bootie	-13.2709
▁richard	-13.271
▁consenting	-13.271
▁organize	-13.2712
▁superman	-13.2712
▁minus	-13.2715
▁indiana	-13.2715
▁diddy	-13.2716
urally	-13.2716
▁capture	-13.2716
▁chain	-13.2718
▁luke	-13.272
▁terror	-13.2721
▁els	-13.2721
▁noodle	-13.2721
▁freakgirl	-13.2721
▁whispering	-13.2723
▁swat	-13.2723
▁enable	-13.2724
▁cues	-13.2725
ketch	-13.2725
▁shifts	-13.2725
▁drivers	-13.2727
▁dragon	-13.2727
▁fright	-13.2727
▁universal	-13.2727
▁loner	-13.2728
▁crazies	-13.2729
▁cloths	-13.273
▁sanct	-13.273
▁fella	-13.273
▁rebels	-13.2732
▁aaron	-13.2732
▁exboyfriend	-13.2733
▁missour	-13.2734
▁abuser	-13.2734
▁meek	-13.2735
▁inherent	-13.2735
▁mistak	-13.2735
▁diserve	-13.2736
▁costly	-13.2738
▁priests	-13.2738
▁peanuts	-13.274
▁blowin	-13.2742
▁recip	-13.2742
▁appropriately	-13.2743
▁attach	-13.2744
sane	-13.2744
▁approxim	-13.2745
ea	-13.2746
▁resolv	-13.2748
▁cal	-13.2752
▁roughly	-13.2754
▁belch	-13.2756
▁separately	-13.2756
▁layed	-13.2758
▁updated	-13.2759
▁moil	-13.2759
▁jim	-13.2759
▁spl	-13.2759
▁complaints	-13.2762
▁fetishis	-13.2763
▁sunny	-13.2763
▁cavem	-13.2764
▁mankind	-13.2765
▁genuin	-13.2766
▁accost	-13.2767
▁churches	-13.2769
fty	-13.2771
▁valle	-13.2774
shucks	-13.2775
cant	-13.2775
▁chess	-13.2777
▁guns	-13.2779
▁cooperat	-13.278
▁snook	-13.278
▁titani	-13.278
▁someplace	-13.2782
affle	-13.2783
▁couns	-13.2783
▁fixer	-13.2784
▁viole	-13.279
▁cling	-13.279
▁damned	-13.2791
▁tipsy	-13.2793
▁asset	-13.2793
▁crew	-13.2795
▁disconnect	-13.2796
▁frogs	-13.2796
onza	-13.2797
▁supp	-13.2797
▁haters	-13.2799
▁por	-13.2799
▁sweaty	-13.28
▁traditions	-13.2802
lthy	-13.2802
▁conju	-13.2804
▁intrud	-13.2806
▁probob	-13.2806
▁haz	-13.2806
▁adolescents	-13.2806
vous	-13.2806
▁cameras	-13.2807
▁reliz	-13.2809
▁nye	-13.281
▁quickies	-13.2811
▁clearer	-13.2813
▁breeze	-13.2814
▁applying	-13.2814
▁tinker	-13.2816
▁athlete	-13.2816
bsi	-13.2817
▁entangle	-13.2818
▁fragment	-13.2818
▁mission	-13.2818
▁blush	-13.2818
▁;-	-13.2819
fied	-13.2819
▁vigin	-13.2822
▁tricky	-13.2822
kn	-13.2824
ebs	-13.2825
▁omit	-13.2828
▁breather	-13.2833
▁hom	-13.2834
▁weirdos	-13.2835
▁feathers	-13.2835
imme	-13.2837
▁growth	-13.284
▁25-	-13.2841
▁experinc	-13.2841
▁forgets	-13.2841
▁descriptions	-13.2842
▁amused	-13.2843
▁addictions	-13.2843
▁girlfri	-13.2843
▁downloads	-13.2843
▁ticking	-13.2844
▁margar	-13.2851
racket	-13.2851
onous	-13.2852
show	-13.2854
cover	-13.2856
▁approved	-13.2857
▁nec	-13.2858
▁foundations	-13.2858
▁careless	-13.2861
▁hitch	-13.2863
▁novels	-13.2866
▁thre	-13.2867
▁persona	-13.2868
▁mcdonalds	-13.287
▁familiarize	-13.287
uish	-13.2872
▁nicknames	-13.2876
▁strait	-13.2878
▁eighty	-13.2884
▁goggle	-13.2885
▁huni	-13.2887
▁rod	-13.2889
▁intere	-13.2891
▁allready	-13.2891
▁understandable	-13.2893
▁2006?	-13.2893
▁internal	-13.2893
▁babie	-13.2894
▁thrills	-13.2896
▁cleared	-13.2897
bleh	-13.2899
▁pinky	-13.2903
▁intensif	-13.2905
▁europeans	-13.2909
▁scenarios	-13.291
▁richie	-13.291
▁deff	-13.291
▁despair	-13.2912
acy	-13.2913
▁chach	-13.2916
▁preps	-13.2916
▁housekeep	-13.2919
▁finalize	-13.292
erate	-13.2921
▁jd	-13.2922
▁fone	-13.2929
▁studs	-13.293
▁6:	-13.2931
▁errors	-13.2931
▁pms	-13.2931
▁commend	-13.2932
▁dumber	-13.2934
▁woods	-13.2935
▁verizon	-13.294
▁seats	-13.2942
10)	-13.2942
▁awe	-13.2942
▁magnet	-13.2942
▁interactions	-13.2946
hor	-13.2947
▁hasty	-13.2947
▁dud	-13.2947
▁deciev	-13.2948
▁quest	-13.2948
▁opener	-13.295
tiful	-13.295
▁obt	-13.2958
mew	-13.296
▁seclude	-13.2964
▁spirits	-13.2964
jud	-13.2965
▁bon	-13.2966
▁wht	-13.2967
▁intrests	-13.2967
▁ben	-13.297
▁beloved	-13.2973
▁personalize	-13.2977
▁gems	-13.2981
vada	-13.2984
▁lovingly	-13.2994
▁pitts	-13.2995
uge	-13.3
attracted	-13.3002
▁appea	-13.3002
▁mormon	-13.3003
udge	-13.3003
▁utmos	-13.3003
▁repond	-13.301
▁washy	-13.3014
opped	-13.3018
ioned	-13.3018
ppears	-13.3023
▁discus	-13.3025
▁seeming	-13.3029
▁28-3	-13.3036
sutra	-13.3039
▁obvios	-13.304
ali	-13.3048
▁dwe	-13.3055
ety	-13.3055
▁looser	-13.3055
▁explains	-13.3055
▁drums	-13.3056
▁overtime	-13.3059
▁sources	-13.3059
▁5:	-13.3059
▁benn	-13.3059
▁swings	-13.306
ghett	-13.3062
▁coner	-13.3067
husbands	-13.3068
▁mmmmm	-13.3069
▁fishy	-13.3071
▁fruits	-13.3072
▁411	-13.3075
▁bounds	-13.3075
▁traction	-13.3078
▁clam	-13.3079
uties	-13.3088
▁cali	-13.3089
▁bulls	-13.3091
terior	-13.3091
fro	-13.3095
▁jun	-13.3097
ripping	-13.3099
▁swam	-13.3103
▁swee	-13.3106
▁bangs	-13.3107
▁circles	-13.3114
▁assaults	-13.3114
▁pleases	-13.3119
▁likin	-13.3122
▁pens	-13.3138
▁mill	-13.3138
▁penitrate	-13.3146
▁vise	-13.3146
erial	-13.3148
▁sucess	-13.3148
aft	-13.3151
noring	-13.3151
ms	-13.3152
corpora	-13.3154
▁wom	-13.3156
▁ridicule	-13.3156
▁serous	-13.3165
▁wiser	-13.3169
▁thereafter	-13.3171
sided	-13.3171
306	-13.3175
▁emerge	-13.3176
mph	-13.3177
ealous	-13.3178
▁felling	-13.3181
▁cracks	-13.3182
▁brid	-13.3186
▁compli	-13.3186
enter	-13.3194
threeplay	-13.3196
price	-13.32
cu	-13.3202
▁lad	-13.3203
▁nuzzle	-13.3204
▁aff	-13.3207
▁wonderin	-13.3211
▁beautifull	-13.3214
apped	-13.3215
▁outfits	-13.3225
▁beautifully	-13.3226
▁horses	-13.323
▁coloring	-13.3232
unge	-13.3241
▁peom	-13.3243
thinks	-13.3245
▁picnics	-13.325
▁formula	-13.3254
▁braini	-13.3255
▁leak	-13.3263
hol	-13.3263
▁childrens	-13.3266
▁jar	-13.3267
▁willingly	-13.3268
▁seeds	-13.3272
sist	-13.329
sms	-13.3292
mmi	-13.3298
▁forgetting	-13.3298
▁simp	-13.3299
▁disco	-13.33
▁kings	-13.3301
▁reminder	-13.3306
▁curse	-13.3308
▁inflat	-13.3311
▁aggravate	-13.3314
▁mommas	-13.3314
▁therfor	-13.3318
ization	-13.3323
.02	-13.3324
▁driver	-13.3326
inal	-13.3328
ipol	-13.3328
igma	-13.3328
▁dys	-13.3336
▁waits	-13.3336
▁lang	-13.334
▁reader	-13.3342
▁joyful	-13.3346
runk	-13.335
▁obses	-13.3358
ull	-13.3363
▁development	-13.3379
▁annual	-13.3387
▁hostil	-13.3396
▁adv	-13.3399
▁oooo	-13.3402
era	-13.3404
mmmmm	-13.3412
cho	-13.3413
▁godly	-13.3425
gus	-13.3426
▁bck	-13.343
izes	-13.3451
ringing	-13.3456
▁griev	-13.3456
▁inde	-13.3458
sual	-13.3461
ild	-13.3462
▁walkin	-13.3465
▁deer	-13.3483
trick	-13.3486
??!!!	-13.3494
?!?!?!?!?!?!	-13.3496
hahahahha	-13.3499
hs	-13.3499
▁allright	-13.3504
▁strik	-13.3512
rift	-13.3514
▁boar	-13.3515
bony	-13.3522
een	-13.3523
hem	-13.3527
▁rates	-13.3532
▁burr	-13.3533
▁partak	-13.3541
▁dicks	-13.3542
▁appel	-13.3544
reach	-13.3548
ars	-13.3557
cky	-13.3559
▁papers	-13.3559
▁blacks	-13.3561
▁robb	-13.3562
sions	-13.3563
▁solutions	-13.3568
▁frustrati	-13.3568
lous	-13.3576
▁donno	-13.3577
▁seam	-13.3578
▁sadis	-13.3578
▁fumbl	-13.3579
68	-13.358
▁wright	-13.3581
▁vas	-13.3585
▁nagg	-13.3588
▁adaman	-13.3589
▁snowb	-13.3589
kid	-13.3591
()	-13.3599
rk	-13.3612
▁checks	-13.3618
▁convert	-13.3619
▁6.	-13.3619
▁ph	-13.3623
▁troubled	-13.3626
▁strat	-13.3634
▁whil	-13.3634
▁lib	-13.3638
▁bling	-13.364
▁award	-13.3657
▁neon	-13.3667
aaaa	-13.3667
rence	-13.3667
▁dissapointme	-13.3677
uring	-13.3679
unk	-13.3683
nes	-13.369
▁lez	-13.3695
iding	-13.3698
??!!	-13.3706
▁gental	-13.3707
ester	-13.371
mpan	-13.3711
▁loses	-13.3718
ral	-13.3728
,(	-13.3731
eaching	-13.3731
times	-13.3734
▁sensibilit	-13.3735
▁striv	-13.3735
▁molest	-13.3741
ople	-13.3744
iting	-13.3747
▁accessori	-13.375
0-30	-13.3757
▁snugg	-13.3761
▁sweats	-13.3767
queen	-13.3777
▁barb	-13.3789
▁pleasent	-13.3791
▁design	-13.38
▁eng	-13.3802
2)	-13.3804
mean	-13.3806
rian	-13.3809
▁deploy	-13.381
▁exacerbate	-13.3814
erotica	-13.3815
mine	-13.3823
▁impo	-13.3837
▁cad	-13.3842
ren	-13.3851
gg	-13.3857
ui	-13.3857
▁teache	-13.3864
▁eman	-13.387
▁versions	-13.3874
▁newly	-13.3886
rove	-13.3886
▁trif	-13.3888
▁actin	-13.3889
▁sang	-13.3889
▁ours	-13.3891
eal	-13.3894
rous	-13.3902
▁roads	-13.3904
▁blo	-13.3905
▁official	-13.3911
▁responsibl	-13.3915
▁ris	-13.3917
▁temp	-13.3918
▁careers	-13.392
timer	-13.3932
ind	-13.395
▁aslo	-13.396
▁sadde	-13.3967
▁masterb	-13.3968
ique	-13.3974
▁highs	-13.3975
▁sought	-13.3984
uff	-13.3994
▁manipulati	-13.3995
▁showin	-13.3996
▁remedie	-13.3997
urse	-13.3997
▁shay	-13.3998
sight	-13.4004
▁46.	-13.4009
ummm	-13.4017
▁hoot	-13.4025
ppose	-13.4025
▁cia	-13.4032
▁ez	-13.4039
▁av	-13.405
ens	-13.4052
tan	-13.4053
itory	-13.4056
▁render	-13.4057
ema	-13.4071
guar	-13.4085
▁proposes	-13.4089
scription	-13.4091
story	-13.4092
ich	-13.41
▁13...	-13.4104
scard	-13.4111
▁everone	-13.4124
ience	-13.4124
pears	-13.4146
avage	-13.4148
torical	-13.4149
▁sided	-13.4155
▁cri	-13.416
▁courses	-13.4165
hmmmmmmmmmm	-13.4169
▁bake	-13.417
▁repel	-13.4171
train	-13.4172
▁rom	-13.419
rgic	-13.419
▁pred	-13.4192
ication	-13.4197
▁stong	-13.4197
loy	-13.4203
▁cakes	-13.4204
rturing	-13.4215
▁vd	-13.4217
inning	-13.4217
▁reminisce	-13.422
▁glor	-13.422
▁flo	-13.4262
▁buz	-13.4264
▁31.	-13.4265
▁cater	-13.4269
▁bio	-13.4273
llible	-13.4289
hitch	-13.4291
▁divorces	-13.4298
▁tower	-13.4304
▁6'	-13.4308
▁cata	-13.4308
▁nas	-13.4314
▁starter	-13.4314
oin	-13.4318
▁bor	-13.4323
▁gamble	-13.4328
nie	-13.435
▁specifi	-13.4351
close	-13.4353
▁diffent	-13.4375
igress	-13.4379
cc	-13.4401
och	-13.4416
pts	-13.442
▁wast	-13.4423
div	-13.443
▁butter	-13.4431
▁att	-13.4432
▁ypu	-13.4436
▁cru	-13.4438
cious	-13.4439
ges	-13.444
ri	-13.4455
▁mast	-13.4463
ru	-13.4468
mmed	-13.447
▁doe	-13.4474
cast	-13.4474
▁extrem	-13.4482
▁rapper	-13.4488
ement	-13.4503
▁lou	-13.4512
▁bend	-13.4518
▁flight	-13.4525
ionship	-13.4528
▁plent	-13.454
▁barbe	-13.4568
pil	-13.458
ncie	-13.4583
nty	-13.4589
vic	-13.4589
(6)	-13.4592
ox	-13.4614
▁honst	-13.4614
▁!!!!!	-13.4634
▁imm	-13.4648
angri	-13.4652
doesn	-13.4659
ourself	-13.4662
▁recom	-13.4664
▁levi	-13.4667
▁pause	-13.4667
pping	-13.4674
▁absolut	-13.4678
▁bod	-13.4695
ching	-13.4704
lled	-13.4705
rol	-13.4715
▁endless	-13.4724
...1	-13.4725
▁iv	-13.4753
burner	-13.4754
xy	-13.4756
▁eff	-13.4766
▁patro	-13.4787
▁allot	-13.481
▁whenev	-13.4811
tary	-13.4816
roller	-13.4839
else	-13.4846
▁gettig	-13.4848
irs	-13.485
tionship	-13.4852
▁viol	-13.4854
▁prim	-13.4858
flower	-13.4863
before	-13.4872
che	-13.4876
eak	-13.489
portent	-13.4891
▁expend	-13.4892
itely	-13.4894
wo	-13.4899
aches	-13.4909
defile	-13.492
field	-13.4922
rest	-13.4924
ung	-13.4934
east	-13.4935
▁practices	-13.4935
?-	-13.4941
▁gush	-13.4948
another	-13.495
▁absen	-13.4955
▁atla	-13.4965
rou	-13.4982
ered	-13.4989
▁sugest	-13.4991
▁dre	-13.4997
▁les	-13.4998
lan	-13.4998
ammy	-13.5003
ired	-13.5005
▁conf	-13.5007
rial	-13.501
said	-13.5016
▁whack	-13.5017
ltitude	-13.5025
pole	-13.5026
▁cloth	-13.5036
amore	-13.5037
▁listing	-13.5047
ond	-13.5051
threatening	-13.5058
liness	-13.5061
reating	-13.507
▁aroun	-13.5074
range	-13.5076
▁rein	-13.5077
▁porte	-13.5089
hal	-13.5091
productive	-13.5093
dise	-13.5105
!?!	-13.5106
▁tests	-13.5119
flags	-13.5125
ev	-13.5137
▁rut	-13.5137
▁poli	-13.514
▁judges	-13.5143
▁ohhhh	-13.5149
ade	-13.5158
nothing	-13.5158
theres	-13.5166
▁ide	-13.5175
▁15...	-13.522
▁mmmmmm	-13.5224
▁tense	-13.5229
baca	-13.5232
▁persu	-13.5241
▁betta	-13.5244
▁lash	-13.5246
wed	-13.5249
▁mari	-13.5256
ider	-13.5263
letly	-13.5266
different	-13.5271
-20	-13.5276
▁peo	-13.5278
water	-13.5279
▁............	-13.5284
rive	-13.5296
▁wire	-13.5305
dia	-13.5307
erous	-13.5313
▁expe	-13.532
using	-13.5333
gon	-13.5338
▁thx	-13.5343
cus	-13.5344
rse	-13.5347
rete	-13.5354
▁visa	-13.5361
▁possesi	-13.5374
estic	-13.5378
▁18!	-13.5378
uce	-13.5382
rn	-13.5388
njoy	-13.5392
▁exit	-13.5402
rrrrrrr	-13.5405
▁patio	-13.5405
▁bur	-13.5415
zzy	-13.542
▁compa	-13.5426
feelings	-13.5436
▁bung	-13.5439
??????????????	-13.5445
orth	-13.5445
cas	-13.545
anyone	-13.5458
▁vo	-13.5464
▁command	-13.5469
serve	-13.5478
ckin	-13.5481
▁expier	-13.5481
▁trul	-13.5482
▁ton	-13.5491
zie	-13.5496
etary	-13.5503
ces	-13.5504
qui	-13.5514
stream	-13.5537
gic	-13.5539
gaze	-13.5546
eck	-13.5551
▁ken	-13.5555
likes	-13.556
dating	-13.5569
▁bee	-13.5575
eled	-13.5576
cannot	-13.5577
ient	-13.5578
ame	-13.5581
▁prophe	-13.5586
▁avi	-13.5587
▁impos	-13.5588
▁probe	-13.5601
rfect	-13.5602
▁kit	-13.5609
nebr	-13.5616
▁attr	-13.5618
ava	-13.5619
▁childer	-13.562
vi	-13.5649
▁plaes	-13.5656
▁meds	-13.5661
▁cron	-13.5667
▁sox	-13.5685
▁gar	-13.5686
▁levit	-13.5686
▁vis	-13.569
tions	-13.5691
▁peron	-13.5692
4)	-13.5711
rents	-13.5712
spend	-13.5714
▁dro	-13.5732
talking	-13.5733
sta	-13.5733
must	-13.5736
sult	-13.5736
▁subscri	-13.5741
▁wri	-13.5744
▁gerbe	-13.5763
nship	-13.5766
▁shrug	-13.577
bles	-13.5782
▁1..	-13.5783
aste	-13.5785
agging	-13.579
30	-13.5798
ane	-13.5801
oooo	-13.5802
▁ner	-13.5823
▁swell	-13.5823
▁anny	-13.5836
▁aw	-13.5841
naly	-13.5854
▁dev	-13.5855
others	-13.5871
ab	-13.5872
least	-13.5873
▁puffe	-13.5879
ootch	-13.5886
▁arou	-13.5887
▁personne	-13.5888
ws	-13.5891
????????????	-13.5901
mping	-13.591
▁exacerbat	-13.5933
▁heave	-13.5941
ven	-13.5942
turb	-13.5943
single	-13.5947
become	-13.5954
▁proceeds	-13.596
volved	-13.5984
snt	-13.5989
rity	-13.5998
new	-13.5999
▁overload	-13.6012
apro	-13.6014
lacks	-13.6029
hhhhhhhhhhhhhhh	-13.603
▁seed	-13.6032
everyone	-13.6041
trying	-13.6043
thinking	-13.6054
rea	-13.606
family	-13.6062
ooo	-13.6064
shi	-13.6065
▁moo	-13.6071
▁possib	-13.6082
▁associat	-13.609
▁dissapoint	-13.6097
actually	-13.6099
illies	-13.6101
▁someth	-13.6101
bz	-13.6117
▁hel	-13.6118
acially	-13.6137
wouldn	-13.6138
cks	-13.6139
▁scro	-13.6141
home	-13.6146
rm	-13.6149
po	-13.6156
found	-13.616
bed	-13.6162
▁pleaser	-13.6167
▁trill	-13.6169
rect	-13.6171
bbie	-13.6177
▁devo	-13.6185
aime	-13.6202
crumb	-13.6209
atching	-13.6209
▁lackl	-13.621
▁loathes	-13.6214
▁disp	-13.6214
▁xxxx	-13.6214
tract	-13.6216
▁sor	-13.6219
ism	-13.6227
▁sampl	-13.6247
sses	-13.625
▁flex	-13.6258
hin	-13.6264
▁await	-13.6265
▁fave	-13.6283
▁ms	-13.6285
saying	-13.6294
finest	-13.6295
▁sac	-13.6296
▁lifes	-13.6296
dly	-13.6298
▁contradict	-13.6301
onversationalist	-13.6302
inky	-13.6303
next	-13.6304
iling	-13.6306
ju	-13.6313
▁nooooo	-13.6315
▁inward	-13.6316
▁seas	-13.6336
▁defi	-13.6336
angle	-13.6337
experience	-13.635
prits	-13.6351
bar	-13.6351
hamed	-13.6352
▁ram	-13.6356
▁supervis	-13.6363
▁fund	-13.6372
▁communicat	-13.6378
alize	-13.638
▁hidd	-13.6383
gue	-13.6386
between	-13.6391
▁clar	-13.6396
vity	-13.6403
▁pregne	-13.6403
▁bas	-13.6405
enght	-13.6408
esting	-13.6413
▁stray	-13.6418
▁visi	-13.6423
▁alw	-13.6442
??????????	-13.6447
feeling	-13.645
high	-13.6454
ducing	-13.6455
iddle	-13.6468
ets	-13.6471
▁bros	-13.6481
xie	-13.6487
▁repect	-13.6491
pre	-13.6495
rly	-13.6507
vice	-13.6508
cups	-13.6511
▁emit	-13.6526
mashed	-13.6529
▁sens	-13.6533
▁ethic	-13.6534
empt	-13.6535
heck	-13.6536
cient	-13.6548
▁ax	-13.655
words	-13.6565
attention	-13.6566
taking	-13.6567
personality	-13.6575
similar	-13.6577
▁increas	-13.6585
ather	-13.6593
aving	-13.6611
happened	-13.6615
▁col	-13.6615
00,000	-13.6618
nly	-13.6621
online	-13.6628
▁tattoo	-13.664
cared	-13.6641
▁nudi	-13.6643
shop	-13.6646
▁bre	-13.6651
▁beacu	-13.6653
laugh	-13.6659
▁subconsci	-13.6664
▁advanc	-13.6665
▁ughh	-13.6674
▁suppos	-13.668
rope	-13.6682
sie	-13.6687
▁flippin	-13.6694
rick	-13.6696
oral	-13.67
key	-13.67
▁mmmmmmm	-13.6709
brother	-13.6709
iacs	-13.6712
acked	-13.6721
broke	-13.6725
rance	-13.6726
mmm	-13.6728
▁kin	-13.6746
▁comedi	-13.6752
rap	-13.6756
yness	-13.6758
▁orienta	-13.6758
job	-13.676
rily	-13.6769
,,	-13.677
▁gena	-13.6773
▁boom	-13.6775
▁ventur	-13.6776
ude	-13.6776
▁emerg	-13.6777
▁pres	-13.6779
▁righ	-13.6785
soon	-13.6796
cce	-13.68
cross	-13.68
▁spons	-13.68
▁eny	-13.6802
▁pri	-13.6812
▁believer	-13.6815
ides	-13.6818
hanging	-13.682
themselves	-13.6829
bring	-13.6831
bl	-13.6846
space	-13.6851
▁sticks	-13.6857
oes	-13.686
hting	-13.6861
interest	-13.6876
oung	-13.6885
curl	-13.6889
ric	-13.6893
mation	-13.6896
lize	-13.6899
plenty	-13.6904
shes	-13.6905
▁gene	-13.6905
freak	-13.6909
ahead	-13.691
ale	-13.6911
▁duz	-13.6911
mish	-13.6918
ladies	-13.6925
idal	-13.6935
lasting	-13.6938
sir	-13.6938
▁blu	-13.6938
crush	-13.695
physical	-13.6957
strange	-13.6977
ctum	-13.6978
▁conv	-13.6984
▁plea	-13.6986
ples	-13.6988
umble	-13.6992
macy	-13.6995
females	-13.6995
nally	-13.6997
sensitive	-13.6998
form	-13.6999
fool	-13.7011
fight	-13.7014
raz	-13.7019
alright	-13.702
finally	-13.7026
ult	-13.7026
▁anew	-13.7028
gave	-13.7032
daughter	-13.7032
visit	-13.7034
rican	-13.7039
month	-13.7045
▁kent	-13.705
▁surviv	-13.7053
nnais	-13.7056
▁reap	-13.7056
▁apologiz	-13.7058
haven	-13.7062
rodis	-13.7069
lesbian	-13.7072
amb	-13.7079
pleasure	-13.708
▁politic	-13.708
worked	-13.7082
legal	-13.7082
▁pea	-13.7088
actions	-13.7095
class	-13.7095
arr	-13.7101
coffee	-13.7101
ania	-13.7102
boring	-13.7105
handle	-13.7111
lunch	-13.7113
▁conce	-13.7113
▁ty	-13.7118
▁ident	-13.7122
▁cruz	-13.7124
interesting	-13.7126
obvious	-13.7131
lked	-13.7134
▁trac	-13.7135
▁hilt	-13.7135
fistic	-13.7141
music	-13.7141
▁pruden	-13.7154
peat	-13.7158
▁reassur	-13.7162
fault	-13.7163
bein	-13.7165
▁criti	-13.7167
allow	-13.7169
middle	-13.7169
hopefully	-13.717
jus	-13.7177
▁psyc	-13.7178
cough	-13.718
▁concent	-13.718
▁leav	-13.7184
herself	-13.7189
third	-13.7191
power	-13.7192
astic	-13.7195
▁wack	-13.7197
shrug	-13.7198
▁spic	-13.7203
aw	-13.7204
rock	-13.7204
mix	-13.7207
▁timer	-13.7208
floss	-13.7208
pink	-13.7212
olici	-13.7214
arly	-13.7215
satisfied	-13.7217
mental	-13.7218
▁depo	-13.7218
disgusting	-13.722
helpful	-13.7222
lov	-13.7224
cer	-13.7225
phil	-13.7225
pics	-13.7229
topic	-13.723
shoes	-13.7231
legs	-13.7233
social	-13.7233
warf	-13.7234
private	-13.7236
slowly	-13.7238
▁uhhhh	-13.7248
horny	-13.725
▁muc	-13.7251
peace	-13.7252
▁explo	-13.7253
adore	-13.7254
▁lettin	-13.7255
belive	-13.7257
including	-13.7257
▁tempora	-13.726
hands	-13.726
??!	-13.7261
▁persuad	-13.7261
burn	-13.7262
mark	-13.7265
tomorrow	-13.7266
familiar	-13.7266
nope	-13.7267
▁mani	-13.7271
closer	-13.7272
cry	-13.7272
touching	-13.7273
▁hype	-13.7274
feet	-13.7274
pop	-13.7276
slow	-13.7279
▁atv	-13.728
******	-13.728
childish	-13.7283
powder	-13.7283
fellow	-13.7284
punk	-13.7285
sarcasm	-13.7285
strangers	-13.7287
cutie	-13.7292
▁juic	-13.7292
polish	-13.7292
wat	-13.7294
perverted	-13.7294
seek	-13.7296
▁inte	-13.7296
aggressive	-13.7297
▁soem	-13.7298
heaven	-13.7298
function	-13.7299
btw	-13.73
icky	-13.7301
communicating	-13.7303
▁effi	-13.7304
switch	-13.7304
geek	-13.7305
butterflies	-13.7307
clitoris	-13.7309
fragment	-13.731
adventure	-13.731
stereo	-13.731
mcdonalds	-13.731
olio	-13.7312
amble	-13.7312
banks	-13.7312
85	-13.7312
balance	-13.7312
roommate	-13.7313
crime	-13.7314
fruit	-13.7314
candles	-13.7315
scratch	-13.7316
breeze	-13.7316
paid	-13.7316
claim	-13.7317
elope	-13.7317
soccer	-13.7317
laughing	-13.7318
consuming	-13.7319
tinker	-13.7319
sensation	-13.7322
mexican	-13.7322
grateful	-13.7322
▁extract	-13.7323
materialistic	-13.7323
expert	-13.7324
master	-13.7324
chatroom	-13.7326
tramar	-13.7326
pamper	-13.7327
thousand	-13.7327
chicago	-13.7327
dogg	-13.7327
nipples	-13.7328
clever	-13.7328
estimate	-13.733
avenue	-13.7331
fulfilling	-13.7331
sixty	-13.7333
▁stall	-13.7334
jeez	-13.7335
monster	-13.7335
▁flab	-13.7335
loop	-13.7337
eeks	-13.7337
?'	-13.7337
sheep	-13.7338
slim	-13.7338
ciara	-13.7339
behaved	-13.734
glue	-13.7341
advised	-13.7341
stated	-13.7341
usting	-13.7341
verbal	-13.7342
burger	-13.7344
▁genui	-13.7345
▁audi	-13.7345
lmao	-13.7346
thanx	-13.7347
dear	-13.7348
weekly	-13.7348
uldnt	-13.735
param	-13.7351
heels	-13.7352
related	-13.7354
hahaha	-13.7355
fourth	-13.7357
▁confus	-13.7358
bff	-13.7359
▁resembl	-13.7359
pimp	-13.736
cops	-13.736
tomboy	-13.7361
▁quand	-13.7361
girlz	-13.7363
hhhh	-13.7363
42	-13.7363
tox	-13.7364
uhh	-13.7365
image	-13.7365
flattering	-13.7365
▁nev	-13.7366
picked	-13.7366
temporary	-13.7369
pity	-13.7371
rubs	-13.7374
mayb	-13.7374
directly	-13.7375
lopez	-13.7376
urge	-13.7379
▁cooper	-13.7379
loud	-13.7381
spect	-13.7382
▁significan	-13.7383
▁dustin	-13.7384
slut	-13.739
▁pregn	-13.7391
▁rectif	-13.7392
shape	-13.7393
▁blab	-13.7393
anyways	-13.7396
▁lif	-13.7396
scene	-13.7396
trash	-13.7399
arter	-13.7401
weeks	-13.7402
mb	-13.7402
section	-13.7406
(5	-13.7407
moon	-13.7408
shake	-13.7408
dick	-13.7408
▁choos	-13.7409
▁shi	-13.7412
par	-13.7412
eye	-13.7413
▁drip	-13.7414
ppo	-13.7414
tips	-13.7417
paths	-13.7417
▁pictur	-13.7418
▁tal	-13.7418
▁superb	-13.7419
sted	-13.742
nything	-13.7421
loc	-13.7422
regular	-13.7427
vie	-13.7429
▁rou	-13.743
strict	-13.7432
locks	-13.7432
liked	-13.7433
▁electr	-13.7433
atively	-13.7435
▁broad	-13.7436
spoon	-13.7436
▁disap	-13.7436
pect	-13.7437
strings	-13.7439
▁spi	-13.7439
lookin	-13.7441
▁shou	-13.7443
gently	-13.7443
▁heated	-13.7447
▁sadi	-13.7449
▁vib	-13.7451
▁divor	-13.7458
tant	-13.7461
▁bali	-13.7463
nge	-13.7464
dork	-13.7472
medic	-13.7478
tiger	-13.748
nurse	-13.7483
▁prof	-13.7486
▁purpos	-13.7486
82	-13.7491
▁grad	-13.7492
layer	-13.7493
▁invol	-13.7496
▁hooo	-13.7498
cost	-13.7499
▁whoa	-13.75
?..	-13.75
boats	-13.75
▁sprin	-13.75
▁pregan	-13.7506
▁wou	-13.7506
grown	-13.7507
bow	-13.7508
3,	-13.751
trospect	-13.7513
idk	-13.7513
▁femal	-13.7515
▁congrat	-13.752
▁restle	-13.7522
dudes	-13.7523
▁prefr	-13.7524
cee	-13.7525
?!?!?!?!?	-13.753
▁motorcycle	-13.753
▁cosmetic	-13.753
▁disturbance	-13.753
▁pumpkin	-13.7531
▁entail	-13.7531
playa	-13.7532
▁benifit	-13.7533
▁encourag	-13.7535
okie	-13.7536
perous	-13.7538
▁electronic	-13.7538
▁resteraunt	-13.7538
▁floo	-13.7539
▁ghost	-13.754
▁booger	-13.754
▁budge	-13.754
▁measurement	-13.754
▁somethi	-13.7541
▁boobie	-13.7544
▁republican	-13.7544
lease	-13.7544
▁mcdonald	-13.7545
▁gadget	-13.7547
▁eyeball	-13.7547
▁personalitie	-13.7548
▁reput	-13.755
formation	-13.7551
▁highlight	-13.7553
▁brothel	-13.7556
▁snee	-13.7557
▁finance	-13.7559
▁fiends	-13.7559
24-	-13.7562
tually	-13.7563
▁spur	-13.7569
nize	-13.7569
chic	-13.7569
ocate	-13.7571
chan	-13.7574
bear	-13.7574
▁snore	-13.7576
▁conser	-13.7576
?!!	-13.7576
ridge	-13.7576
▁alien	-13.7577
▁braid	-13.7579
cated	-13.7581
dium	-13.7585
▁uncl	-13.7585
▁nichol	-13.7586
▁fulfil	-13.7586
▁porch	-13.7587
statement	-13.7587
▁chip	-13.7589
▁suffocat	-13.759
▁miserabl	-13.759
▁franc	-13.759
▁undesirabl	-13.7591
gar	-13.7591
▁unacceptabl	-13.7591
▁confes	-13.7593
▁hunter	-13.7594
sanity	-13.7594
ltimatum	-13.7595
▁leftover	-13.7595
▁disgust	-13.7596
▁tolera	-13.7597
▁husban	-13.7598
▁physic	-13.76
▁disturb	-13.7601
▁revers	-13.7603
▁matur	-13.7605
▁surprize	-13.7606
minor	-13.7606
hni	-13.7607
dated	-13.7607
▁snoop	-13.7607
▁bulg	-13.7609
▁promote	-13.7609
▁intrigue	-13.7609
▁backstabb	-13.7609
▁entitle	-13.7609
▁analog	-13.761
▁intoxicate	-13.761
▁shak	-13.761
▁inhale	-13.7612
▁bicep	-13.7612
▁husb	-13.7613
igate	-13.7613
▁jeweler	-13.7614
▁recogni	-13.7614
bowl	-13.7615
▁dislik	-13.7615
▁pupp	-13.7615
▁introvert	-13.7615
▁clas	-13.7616
▁absorb	-13.7616
ryt	-13.7616
▁procrastinat	-13.7616
▁explicit	-13.7617
▁nurt	-13.7617
▁martin	-13.7617
▁precise	-13.7618
▁evident	-13.7618
▁simultaneous	-13.7618
custome	-13.7619
ergy	-13.7619
empla	-13.7619
propriate	-13.7619
▁jewel	-13.762
▁accompanie	-13.762
▁trippin	-13.762
▁grabbin	-13.762
▁diggin	-13.762
steem	-13.7621
poil	-13.7621
▁vibrat	-13.7621
▁crank	-13.7621
▁egotistic	-13.7621
▁jovi	-13.7621
kansas	-13.7621
tennesse	-13.7622
▁televis	-13.7622
▁remorse	-13.7622
▁0125444	-13.7622
▁pscholog	-13.7622
collateral	-13.7622
smboochie	-13.7622
vidual	-13.7622
▁abrupt	-13.7622
▁bangkok	-13.7622
▁broccol	-13.7622
▁cohabitat	-13.7622
▁compulsor	-13.7622
▁dishearten	-13.7622
▁eharmany	-13.7622
▁lexapro	-13.7622
▁punjab	-13.7622
▁remnants	-13.7622
▁unfortuan	-13.7622
▁unfurl	-13.7622
100-300	-13.7622
24-32	-13.7622
26-1643	-13.7622
5684	-13.7622
arlenrthomas	-13.7622
gladiators	-13.7622
oklahom	-13.7622
porkchop	-13.7622
sassygal	-13.7622
spiderman	-13.7622
theshrabster	-13.7622
vanessitacool	-13.7622
▁23456	-13.7622
▁36-24-	-13.7622
▁acidic	-13.7622
▁acquaintence	-13.7622
▁aggrees	-13.7622
▁aggresive	-13.7622
▁aggressor	-13.7622
▁alabama	-13.7622
▁alleviate	-13.7622
▁anitheenk	-13.7622
▁anthony	-13.7622
▁apparantly	-13.7622
▁appoligize	-13.7622
▁aracnia	-13.7622
▁asphyxiation	-13.7622
▁atmosphere	-13.7622
▁awkard	-13.7622
▁bangalore	-13.7622
▁barrwin	-13.7622
▁baxton	-13.7622
▁bbq	-13.7622
▁bicycle	-13.7622
▁blasphemous	-13.7622
▁blemish	-13.7622
▁blueladybug	-13.7622
▁bodmod	-13.7622
▁brmejiac	-13.7622
▁brooklyn	-13.7622
▁capricorn	-13.7622
▁casablanca	-13.7622
▁casanova	-13.7622
▁cassidy	-13.7622
▁catalog	-13.7622
▁catastrophe	-13.7622
▁celebrities	-13.7622
▁cemetary	-13.7622
▁chachito	-13.7622
▁chalenge	-13.7622
▁charlotte	-13.7622
▁choclate	-13.7622
▁cincinnati	-13.7622
▁cinderella	-13.7622
▁congregate	-13.7622
▁conjecture	-13.7622
▁convenient	-13.7622
▁converstaion	-13.7622
▁counciler	-13.7622
▁credibility	-13.7622
▁crocodile	-13.7622
▁currency	-13.7622
▁dalnet	-13.7622
▁dandruff	-13.7622
▁deangelo	-13.7622
▁declaration	-13.7622
▁delinquent	-13.7622
▁detector	-13.7622
▁detrimental	-13.7622
▁diligently	-13.7622
▁disabilities	-13.7622
▁disarray	-13.7622
▁disguise	-13.7622
▁divulge	-13.7622
▁downstairs	-13.7622
▁duplicating	-13.7622
▁economically	-13.7622
▁edinburgh	-13.7622
▁elaborate	-13.7622
▁elephants	-13.7622
▁elusive	-13.7622
▁emaciated	-13.7622
▁enormous	-13.7622
▁ericmaypother	-13.7622
▁espanol	-13.7622
▁etiquette	-13.7622
▁excruciating	-13.7622
▁execise	-13.7622
▁extraordinary	-13.7622
▁fiercely	-13.7622
▁gabriel	-13.7622
▁hampshire	-13.7622
▁hoobastank	-13.7622
▁horrendous	-13.7622
▁hygene	-13.7622
▁hyphenated	-13.7622
▁illinois	-13.7622
▁illiterate	-13.7622
▁implicitly	-13.7622
▁imporatant	-13.7622
▁impulsive	-13.7622
▁infidelities	-13.7622
▁interludes	-13.7622
▁irresistabl	-13.7622
▁isabella	-13.7622
▁jepordiz	-13.7622
▁katrina	-13.7622
▁kelsie	-13.7622
▁kermit	-13.7622
▁keypad	-13.7622
▁liaisons	-13.7622
▁lubbock	-13.7622
▁ludicrous	-13.7622
▁mcgraw	-13.7622
▁meatloaf	-13.7622
▁merchandise	-13.7622
▁midwest	-13.7622
▁minnesota	-13.7622
▁miscreant	-13.7622
▁moniker	-13.7622
▁monogamic	-13.7622
▁morimotos	-13.7622
▁mufidah	-13.7622
▁occassion	-13.7622
▁omfg	-13.7622
▁oxymoron	-13.7622
▁palakha	-13.7622
▁panipuri	-13.7622
▁patchouli	-13.7622
▁patterson	-13.7622
▁periwinkle	-13.7622
▁pesonality	-13.7622
▁pipkins	-13.7622
▁pistols	-13.7622
▁poconos	-13.7622
▁portillo	-13.7622
▁prejudiced	-13.7622
▁privilege	-13.7622
▁prodigy	-13.7622
▁prositute	-13.7622
▁provacative	-13.7622
▁qualification	-13.7622
▁quarrel	-13.7622
▁rachel	-13.7622
▁raincoat	-13.7622
▁rebellious	-13.7622
▁receipt	-13.7622
▁reciprocity	-13.7622
▁rediculous	-13.7622
▁reflex	-13.7622
▁reproduce	-13.7622
▁sacramento	-13.7622
▁sadomasochism	-13.7622
▁sconex	-13.7622
▁scruffy	-13.7622
▁scrutiny	-13.7622
▁sextuplets	-13.7622
▁shakespeare	-13.7622
▁siguro	-13.7622
▁simplicity	-13.7622
▁sitaution	-13.7622
▁snowboarding	-13.7622
▁snowmobiles	-13.7622
▁splinter	-13.7622
▁stubble	-13.7622
▁substandard	-13.7622
▁substitute	-13.7622
▁swollen	-13.7622
▁synonym	-13.7622
▁tabitha	-13.7622
▁tampons	-13.7622
▁technicolo	-13.7622
▁tommorrow	-13.7622
▁toothpicks	-13.7622
▁tornadoes	-13.7622
▁trampoline	-13.7622
▁unavoidable	-13.7622
▁unbelievably	-13.7622
▁unclothed	-13.7622
▁uncontrollably	-13.7622
▁unexplainable	-13.7622
▁unsanitary	-13.7622
▁unseemly	-13.7622
▁upstairs	-13.7622
▁valeros	-13.7622
▁vedakumar	-13.7622
▁vegetarian	-13.7622
▁vinegar	-13.7622
▁vocabulary	-13.7622
▁vodka	-13.7622
▁volcano	-13.7622
▁voyeur	-13.7622
▁westbrook	-13.7622
▁whitesnake	-13.7622
▁woodchuck	-13.7622
▁yahooguru	-13.7622
▁ykalex	-13.7622
▁zombies	-13.7622
44444	-13.7622
mobile	-13.7622
mpathize	-13.7622
▁almighty	-13.7622
▁chamberlin	-13.7622
▁compatability	-13.7622
▁hippies	-13.7622
▁montrose	-13.7622
▁wrinkled	-13.7622
beerholder	-13.7622
iatrist	-13.7622
puhlease	-13.7622
sugarlump	-13.7622
▁adivce	-13.7622
▁avaliable	-13.7622
▁bogota	-13.7622
▁breech	-13.7622
▁census	-13.7622
▁ciber	-13.7622
▁cravings	-13.7622
▁decipher	-13.7622
▁definitively	-13.7622
▁elvis	-13.7622
▁endorphin	-13.7622
▁explination	-13.7622
▁fizixx	-13.7622
▁foolhardy	-13.7622
▁government	-13.7622
▁groundhog	-13.7622
▁intimadated	-13.7622
▁luxur	-13.7622
▁nescessar	-13.7622
▁oprah	-13.7622
▁powter	-13.7622
▁quikie	-13.7622
▁staircase	-13.7622
▁swoop	-13.7622
▁turmoil	-13.7622
▁vacillat	-13.7622
▁valintin	-13.7622
chopper	-13.7622
▁arsenic	-13.7622
▁comercial	-13.7622
▁consumption	-13.7622
▁detached	-13.7622
▁feminity	-13.7622
▁florals	-13.7622
▁foghat	-13.7622
▁gemini	-13.7622
▁hawke	-13.7622
▁malicious	-13.7622
▁ottawa	-13.7622
▁pseudo	-13.7622
▁scantily	-13.7622
▁secrecy	-13.7622
▁toothbrush	-13.7622
▁witherspoon	-13.7622
mortgage	-13.7622
▁ambitious	-13.7622
▁augmentation	-13.7622
▁batista	-13.7622
▁bimbo	-13.7622
▁congested	-13.7622
▁jackpot	-13.7622
▁longhorn	-13.7622
▁meredith	-13.7622
▁nigga	-13.7622
▁papaya	-13.7622
▁primitive	-13.7622
▁bachelorette	-13.7622
▁dragonfire	-13.7622
▁dribbled	-13.7622
▁fairytale	-13.7622
▁merrier	-13.7622
▁qualm	-13.7622
▁spontanious	-13.7622
▁tagworld	-13.7622
▁victory	-13.7622
eeeeeeeeeeeeeeee	-13.7622
▁accusatory	-13.7622
▁audibly	-13.7622
▁banderas	-13.7622
▁casino	-13.7622
▁converstation	-13.7622
▁designpro	-13.7622
▁eliot	-13.7622
▁expeience	-13.7622
▁limbo	-13.7622
▁momacta	-13.7622
▁morgan	-13.7622
▁mpio	-13.7622
▁mushmouth	-13.7622
▁rehearse	-13.7622
▁tsgm	-13.7622
butterballs	-13.7622
gitarian	-13.7622
igator	-13.7622
▁intrinsic	-13.7622
▁proplem	-13.7622
▁yanni	-13.7622
▁bacteria	-13.7622
▁bowstaff	-13.7622
▁bystander	-13.7622
▁cassie	-13.7622
▁chastity	-13.7622
▁daisies	-13.7622
▁decifer	-13.7622
▁phonics	-13.7622
▁racism	-13.7622
▁residency	-13.7622
▁smirk	-13.7622
▁yasmine	-13.7622
▁giggling	-13.7622
shriek	-13.7622
sisisisisi	-13.7622
▁availability	-13.7622
▁eldest	-13.7622
▁chioce	-13.7622
▁headphones	-13.7622
▁stimulating	-13.7622
▁temae	-13.7622
▁nessary	-13.7622
▁ovaries	-13.7622
▁tranny	-13.7622
▁bullcrap	-13.7622
▁embarassment	-13.7622
▁intoxication	-13.7622
▁lesbain	-13.7622
▁battlefield	-13.7622
▁josiah	-13.7622
▁remmber	-13.7622
▁resonsible	-13.7622
▁thieves	-13.7622
▁vartan	-13.7622
iisii	-13.7622
▁clutter	-13.7622
▁foolproof	-13.7622
sassygirl	-13.7622
▁bleached	-13.7622
▁bsdm	-13.7622
▁excla	-13.7622
▁interview	-13.7622
▁introspection	-13.7622
▁taquito	-13.7622
▁aesthetic	-13.7622
▁applicant	-13.7622
▁arthur	-13.7622
▁mascar	-13.7622
▁deffin	-13.7622
▁engender	-13.7622
▁fisrt	-13.7622
▁flatulate	-13.7622
▁fundamental	-13.7622
▁insticts	-13.7622
▁plantains	-13.7622
▁questoin	-13.7622
▁springfield	-13.7622
▁harley	-13.7622
▁champaign	-13.7622
▁institute	-13.7622
▁piano	-13.7622
▁sssssssssss	-13.7622
▁milkshake	-13.7622
▁squarepants	-13.7622
▁impresion	-13.7622
▁kyla	-13.7622
▁mundo	-13.7622
▁occupation	-13.7622
▁pancho	-13.7622
▁remorseful	-13.7622
▁brainwash	-13.7622
iguin	-13.7622
▁additude	-13.7622
▁americansingles	-13.7622
▁intellig	-13.7622
▁negativity	-13.7622
▁paramount	-13.7622
▁prosperity	-13.7622
▁undertones	-13.7622
hydrate	-13.7622
3636	-13.7622
hahhahah	-13.7622
▁companies	-13.7622
▁firearm	-13.7622
▁kevin	-13.7622
▁rapport	-13.7622
tricep	-13.7622
▁distributed	-13.7622
▁perosn	-13.7622
▁unattached	-13.7622
▁edgy	-13.7622
▁amplif	-13.7622
▁enraged	-13.7622
▁establishment	-13.7622
▁arousal	-13.7622
▁inhumane	-13.7622
trument	-13.7622
▁diffrence	-13.7622
astrop	-13.7622
▁cactus	-13.7622
▁spiked	-13.7622
▁sprung	-13.7622
▁horniness	-13.7622
▁chrome	-13.7622
▁desirability	-13.7622
▁mindreader	-13.7622
▁trollop	-13.7622
suade	-13.7622
▁epide	-13.7622
▁jewlr	-13.7622
▁lvoe	-13.7622
pancakes	-13.7622
▁unwarranted	-13.7622
▁collins	-13.7622
▁pepsi	-13.7622
▁18-21	-13.7622
▁bogus	-13.7622
▁fidget	-13.7622
▁pitied	-13.7622
▁accusations	-13.7622
▁10,11	-13.7622
▁hostel	-13.7622
▁masala	-13.7622
▁crutch	-13.7622
▁soemthing	-13.7622
▁parrents	-13.7622
phobic	-13.7623
tatiously	-13.7623
▁dyke	-13.7623
▁accomplishments	-13.7623
▁auctioneer	-13.7623
▁preferenes	-13.7623
▁cherries	-13.7623
▁miami	-13.7623
▁granny	-13.7623
▁apperance	-13.7623
▁fingertips	-13.7623
▁reclusive	-13.7623
sqog	-13.7623
velope	-13.7623
▁ronely	-13.7623
▁shuold	-13.7623
▁stationary	-13.7623
▁clinch	-13.7623
▁conservativly	-13.7623
▁flinches	-13.7623
▁sharks	-13.7623
phic	-13.7623
▁arroused	-13.7623
▁flops	-13.7623
▁imprison	-13.7623
▁wickedness	-13.7623
▁proposition	-13.7623
cocaine	-13.7623
▁brittish	-13.7623
▁vanish	-13.7623
▁arnold	-13.7623
▁**********	-13.7623
▁rudha	-13.7623
▁worshipping	-13.7623
▁cummings	-13.7623
▁arguements	-13.7623
▁regarless	-13.7623
▁chainsaw	-13.7623
▁grandstanding	-13.7623
▁asnwer	-13.7623
▁stuip	-13.7623
▁tsgf	-13.7623
▁concede	-13.7623
▁leadership	-13.7623
▁roger	-13.7623
▁stuart	-13.7623
▁transformation	-13.7623
▁evryday	-13.7623
▁ripple	-13.7623
▁ubersexual	-13.7623
▁kimber	-13.7623
▁oppion	-13.7623
▁questons	-13.7623
sequence	-13.7623
▁solitar	-13.7623
▁(603	-13.7623
▁arrival	-13.7623
▁thomas	-13.7623
▁iverson	-13.7623
▁redbook	-13.7623
▁commotion	-13.7623
▁160,000	-13.7623
▁division	-13.7623
▁karate	-13.7623
▁nonesense	-13.7623
▁resentful	-13.7623
▁skateboarders	-13.7623
▁einst	-13.7623
▁disreputable	-13.7623
▁foreskin	-13.7623
▁blowjob	-13.7623
▁lavish	-13.7623
▁untidy	-13.7623
▁inimate	-13.7623
▁chamber	-13.7623
▁possessiveness	-13.7623
versaries	-13.7623
▁cholest	-13.7623
▁jovial	-13.7623
▁candidate	-13.7623
▁embrass	-13.7623
▁feces	-13.7623
perspiration	-13.7624
▁25-30	-13.7624
▁fleeting	-13.7624
▁ooohh	-13.7624
▁nyc	-13.7624
▁posession	-13.7624
aaaaaah	-13.7624
▁protracted	-13.7624
▁(11,	-13.7624
▁manila	-13.7624
▁teammate	-13.7624
▁denver	-13.7624
▁disability	-13.7624
▁stuped	-13.7624
▁5'1.	-13.7624
▁inevitably	-13.7624
▁gimpy	-13.7624
▁nutz	-13.7624
▁sewing	-13.7624
▁unselfish	-13.7624
▁perpetuate	-13.7624
▁shawdo	-13.7624
▁cheerful	-13.7624
petition	-13.7624
▁alienate	-13.7624
▁phenomenal	-13.7624
▁dillin	-13.7624
▁demonic	-13.7624
▁stunk	-13.7624
hocke	-13.7624
▁experimentation	-13.7624
▁network	-13.7624
▁prettyricky	-13.7624
▁jurk	-13.7624
▁aldea	-13.7624
▁nurtured	-13.7624
▁reform	-13.7625
▁demeaning	-13.7625
▁subside	-13.7625
▁likley	-13.7625
▁lavend	-13.7625
▁bouncing	-13.7625
▁flushed	-13.7625
086	-13.7625
▁unsatisfied	-13.7625
napropriate	-13.7625
▁pocus	-13.7625
anity	-13.7625
▁saris	-13.7625
▁weasel	-13.7625
▁confidant	-13.7625
▁owens	-13.7625
tributed	-13.7625
▁dinos	-13.7625
▁removal	-13.7625
▁slug	-13.7625
▁downhill	-13.7625
▁unlucky	-13.7625
▁plantation	-13.7625
▁christain	-13.7625
▁christina	-13.7625
▁affable	-13.7625
▁approp	-13.7625
▁phisical	-13.7625
▁setants	-13.7625
ghness	-13.7625
▁interpretation	-13.7625
▁bethany	-13.7626
▁diesal	-13.7626
▁punchline	-13.7626
▁ripoff	-13.7626
▁mailbox	-13.7626
▁hansome	-13.7626
▁erase	-13.7626
▁nonstop	-13.7626
▁scramb	-13.7626
▁regularity	-13.7626
▁hastily	-13.7626
▁muffin	-13.7626
▁cursing	-13.7626
▁mescal	-13.7626
▁chump	-13.7626
livinghaunted	-13.7626
▁douche	-13.7626
▁dicover	-13.7626
veiw	-13.7626
▁smooch	-13.7626
▁complexity	-13.7626
▁solid	-13.7626
ryuk	-13.7626
danae	-13.7626
▁confection	-13.7626
▁grams	-13.7626
▁achievement	-13.7627
cov	-13.7627
▁summary	-13.7627
▁shawn	-13.7627
▁egotis	-13.7627
▁relatonship	-13.7627
ggled	-13.7627
▁forestall	-13.7627
▁inject	-13.7627
▁reevaluate	-13.7627
▁assoc	-13.7627
▁halloween	-13.7627
▁dispara	-13.7627
dominican	-13.7627
▁explicitly	-13.7627
▁idoits	-13.7627
▁courtship	-13.7627
▁constructively	-13.7627
)-(	-13.7628
▁appeti	-13.7628
▁cuddly	-13.7628
ficti	-13.7628
▁phyis	-13.7628
▁bargain	-13.7628
▁facility	-13.7628
▁deceased	-13.7628
▁attendance	-13.7628
▁procrastinator	-13.7628
▁libel	-13.7628
▁togeth	-13.7628
▁lamb	-13.7629
▁renee	-13.7629
offee	-13.7629
▁adole	-13.7629
▁unnessa	-13.7629
▁ltene	-13.7629
▁stepmother	-13.7629
▁5'2	-13.7629
▁discriminate	-13.7629
▁chix	-13.7629
▁chaos	-13.7629
118	-13.763
alleged	-13.763
▁favorably	-13.763
▁toledo	-13.763
▁ratio	-13.763
▁minuet	-13.763
▁contentment	-13.763
▁confidential	-13.763
▁apoligize	-13.763
heartedly	-13.7631
bob	-13.7631
▁flert	-13.7631
hstan	-13.7631
▁fantis	-13.7631
▁hometown	-13.7631
ristmas	-13.7631
▁hiii	-13.7631
▁excluded	-13.7631
▁internally	-13.7631
▁furthe	-13.7631
▁freezer	-13.7631
▁experance	-13.7631
▁managers	-13.7632
windle	-13.7632
▁reciprocating	-13.7632
▁suga	-13.7632
▁mechanic	-13.7632
riety	-13.7632
▁undernet	-13.7632
▁barker	-13.7632
▁attrack	-13.7632
entrate	-13.7632
▁booths	-13.7632
baya	-13.7632
▁bagage	-13.7632
▁route	-13.7632
▁inhaler	-13.7632
▁constructive	-13.7633
zon	-13.7633
▁undies	-13.7633
▁2010	-13.7633
▁cranky	-13.7633
▁reformed	-13.7633
▁sensational	-13.7633
▁burping	-13.7633
▁runner	-13.7633
roofies	-13.7633
▁humil	-13.7633
fferences	-13.7634
▁molestor	-13.7634
ihgt	-13.7634
gamy	-13.7634
▁severely	-13.7634
▁captivated	-13.7634
▁eternal	-13.7634
▁acquir	-13.7634
▁chosing	-13.7635
bakery	-13.7635
▁somwhere	-13.7635
nergy	-13.7635
▁shiver	-13.7635
▁stank	-13.7635
▁gravitation	-13.7635
▁swine	-13.7635
▁jenny	-13.7635
▁aftershave	-13.7635
crease	-13.7635
riuos	-13.7635
mpathy	-13.7635
▁yanno	-13.7635
▁14.4	-13.7635
▁pepto	-13.7635
▁solitary	-13.7635
▁sholes	-13.7635
▁deffiniti	-13.7635
▁crea	-13.7635
▁jewelery	-13.7636
izzy	-13.7636
▁cz	-13.7636
▁difrent	-13.7636
▁imbecile	-13.7636
▁socialise	-13.7636
trollish	-13.7636
▁fighing	-13.7636
▁martini	-13.7636
congratz	-13.7636
lipop	-13.7636
fcuk	-13.7637
▁fertile	-13.7637
▁oxy	-13.7637
▁shrew	-13.7637
essa	-13.7637
▁ahha	-13.7637
▁groose	-13.7637
▁curiousity	-13.7637
▁robbins	-13.7638
▁translation	-13.7638
▁lezbo	-13.7638
mpire	-13.7638
▁saddening	-13.7638
▁surprized	-13.7638
▁shakers	-13.7638
▁hippy	-13.7638
▁selfishness	-13.7638
▁inspiration	-13.7638
▁vomiting	-13.7638
▁loopy	-13.7638
tenderness	-13.7639
niverseries	-13.7639
▁outrag	-13.7639
▁exspect	-13.7639
▁relayed	-13.764
assaholic	-13.764
▁trays	-13.764
acity	-13.764
/200	-13.764
▁curry	-13.764
▁unsureness	-13.7641
▁perished	-13.7641
▁coors	-13.7641
▁contradicting	-13.7641
▁studder	-13.7641
▁biologically	-13.7641
▁objectively	-13.7641
▁castrate	-13.7641
▁steady	-13.7642
▁appare	-13.7642
▁forthwith	-13.7642
▁magically	-13.7642
sposible	-13.7643
ornment	-13.7643
▁tarnish	-13.7643
rench	-13.7643
▁considerably	-13.7643
▁falsify	-13.7643
▁antib	-13.7643
▁premise	-13.7643
▁conquar	-13.7643
▁distinction	-13.7643
▁enco	-13.7644
▁counsul	-13.7644
▁chewed	-13.7644
▁derived	-13.7644
▁jess	-13.7644
bably	-13.7644
▁discreetly	-13.7644
▁wayyy	-13.7645
▁angus	-13.7645
▁sheena	-13.7645
▁unsaid	-13.7645
84	-13.7645
▁monstro	-13.7645
▁widers	-13.7645
▁mocked	-13.7646
▁runaway	-13.7646
▁ooops	-13.7646
▁exclaimed	-13.7646
▁haert	-13.7646
▁bummer	-13.7646
sourc	-13.7646
▁capabilit	-13.7646
▁froget	-13.7646
▁padd	-13.7647
▁decied	-13.7647
▁commune	-13.7647
▁unforgiveab	-13.7647
▁apprec	-13.7647
▁bueat	-13.7647
▁quart	-13.7648
▁scarf	-13.7648
▁tatoo	-13.7648
▁amarica	-13.7648
▁cigar	-13.7648
▁harem	-13.7649
▁neather	-13.7649
ppos	-13.7649
▁twister	-13.765
▁beautif	-13.765
lutely	-13.7651
▁packet	-13.7651
▁ummmmmmm	-13.7651
▁positiveness	-13.7651
▁carful	-13.7651
▁sandwiches	-13.7651
▁volunteering	-13.7652
▁und	-13.7652
▁exams	-13.7652
▁alka	-13.7653
▁disposition	-13.7653
illionaire	-13.7653
▁234	-13.7654
▁palce	-13.7654
▁flicker	-13.7654
▁carrots	-13.7654
▁funky	-13.7654
▁pranks	-13.7654
ibly	-13.7654
elevator	-13.7654
▁ironic	-13.7655
▁...!!!!	-13.7655
▁prowl	-13.7655
▁actuall	-13.7655
▁operation	-13.7655
▁tripping	-13.7655
▁danes	-13.7655
cision	-13.7655
▁irony	-13.7655
▁engineer	-13.7656
raya	-13.7656
▁downfalls	-13.7656
▁lightnings	-13.7656
▁bragging	-13.7656
▁bussiness	-13.7656
▁restrictions	-13.7656
▁cussing	-13.7657
avi	-13.7657
▁wussies	-13.7657
▁departed	-13.7657
▁sharin	-13.7657
▁sadness	-13.7658
enchant	-13.7658
▁porche	-13.7659
▁devorced	-13.7659
▁nastie	-13.7659
▁photograpg	-13.7659
ken	-13.7659
▁lustfully	-13.7659
▁strays	-13.766
▁corey	-13.766
▁nichole	-13.766
▁external	-13.766
▁thrid	-13.7661
▁mistresses	-13.7662
▁grue	-13.7662
ahh	-13.7662
▁truman	-13.7662
▁downsides	-13.7663
▁converstion	-13.7664
richards	-13.7664
▁disagreeable	-13.7665
▁faint	-13.7665
▁commu	-13.7665
intuitively	-13.7665
▁gravitat	-13.7667
▁tuned	-13.7667
▁(25	-13.7667
▁tasty	-13.7667
▁suave	-13.7668
▁specialist	-13.7668
▁jj	-13.7668
▁downloaded	-13.7669
▁enlarged	-13.7669
▁watchful	-13.7669
▁narried	-13.767
▁ummmmmm	-13.767
▁toothp	-13.767
▁restraunt	-13.767
▁smartness	-13.7671
▁independently	-13.7672
▁sparkle	-13.7673
▁coco	-13.7673
▁ensur	-13.7673
bug	-13.7674
gram	-13.7674
▁payday	-13.7674
▁entertained	-13.7675
▁sparm	-13.7675
▁fashionable	-13.7675
▁buff	-13.7676
▁correction	-13.7676
▁flour	-13.7676
▁threatining	-13.7677
▁dumpty	-13.7677
▁pimpin	-13.7679
▁infrequently	-13.768
▁marc	-13.768
100.00	-13.768
▁cheak	-13.768
▁ladin	-13.7681
▁burp	-13.7682
front	-13.7682
▁schem	-13.7683
ross	-13.7683
▁suitor	-13.7683
▁gawk	-13.7683
▁selfesteem	-13.7684
00.00)	-13.7684
stion	-13.7684
▁sagitari	-13.7684
▁gpa	-13.7685
▁incompetent	-13.7685
yard	-13.7687
▁driveway	-13.7687
rida	-13.7687
▁giggled	-13.7688
rafi	-13.7688
▁shag	-13.7688
▁uhhh	-13.7688
▁everynight	-13.7688
▁comman	-13.7689
▁armor	-13.7689
▁gran	-13.7689
▁aggressively	-13.769
/2	-13.769
tchers	-13.769
▁soph	-13.7691
▁restrained	-13.7691
▁waaaa	-13.7691
▁pond	-13.7692
▁tlak	-13.7692
arnish	-13.7692
▁brothels	-13.7693
monkeyboy	-13.7693
▁arrow	-13.7693
▁affirmatively	-13.7693
lande	-13.7693
▁timmy	-13.7694
▁ivy	-13.7694
▁cornered	-13.7694
▁derivati	-13.7695
▁inscription	-13.7698
▁philly	-13.7698
lves	-13.7698
abase	-13.7698
bses	-13.7698
▁trish	-13.7698
centeredness	-13.7699
▁sneaker	-13.7699
ques	-13.77
gret	-13.77
▁flirtatiously	-13.77
▁affectionately	-13.7701
heard	-13.7701
▁murdered	-13.7701
▁forgetful	-13.7701
onomical	-13.7702
▁***	-13.7702
▁tickleing	-13.7704
▁prefect	-13.7704
▁flave	-13.7708
▁plainly	-13.7709
▁purr	-13.7709
▁goog	-13.7709
▁incomplete	-13.771
▁jobless	-13.7712
reguard	-13.7712
▁catchers	-13.7712
reproduction	-13.7713
▁crowded	-13.7714
▁motivated	-13.7714
larg	-13.7714
▁pumpkins	-13.7715
▁cosmetics	-13.7715
▁disturbances	-13.7715
▁motorcycles	-13.7715
▁entails	-13.7715
▁pref	-13.7715
▁possesion	-13.7715
▁honored	-13.7716
▁chig	-13.7716
▁alpha	-13.7716
▁chips	-13.7717
▁hotness	-13.7717
▁kum	-13.7718
tar	-13.7718
▁healed	-13.7719
esp	-13.7719
▁prosper	-13.7721
▁experimenting	-13.7722
▁ej	-13.7722
▁tyle	-13.7722
▁vomit	-13.7723
wrecker	-13.7723
hap	-13.7723
mooch	-13.7724
luded	-13.7724
aphi	-13.7724
emina	-13.7725
▁carter	-13.7725
▁dede	-13.7726
▁pps	-13.7727
▁decid	-13.7727
▁soooooooo	-13.7729
dental	-13.7729
▁unusually	-13.773
▁103	-13.7732
▁usefull	-13.7732
▁uhm	-13.7732
▁duhh	-13.7733
mmie	-13.7733
▁eden	-13.7733
▁joi	-13.7733
▁varie	-13.7734
▁paci	-13.7736
▁spie	-13.7737
▁taxi	-13.7738
cow	-13.774
▁mellow	-13.774
▁comunicat	-13.774
jer	-13.774
▁establish	-13.7742
▁sank	-13.7743
▁pakistani	-13.7743
▁benifits	-13.7743
▁altho	-13.7744
sterous	-13.7745
▁eeww	-13.7745
▁retarted	-13.7746
▁frig	-13.7747
▁greatful	-13.7747
ionist	-13.7747
▁theatr	-13.7748
▁jean	-13.7749
▁coca	-13.7749
mad	-13.775
▁frigerator	-13.775
...??	-13.7751
▁sittin	-13.7752
▁responsive	-13.7753
▁oriented	-13.7755
▁vacuum	-13.7755
▁revolting	-13.7755
▁bubba	-13.7755
▁stale	-13.7756
▁snobb	-13.7756
▁tabl	-13.7756
▁courtesy	-13.7756
▁humiliation	-13.7756
types	-13.7756
▁missionary	-13.7756
▁firework	-13.7759
▁undescrib	-13.776
rary	-13.7761
▁skillet	-13.7761
lamorous	-13.7764
▁assets	-13.7764
▁buttom	-13.7764
▁shure	-13.7766
▁signif	-13.7767
▁depict	-13.7769
intersting	-13.7769
▁crazed	-13.7769
▁slep	-13.7775
ec	-13.7775
▁veterans	-13.7775
▁grind	-13.7775
▁drawbacks	-13.7775
ort	-13.7775
▁effortless	-13.7776
▁exac	-13.7776
▁tux	-13.7776
45	-13.7776
ussie	-13.7777
▁obst	-13.7777
partners	-13.7778
▁homeless	-13.7781
▁likable	-13.7781
▁rug	-13.7782
iv	-13.7783
listed	-13.7784
riend	-13.7784
▁ribb	-13.7785
unimagi	-13.7786
▁counsell	-13.7786
▁flood	-13.7786
▁jones	-13.7786
▁geeze	-13.7787
▁balanced	-13.7787
▁pub	-13.7788
bor	-13.7788
▁unfortunat	-13.7788
▁sez	-13.7789
▁mutt	-13.7789
▁beads	-13.7791
▁auntie	-13.7791
quito	-13.7792
▁abusers	-13.7793
▁hol	-13.7794
▁satisfie	-13.7795
▁highway	-13.7795
▁packaged	-13.7795
▁roofs	-13.7796
▁civiliz	-13.7796
▁bolder	-13.7797
brainer	-13.7798
▁realation	-13.7798
▁babygirl	-13.7799
▁sadden	-13.7799
▁polyamor	-13.7801
▁sleepover	-13.7802
▁desert	-13.7803
▁arranged	-13.7804
▁succin	-13.7805
blit	-13.7805
▁stem	-13.7806
rks	-13.7807
wal	-13.7807
addle	-13.7808
▁ushers	-13.781
▁stunn	-13.7812
nemo	-13.7813
▁submissi	-13.7815
▁amorous	-13.7815
▁rem	-13.7816
▁gayz	-13.7818
▁espec	-13.7819
▁boyfrie	-13.782
▁humping	-13.782
▁div	-13.782
▁stones	-13.782
▁thinner	-13.7821
▁locally	-13.7821
▁luk	-13.7822
▁succesful	-13.7824
orda	-13.7825
rinkle	-13.7825
▁homegirl	-13.7825
▁boyfd	-13.7826
▁taboos	-13.7827
▁charisma	-13.7827
▁powe	-13.7827
ettes	-13.7827
▁preva	-13.7827
▁disapprove	-13.7827
▁persepti	-13.7827
▁ummmm	-13.7827
▁playgirl	-13.7828
▁quirks	-13.7828
bby	-13.7829
▁sooooo	-13.7829
▁resid	-13.7829
▁explan	-13.7829
amel	-13.783
▁censors	-13.7831
▁dishonesty	-13.7833
▁elated	-13.7834
▁outlaws	-13.7834
▁dwelling	-13.7835
▁gardens	-13.7835
▁presidents	-13.7835
▁lawsuits	-13.7836
▁dinosaurs	-13.7836
▁commercials	-13.7836
▁bjs	-13.7836
oids	-13.7838
▁complimented	-13.7842
▁cheeze	-13.7842
????!!!	-13.7843
▁lett	-13.7843
ears	-13.7843
▁spurt	-13.7844
▁aquari	-13.7844
▁vur	-13.7845
500.00	-13.7845
▁enou	-13.7845
▁motivat	-13.7846
wine	-13.7846
sunny	-13.7847
▁wheels	-13.785
awa	-13.7852
smiles	-13.7853
liberate	-13.7853
▁penetrati	-13.7854
▁seeya	-13.7858
▁hardness	-13.7859
▁bernie	-13.786
▁mig	-13.786
▁astra	-13.7861
lette	-13.7862
0-60	-13.7862
▁espes	-13.7864
▁horrific	-13.7864
▁hermit	-13.7866
▁misbehave	-13.7867
▁spine	-13.7869
▁openers	-13.7869
▁shair	-13.787
▁ahhhh	-13.7871
▁snoo	-13.7873
▁sweater	-13.7874
▁parant	-13.7874
▁dried	-13.7874
gain	-13.7874
▁tolerated	-13.7878
uttered	-13.7878
gaments	-13.7881
beautifuf	-13.7881
▁bouncer	-13.7882
▁roadway	-13.7883
ricky	-13.7883
▁bounces	-13.7885
nnnooo	-13.7885
▁15-	-13.7888
▁appointments	-13.7889
▁twins	-13.789
tunes	-13.7892
▁uttered	-13.7895
▁stereotyp	-13.7895
▁molesters	-13.7896
▁abortions	-13.7897
iful	-13.7897
▁gab	-13.7897
▁obsessions	-13.7898
▁hesitated	-13.79
▁ideally	-13.79
▁diggers	-13.7901
bted	-13.7901
▁tomboys	-13.7902
finder	-13.7903
roches	-13.7903
▁billi	-13.7903
▁12.	-13.7904
▁succeeding	-13.7904
▁carpet	-13.7904
▁coul	-13.7905
▁freeze	-13.7905
roomba	-13.7907
▁rectifi	-13.7907
zb	-13.7913
▁fullfill	-13.7913
▁retir	-13.7915
▁vans	-13.7916
▁nair	-13.7917
▁sock	-13.792
▁poo	-13.7923
▁gumptio	-13.7923
▁span	-13.7926
gory	-13.7926
hoosi	-13.7934
nym	-13.7943
▁26)	-13.7943
▁stereo	-13.7944
▁bras	-13.7944
fy	-13.7946
▁answe	-13.7948
....2	-13.7948
▁hus	-13.7948
euph	-13.795
▁yaar	-13.7951
mart	-13.7953
ancies	-13.7954
location	-13.7955
▁sympt	-13.7956
ments	-13.7958
▁substances	-13.7958
[...]
