[PAD]	0
[UNK]	0
[BOS]	0
[EOS],	0
.	-2.86752
▁i	-3.49877
,	-3.51636
▁you	-3.65739
▁the	-3.80387
▁to	-3.87485
▁a	-4.00925
▁it	-4.03262
▁and	-4.11861
▁is	-4.12347
'	-4.14371
▁that	-4.36523
▁not	-4.53675
▁of	-4.71303
s	-4.71479
▁if	-4.80512
t	-4.82033
▁in	-4.89077
▁he	-4.89136
▁are	-4.90006
▁do	-4.90677
!	-4.97056
▁have	-4.97066
▁be	-5.02207
?	-5.02932
▁but	-5.06241
▁like	-5.08258
▁with	-5.09454
▁	-5.11673
▁for	-5.12129
▁on	-5.18712
▁your	-5.21623
▁my	-5.27439
▁her	-5.28542
▁they	-5.30568
▁him	-5.34634
▁she	-5.34953
▁me	-5.40597
▁just	-5.42845
▁what	-5.4859
▁can	-5.51161
...	-5.54456
▁know	-5.55376
▁was	-5.58967
▁or	-5.59458
▁love	-5.60564
▁would	-5.62884
▁will	-5.63722
▁so	-5.64616
▁think	-5.65811
▁don	-5.67695
▁this	-5.71189
▁one	-5.74035
▁no	-5.7422
▁get	-5.75995
▁out	-5.84283
▁there	-5.84712
▁about	-5.85205
▁am	-5.87876
▁u	-5.88106
▁all	-5.88278
▁as	-5.90172
▁good	-5.91666
▁then	-5.92024
▁go	-5.93012
▁want	-6.01387
▁should	-6.03765
▁because	-6.03881
▁at	-6.06507
▁them	-6.06618
▁when	-6.15378
▁up	-6.1951
▁who	-6.21341
▁really	-6.23964
▁his	-6.27618
▁some	-6.2888
▁how	-6.32127
-	-6.33682
▁time	-6.35138
▁say	-6.38269
▁"	-6.40654
m	-6.41044
▁from	-6.42198
▁ask	-6.44078
▁has	-6.44257
▁find	-6.4518
▁too	-6.46015
▁more	-6.46274
▁an	-6.46291
▁we	-6.46728
▁tell	-6.47261
▁by	-6.48609
▁guy	-6.49932
▁man	-6.5026
▁well	-6.50737
▁people	-6.51466
▁why	-6.5173
▁song	-6.53081
▁yes	-6.55649
▁way	-6.57386
▁dont	-6.5832
▁make	-6.59003
▁best	-6.60129
▁very	-6.60624
▁did	-6.6066
▁only	-6.60664
▁girl	-6.61139
▁see	-6.62412
▁try	-6.62666
▁other	-6.63104
▁does	-6.63297
▁(	-6.6578
▁men	-6.70025
▁now	-6.72426
▁its	-6.73955
▁movie	-6.74549
▁first	-6.74695
ing	-6.75487
▁need	-6.77058
▁much	-6.80557
com	-6.81121
▁someone	-6.82288
▁never	-6.82693
▁could	-6.84023
▁even	-6.84066
)	-6.84206
▁their	-6.86177
▁look	-6.87058
▁sure	-6.87843
▁believe	-6.87872
▁any	-6.88124
▁person	-6.8824
d	-6.88503
▁women	-6.8888
▁right	-6.90863
▁always	-6.91149
▁guys	-6.92054
▁had	-6.92617
▁life	-6.92675
▁friends	-6.92841
▁friend	-6.92959
:	-6.93901
▁still	-6.93903
re	-6.93997
▁something	-6.94571
i	-6.94957
▁music	-6.97517
▁question	-6.99351
▁than	-6.99487
▁going	-7.00668
▁give	-7.02187
▁sex	-7.02209
▁girls	-7.02827
▁great	-7.03017
▁answer	-7.03535
▁most	-7.03777
▁got	-7.04008
▁back	-7.04625
▁things	-7.06341
▁let	-7.06741
▁feel	-7.07746
▁better	-7.08163
▁show	-7.0928
▁-	-7.11363
▁were	-7.12971
▁mean	-7.13029
▁take	-7.14438
▁both	-7.14725
▁also	-7.14818
▁thing	-7.15407
"	-7.15523
▁old	-7.15946
ll	-7.17452
▁ever	-7.17828
▁yourself	-7.18354
▁bad	-7.19319
▁day	-7.19477
▁may	-7.19925
▁maybe	-7.23098
!!	-7.2353
e	-7.23554
▁been	-7.23665
▁over	-7.24683
▁said	-7.25918
;	-7.26543
▁many	-7.26895
▁please	-7.27258
▁2	-7.27807
▁name	-7.30413
▁married	-7.30816
▁two	-7.31101
▁lot	-7.31152
▁woman	-7.3142
▁enjoy	-7.3367
▁same	-7.33834
▁nice	-7.34098
▁looking	-7.36473
▁though	-7.37018
▁big	-7.37795
▁anything	-7.38413
▁where	-7.38911
▁talk	-7.39307
▁work	-7.39878
▁relationship	-7.39921
▁off	-7.40085
▁after	-7.406
....	-7.4209
▁hope	-7.4235
▁fun	-7.42567
y	-7.42989
/	-7.43748
▁watch	-7.43967
▁here	-7.45259
▁might	-7.46289
▁ur	-7.46992
▁being	-7.47173
▁im	-7.47435
▁new	-7.48172
▁years	-7.48701
▁care	-7.48744
▁probably	-7.48925
▁little	-7.49564
ve	-7.49566
▁luck	-7.50002
▁long	-7.50089
ed	-7.51679
▁come	-7.52083
▁heard	-7.52436
▁help	-7.52762
▁else	-7.53665
▁funny	-7.54268
▁use	-7.54301
▁before	-7.54775
▁around	-7.54995
n	-7.55383
a	-7.55642
▁keep	-7.57082
▁wrong	-7.58085
▁down	-7.58499
▁however	-7.58659
▁wait	-7.58847
▁doesn	-7.61815
▁again	-7.62215
!!!	-7.62497
▁date	-7.64272
▁songs	-7.64336
▁depends	-7.65232
▁once	-7.65497
▁yahoo	-7.66812
▁another	-7.68251
▁hard	-7.68404
▁pretty	-7.69458
▁play	-7.7109
▁attractive	-7.72078
▁own	-7.72244
▁says	-7.72245
▁boyfriend	-7.72473
▁listen	-7.73195
▁nothing	-7.74343
▁either	-7.76018
▁happy	-7.76199
▁didn	-7.76424
..	-7.76465
▁while	-7.76604
▁doing	-7.76695
▁matter	-7.77806
▁movies	-7.77971
▁oh	-7.78008
▁b	-7.7848
▁hot	-7.78596
▁&	-7.78614
▁r	-7.78857
▁sorry	-7.78925
▁looks	-7.7932
▁cannot	-7.79436
▁anyone	-7.80185
▁remember	-7.80226
▁age	-7.80439
▁which	-7.80477
▁favorite	-7.80769
▁guess	-7.80922
▁thought	-7.81703
▁real	-7.81981
▁yeah	-7.8205
▁call	-7.82117
▁into	-7.83077
▁put	-7.83796
▁move	-7.84377
▁called	-7.85241
▁last	-7.85611
▁young	-7.85712
▁wants	-7.86504
▁likes	-7.87036
▁www	-7.87149
▁seen	-7.87608
▁wife	-7.87945
▁must	-7.8845
▁every	-7.89116
▁those	-7.89875
▁money	-7.90086
▁band	-7.9077
▁boy	-7.91129
▁ok	-7.91744
▁stop	-7.91813
▁lol	-7.91875
▁search	-7.92115
ly	-7.92206
▁true	-7.92825
▁already	-7.9292
▁stupid	-7.94008
▁kind	-7.94051
▁sounds	-7.94151
▁start	-7.95037
▁having	-7.95335
▁such	-7.95572
▁until	-7.95662
▁baby	-7.96219
▁year	-7.96264
▁leave	-7.97131
▁trust	-7.97347
▁away	-7.97627
▁understand	-7.98182
▁mother	-7.9874
▁together	-7.99472
▁gay	-8.00599
▁yet	-8.00825
▁read	-8.00929
▁type	-8.01157
▁made	-8.01255
▁buy	-8.01776
▁website	-8.0189
▁everyone	-8.01981
▁without	-8.02227
▁live	-8.02271
▁thats	-8.02275
▁us	-8.02348
▁home	-8.03418
."	-8.03499
▁rock	-8.04262
▁getting	-8.04473
▁actually	-8.05189
▁makes	-8.05386
▁mind	-8.05588
▁girlfriend	-8.05786
▁interested	-8.05847
▁stuff	-8.07034
▁won	-8.07174
▁enough	-8.07489
▁used	-8.07509
▁end	-8.07788
▁since	-8.08488
▁different	-8.08722
▁free	-8.09041
o	-8.09125
▁each	-8.09177
▁hate	-8.09609
▁check	-8.09655
▁agree	-8.10911
▁talking	-8.11034
▁cool	-8.11291
▁able	-8.11826
▁found	-8.12439
▁asking	-8.12596
▁reason	-8.1263
▁trying	-8.1337
▁school	-8.13704
▁everything	-8.1394
▁wish	-8.14347
▁questions	-8.14559
▁ya	-8.14745
▁download	-8.15331
▁problem	-8.15359
▁side	-8.15452
▁times	-8.16146
▁next	-8.16499
▁course	-8.16634
▁kids	-8.16675
▁simply	-8.16775
▁4	-8.16849
▁heart	-8.17142
▁family	-8.1793
▁loves	-8.18544
and	-8.18818
▁these	-8.1969
▁means	-8.20697
r	-8.2082
▁idea	-8.21489
▁w	-8.21631
▁choose	-8.21723
▁3	-8.21756
▁unless	-8.22212
▁place	-8.2229
▁husband	-8.22689
▁kiss	-8.23404
▁hey	-8.2365
▁hurt	-8.23751
▁worry	-8.23803
▁myself	-8.23844
▁head	-8.23962
▁:)	-8.24368
▁saw	-8.24965
▁sometimes	-8.25168
▁prefer	-8.25179
▁least	-8.25392
▁isn	-8.25393
▁told	-8.25436
▁stay	-8.25836
▁god	-8.25931
▁1	-8.26291
▁pick	-8.26309
▁hell	-8.26616
▁boys	-8.27376
▁cause	-8.27446
▁hair	-8.27795
the	-8.28107
▁forget	-8.29579
▁'	-8.29983
but	-8.30183
▁break	-8.30494
▁wouldn	-8.31305
▁world	-8.31363
▁asked	-8.31517
▁worth	-8.31777
it	-8.31885
*	-8.32036
▁dating	-8.32211
▁thinking	-8.32235
▁opinion	-8.32252
▁perhaps	-8.32615
▁others	-8.32693
▁cd	-8.32877
▁feelings	-8.33211
▁points	-8.33929
▁sound	-8.34153
▁seems	-8.35615
▁hear	-8.3589
▁t	-8.36447
▁number	-8.36697
▁limewire	-8.38107
in	-8.3883
▁cant	-8.39467
▁yo	-8.40066
▁night	-8.4049
▁mom	-8.40566
▁fat	-8.41019
▁sexy	-8.41039
▁alot	-8.41146
▁wanna	-8.41205
▁saying	-8.41499
▁black	-8.41946
▁three	-8.4213
▁phone	-8.4222
▁done	-8.42685
▁eyes	-8.43141
▁meet	-8.434
er	-8.43459
▁marriage	-8.43467
▁went	-8.43598
▁become	-8.43683
▁lyrics	-8.44129
▁children	-8.44249
▁act	-8.44333
▁gonna	-8.444
▁cheat	-8.44466
▁n	-8.446
▁spend	-8.45219
▁happen	-8.45572
▁ex	-8.4558
▁bit	-8.45778
▁few	-8.45796
▁loved	-8.45829
▁left	-8.46232
▁gets	-8.4681
▁our	-8.47151
▁fall	-8.47443
▁goes	-8.47505
▁wanted	-8.47571
▁cute	-8.48011
▁email	-8.48267
▁similar	-8.48752
th	-8.48926
▁information	-8.49215
▁self	-8.49602
▁quite	-8.49625
▁chance	-8.49801
▁send	-8.50512
▁tv	-8.50965
▁female	-8.51008
▁okay	-8.51023
".	-8.51092
▁anymore	-8.51629
▁cheating	-8.52077
▁green	-8.5211
▁rap	-8.5234
▁older	-8.52473
▁crazy	-8.5289
▁house	-8.52913
▁easy	-8.53086
▁google	-8.53129
▁situation	-8.53832
▁child	-8.53934
▁watching	-8.54034
▁album	-8.54563
▁win	-8.54795
you	-8.55135
▁far	-8.55188
▁mine	-8.55574
▁possible	-8.56254
▁anyway	-8.56434
▁fan	-8.56538
▁high	-8.57013
▁marry	-8.57066
▁c	-8.57602
▁liked	-8.57836
▁beautiful	-8.59007
▁part	-8.59239
▁male	-8.59282
▁definitely	-8.59794
▁seem	-8.59838
▁between	-8.60174
.....	-8.60403
▁sister	-8.60531
▁internet	-8.60566
▁sing	-8.60647
▁dance	-8.60721
▁10	-8.60876
▁etc	-8.60942
▁comes	-8.60965
▁5	-8.61499
▁e	-8.61697
▁later	-8.61953
▁s	-8.61955
▁site	-8.61979
▁whatever	-8.62312
▁days	-8.62699
▁cuz	-8.62729
▁second	-8.62818
▁works	-8.62878
▁although	-8.62898
he	-8.62988
▁below	-8.63485
▁d	-8.63795
▁through	-8.63827
▁change	-8.63896
▁chris	-8.65121
▁alone	-8.6579
▁walk	-8.65836
▁close	-8.65982
▁video	-8.66506
▁sexual	-8.66564
▁learn	-8.66686
(	-8.67013
▁face	-8.67101
▁consider	-8.67356
▁important	-8.67426
▁american	-8.67616
▁needs	-8.67797
▁...	-8.68378
▁ready	-8.6858
▁awesome	-8.68716
▁point	-8.6885
▁turn	-8.69036
▁likely	-8.69052
▁soon	-8.69191
▁brother	-8.69989
▁fine	-8.70092
▁hang	-8.70184
▁honest	-8.70226
yahoo	-8.70254
▁single	-8.70644
▁f	-8.70934
▁lots	-8.71105
▁father	-8.71256
▁kinda	-8.72421
▁deal	-8.72989
▁often	-8.73003
▁tried	-8.73125
▁ones	-8.73318
▁haven	-8.73602
▁book	-8.73621
▁advice	-8.73788
▁wow	-8.73801
▁rest	-8.73808
▁playing	-8.73865
▁difficult	-8.74313
▁especially	-8.74328
▁full	-8.74588
▁answers	-8.74655
or	-8.74777
▁correct	-8.74994
▁words	-8.75356
??	-8.75665
▁truly	-8.7576
▁wonder	-8.75922
▁making	-8.77383
l	-8.77561
▁usually	-8.77573
▁aren	-8.77981
▁white	-8.77984
▁rather	-8.78216
▁run	-8.78268
▁m	-8.78351
▁doesnt	-8.78626
▁*	-8.79006
▁ugly	-8.7963
▁online	-8.79701
▁dude	-8.80046
es	-8.80699
▁certain	-8.80718
▁singer	-8.80761
▁suggest	-8.80937
▁knows	-8.81252
▁job	-8.81877
▁eat	-8.81885
▁o	-8.82097
▁experience	-8.82185
▁ago	-8.82322
▁blonde	-8.82645
p	-8.8297
▁voice	-8.83325
▁pay	-8.83418
▁film	-8.83623
▁list	-8.84124
▁dad	-8.84293
▁p	-8.84441
▁special	-8.84892
▁lost	-8.85059
u	-8.8518
▁body	-8.85232
▁game	-8.85353
▁using	-8.85472
good	-8.85657
▁mad	-8.85822
).	-8.86219
▁hand	-8.86451
▁knew	-8.87004
on	-8.87136
▁ha	-8.87529
▁television	-8.87658
c	-8.87872
▁fact	-8.88548
▁afraid	-8.8877
▁country	-8.88834
▁large	-8.88908
▁squares	-8.89075
▁happens	-8.89101
▁star	-8.8921
▁cares	-8.89248
▁came	-8.89325
▁word	-8.89351
▁hit	-8.8958
if	-8.89704
▁longer	-8.89932
▁picture	-8.90032
▁five	-8.90079
!!!!	-8.90149
▁week	-8.90157
▁met	-8.90199
▁happened	-8.90636
▁parents	-8.90701
▁partner	-8.91123
▁dumb	-8.91422
▁car	-8.91512
h	-8.91531
▁feels	-8.91645
▁under	-8.91941
▁sad	-8.92074
▁miss	-8.92091
▁almost	-8.92194
▁feeling	-8.92221
▁speak	-8.92477
▁kid	-8.93705
lol	-8.94141
▁g	-8.94199
▁bed	-8.94465
▁red	-8.94541
▁lose	-8.94816
▁whole	-8.94933
▁paris	-8.95008
▁instead	-8.95051
▁mama	-8.95132
▁case	-8.95367
▁dead	-8.95435
▁serious	-8.95957
▁doubt	-8.96319
▁aware	-8.96712
▁da	-8.96773
▁joke	-8.96776
▁!	-8.97124
▁watched	-8.97147
▁small	-8.97373
no	-8.97383
▁choice	-8.97518
▁coming	-8.97966
▁attracted	-8.98061
▁wedding	-8.98122
▁played	-8.9823
▁open	-8.98297
▁shows	-8.983
▁thank	-8.98352
▁sweet	-8.98436
▁hi	-8.98886
▁romantic	-8.98986
▁die	-8.99143
▁shy	-8.9916
▁:	-8.99475
▁waiting	-9.00199
▁attention	-9.0029
▁dream	-9.00319
▁broke	-9.00515
▁50	-9.00962
▁past	-9.01417
▁order	-9.0143
▁line	-9.01795
k	-9.01886
▁simple	-9.01929
▁weird	-9.02433
▁totally	-9.02624
▁desire	-9.02804
▁6	-9.03159
▁plus	-9.03683
▁lady	-9.03708
▁guitar	-9.03718
......	-9.03731
▁click	-9.0387
▁yea	-9.04019
▁four	-9.04262
▁less	-9.04314
▁couple	-9.04442
▁club	-9.04804
▁radio	-9.04875
▁size	-9.04933
▁park	-9.05079
▁laugh	-9.05215
▁wont	-9.05436
▁months	-9.06047
▁lie	-9.06421
▁visit	-9.06789
▁group	-9.06837
▁gone	-9.07112
▁shouldn	-9.07132
▁flirt	-9.0716
▁contact	-9.07185
▁late	-9.07578
▁beat	-9.07753
▁sleep	-9.0788
▁perfect	-9.07935
▁didnt	-9.07963
▁straight	-9.08
???	-9.08434
▁bands	-9.08577
▁gave	-9.08608
▁ten	-9.08729
▁started	-9.0901
▁episode	-9.09015
▁top	-9.09125
▁write	-9.0926
▁personally	-9.09574
▁season	-9.09665
▁y	-9.1034
▁bring	-9.1045
▁recommend	-9.10639
▁listening	-9.10827
▁j	-9.1117
▁idol	-9.11408
▁interesting	-9.11514
▁dog	-9.11536
▁dvd	-9.11619
▁continue	-9.12357
▁seeing	-9.12632
▁wasn	-9.12716
▁half	-9.13015
▁computer	-9.13178
▁wear	-9.13183
▁cheated	-9.13709
b	-9.13946
▁kill	-9.14043
▁artist	-9.14486
▁h	-9.14564
▁personality	-9.14613
▁chat	-9.14693
▁problems	-9.15108
▁sign	-9.15111
▁helps	-9.15642
▁telling	-9.15772
▁sings	-9.16023
▁exactly	-9.16245
▁during	-9.1658
▁popular	-9.1658
▁normal	-9.16789
▁brown	-9.16817
▁moment	-9.16818
!)	-9.17328
is	-9.1785
▁amazing	-9.17934
what	-9.18036
▁thinks	-9.18343
▁sick	-9.18622
▁lil	-9.18639
▁along	-9.18707
▁king	-9.18982
▁worst	-9.18989
▁hes	-9.1911
▁son	-9.19145
▁due	-9.19359
▁smart	-9.19601
3	-9.19822
▁today	-9.19976
?"	-9.20204
▁short	-9.20542
▁certainly	-9.20702
▁respect	-9.20947
▁smile	-9.20982
▁sense	-9.21148
▁ass	-9.21245
▁decide	-9.21466
▁blue	-9.21483
▁takes	-9.21701
1	-9.21722
▁ebay	-9.22204
▁meant	-9.22282
▁stand	-9.22605
▁sort	-9.22655
▁story	-9.22832
▁attempt	-9.22894
mail	-9.23093
▁sit	-9.23203
▁future	-9.23285
▁eye	-9.23298
▁series	-9.23486
▁mr	-9.23519
▁fight	-9.23596
she	-9.23903
▁figure	-9.24813
▁obviously	-9.25728
▁share	-9.26076
▁truth	-9.26197
▁wonderful	-9.26315
▁mature	-9.26627
▁younger	-9.27081
▁somebody	-9.2719
▁games	-9.27508
▁pregnant	-9.2752
▁metal	-9.27672
g	-9.27795
▁hello	-9.27887
,"	-9.28003
▁crap	-9.2803
not	-9.28343
▁party	-9.28409
▁realize	-9.2844
they	-9.28479
w	-9.28553
▁careful	-9.28559
▁strong	-9.2858
▁available	-9.28639
▁control	-9.28907
▁hands	-9.28991
▁store	-9.29214
▁homosexual	-9.29341
▁sucks	-9.29403
▁ways	-9.29545
▁player	-9.29638
▁hold	-9.2976
▁appreciate	-9.30011
▁room	-9.30118
▁activity	-9.30135
▁looked	-9.30316
▁bother	-9.30447
▁strange	-9.30823
▁suck	-9.31079
▁death	-9.31095
▁version	-9.31665
z	-9.3168
that	-9.31742
▁boring	-9.32119
▁waste	-9.32261
▁purchase	-9.32321
▁themselves	-9.32491
my	-9.32499
▁honestly	-9.32524
▁daughter	-9.32863
▁romance	-9.32919
▁punk	-9.32948
▁none	-9.33067
▁suppose	-9.33104
▁return	-9.33119
▁inform	-9.33263
▁set	-9.33505
&	-9.33627
▁allow	-9.33663
▁thanks	-9.33888
▁follow	-9.33951
▁inside	-9.34029
f	-9.34444
2	-9.34581
▁himself	-9.34588
▁enjoyed	-9.34786
▁somewhere	-9.35348
▁flowers	-9.35475
▁willing	-9.35524
▁18	-9.35535
▁took	-9.35599
▁;)	-9.35936
▁working	-9.36058
▁jealous	-9.36245
▁twice	-9.36446
▁re	-9.36632
▁actor	-9.36699
▁forever	-9.36937
▁harry	-9.36951
▁fake	-9.36958
▁personal	-9.37521
▁drink	-9.37549
▁pink	-9.37743
▁depend	-9.38046
▁english	-9.38128
▁k	-9.38181
▁couldn	-9.3825
▁damn	-9.38495
▁difference	-9.38563
▁scary	-9.38567
▁style	-9.39062
▁ring	-9.39272
▁comfortable	-9.39357
▁step	-9.39419
▁fast	-9.39471
▁named	-9.3963
▁bf	-9.39647
▁wat	-9.39821
▁address	-9.4012
at	-9.40138
▁alright	-9.40241
just	-9.40277
▁throw	-9.40289
▁bar	-9.4046
▁friendship	-9.40721
▁pop	-9.40831
▁deserve	-9.40944
▁dunno	-9.41059
▁dinner	-9.41083
to	-9.41195
▁kick	-9.41347
▁lead	-9.41448
▁ahead	-9.41549
▁x	-9.41638
en	-9.4169
▁taking	-9.41961
an	-9.42036
▁15	-9.42056
▁drunk	-9.42137
▁link	-9.42217
▁otherwise	-9.42812
▁scared	-9.42821
▁info	-9.42826
▁singing	-9.43055
ta	-9.43123
▁six	-9.43326
▁treat	-9.43495
▁door	-9.43526
▁tom	-9.43616
▁apologize	-9.4364
st	-9.43708
▁mistake	-9.43922
nd	-9.4403
▁explain	-9.44526
▁wit	-9.44562
▁gift	-9.44598
▁flirting	-9.44683
her	-9.45024
▁plan	-9.45032
▁air	-9.45057
▁cry	-9.45272
▁decision	-9.45482
▁dreams	-9.45825
▁myspace	-9.45951
▁issue	-9.46024
▁intercourse	-9.4629
▁action	-9.46607
▁huge	-9.46899
▁worse	-9.46915
▁cheater	-9.46955
▁space	-9.47008
▁accept	-9.47111
▁front	-9.47128
▁chuck	-9.47166
▁easier	-9.47183
left	-9.47505
▁tend	-9.47661
▁birthday	-9.47772
",	-9.48132
▁dump	-9.4828
▁wondering	-9.48322
▁nobody	-9.4847
▁trouble	-9.48528
▁famous	-9.48574
▁dirty	-9.48641
▁l	-9.48793
▁hip	-9.48945
▁involved	-9.49067
▁johnny	-9.49146
▁month	-9.49185
▁giving	-9.49586
▁nope	-9.49701
▁ipod	-9.49834
▁honey	-9.50102
▁behind	-9.50155
▁admit	-9.5025
▁message	-9.5041
▁vote	-9.50437
▁angry	-9.50916
▁20	-9.51036
▁kelly	-9.51045
▁acting	-9.51311
▁slow	-9.51348
▁busy	-9.51406
▁stick	-9.51538
▁character	-9.51633
▁died	-9.51643
▁title	-9.51842
▁taylor	-9.52097
▁shot	-9.5229
▁unsure	-9.52304
▁8	-9.52485
▁john	-9.52504
▁minutes	-9.52722
▁finally	-9.52846
▁7	-9.52892
▁un	-9.53022
▁la	-9.53091
do	-9.53249
--	-9.53476
▁freak	-9.5353
▁felt	-9.53706
▁extreme	-9.53792
▁beach	-9.53799
▁lucky	-9.54152
▁unable	-9.54236
▁currently	-9.54248
▁completely	-9.54267
▁supposed	-9.54373
▁seriously	-9.54375
▁favorites	-9.54807
▁pictures	-9.54829
▁everybody	-9.54872
▁ppl	-9.54886
▁known	-9.54925
▁jack	-9.55146
▁lives	-9.55354
▁add	-9.55545
▁receive	-9.55587
▁spell	-9.55598
▁virgin	-9.55639
▁kidding	-9.55758
▁dislike	-9.55771
▁begin	-9.55836
▁fire	-9.55838
▁shes	-9.56062
▁mess	-9.5609
▁imagine	-9.56104
▁grow	-9.56234
▁th	-9.56303
▁grade	-9.56387
▁chicken	-9.56458
▁relationships	-9.56558
▁drive	-9.56643
▁quit	-9.5691
▁catch	-9.56983
▁pain	-9.57023
▁unfaithful	-9.57193
▁amount	-9.57254
▁enjoyable	-9.57255
▁rich	-9.57376
4	-9.57479
▁females	-9.57508
▁positive	-9.57677
▁color	-9.57785
▁ice	-9.57896
▁worked	-9.58157
▁conversation	-9.58212
▁pants	-9.58287
one	-9.58413
▁born	-9.58792
ting	-9.58835
▁deep	-9.58975
▁state	-9.58996
▁gentleman	-9.59233
▁possibly	-9.59239
▁notice	-9.59255
▁christmas	-9.59257
v	-9.59478
!!!!!	-9.59566
▁loving	-9.604
▁matters	-9.60472
▁water	-9.60505
▁books	-9.60579
▁fell	-9.607
▁above	-9.60787
▁divorce	-9.60853
▁momma	-9.61041
▁kissing	-9.61172
▁plenty	-9.6131
▁videos	-9.61359
al	-9.61362
▁michael	-9.616
▁caught	-9.61822
▁taste	-9.62031
▁fish	-9.6232
▁annoying	-9.62889
don	-9.63154
▁wouldnt	-9.63229
▁alive	-9.63381
▁twenty	-9.63408
▁absolutely	-9.63472
▁expect	-9.63709
▁upset	-9.63954
▁upon	-9.63974
▁lover	-9.64184
▁individual	-9.64184
▁mouth	-9.6427
▁living	-9.6455
▁city	-9.64558
▁food	-9.64931
▁gott	-9.64978
▁excellent	-9.65009
▁terrible	-9.65011
▁luv	-9.65117
▁avoid	-9.65152
▁till	-9.65339
▁ladies	-9.65584
▁classic	-9.65692
like	-9.65894
▁issues	-9.66017
▁hurts	-9.661
▁fool	-9.66276
????????????????	-9.66386
man	-9.66482
▁ruin	-9.66488
▁jackson	-9.66508
!"	-9.66536
its	-9.66538
▁class	-9.66592
▁referring	-9.66652
▁recently	-9.6666
▁bigger	-9.66701
▁option	-9.66968
▁potter	-9.67072
▁heck	-9.67087
▁eventually	-9.67218
▁dark	-9.6723
▁program	-9.67244
▁considered	-9.67332
▁isnt	-9.6734
▁porn	-9.67447
▁dress	-9.67475
▁?	-9.67541
▁street	-9.67572
▁fond	-9.67606
.......	-9.67633
▁road	-9.67754
▁rude	-9.67768
▁except	-9.67914
▁answered	-9.6792
▁cut	-9.6806
▁significant	-9.68314
▁company	-9.68328
▁jessica	-9.68356
▁searching	-9.68376
▁george	-9.68396
▁join	-9.6847
▁match	-9.68589
▁touch	-9.68626
▁glad	-9.68706
▁news	-9.68894
▁sexually	-9.69006
▁crush	-9.69166
▁web	-9.69193
▁original	-9.69203
▁clue	-9.69222
▁em	-9.69412
▁regret	-9.69586
▁jokes	-9.69592
▁penis	-9.70044
▁bet	-9.70343
▁9	-9.70731
so	-9.70855
▁idiot	-9.70968
▁finding	-9.71017
▁joe	-9.71272
▁weight	-9.71387
▁13	-9.71405
▁feet	-9.71438
▁places	-9.71814
▁quality	-9.71852
▁post	-9.72101
▁cartoon	-9.7211
▁channel	-9.72158
▁hours	-9.72216
▁queen	-9.72309
▁1.	-9.72416
▁super	-9.72452
▁aint	-9.72473
x	-9.72478
▁nature	-9.72637
▁gives	-9.72784
▁yours	-9.72869
▁record	-9.72889
nt	-9.72899
▁unfortunately	-9.72942
▁sang	-9.72947
▁save	-9.73147
▁theres	-9.73156
▁soul	-9.73271
▁exist	-9.73306
▁tough	-9.73485
go	-9.73531
▁anywhere	-9.73544
▁view	-9.73632
▁dollars	-9.73884
▁outside	-9.74076
▁paul	-9.74126
▁third	-9.74158
▁emo	-9.74435
▁human	-9.7457
▁example	-9.74573
▁bob	-9.7472
▁dancing	-9.74725
▁newer	-9.75087
▁college	-9.75134
▁reading	-9.75266
▁regardless	-9.75289
▁anybody	-9.75312
▁12	-9.75349
▁interest	-9.75382
up	-9.75531
▁cat	-9.76148
▁adult	-9.76332
▁decent	-9.76504
▁earth	-9.76539
▁eminem	-9.76541
▁lust	-9.76596
▁jerk	-9.76644
▁speaking	-9.76751
all	-9.76882
▁cruise	-9.77108
▁power	-9.77235
▁response	-9.77532
▁card	-9.77617
oh	-9.77729
▁sites	-9.77811
▁provide	-9.77916
▁coz	-9.77967
▁16	-9.77989
▁um	-9.78006
▁butt	-9.78169
▁cent	-9.78236
▁recall	-9.78271
▁present	-9.78677
▁hilton	-9.78943
▁greatest	-9.79095
▁legs	-9.79378
▁mtv	-9.79719
▁mail	-9.7974
▁roses	-9.79744
▁appear	-9.79857
▁ma	-9.79987
▁remind	-9.80042
▁magazine	-9.80079
▁dear	-9.8012
▁cost	-9.80127
▁reality	-9.80226
▁killed	-9.80318
▁dr	-9.80391
▁haha	-9.80462
▁tells	-9.80642
▁rush	-9.80672
▁area	-9.80703
▁tonight	-9.80745
▁hilarious	-9.80828
▁bought	-9.80885
▁broken	-9.81198
▁breasts	-9.81233
▁approach	-9.81272
▁confident	-9.81317
▁ignore	-9.81382
▁silly	-9.81531
▁daddy	-9.81534
▁low	-9.81591
▁whom	-9.8172
▁chick	-9.82005
▁america	-9.82059
▁count	-9.82105
▁david	-9.82122
▁shut	-9.82123
▁musical	-9.82136
▁neither	-9.82163
▁per	-9.82165
▁summer	-9.82574
▁appearance	-9.82601
▁level	-9.8262
▁tho	-9.82826
how	-9.82945
▁smell	-9.83127
▁2.	-9.83177
▁complete	-9.8327
▁cousin	-9.83349
▁stuck	-9.83427
▁box	-9.83492
▁lying	-9.8358
▁forgot	-9.83742
▁near	-9.83992
▁cheap	-9.84084
▁james	-9.84112
▁taken	-9.84378
▁co	-9.84421
▁mostly	-9.8472
▁released	-9.84884
▁brad	-9.84888
▁males	-9.84898
▁ace	-9.84953
▁humor	-9.8498
▁brothers	-9.85249
▁clear	-9.85254
▁actions	-9.85274
▁morning	-9.85386
▁performed	-9.85422
▁focus	-9.8555
▁30	-9.85653
▁asks	-9.85728
me	-9.85769
▁given	-9.86003
▁illegal	-9.86011
▁middle	-9.86079
▁concerned	-9.86101
▁names	-9.86143
▁talented	-9.8615
▁physical	-9.86682
▁mention	-9.86692
▁confused	-9.86804
▁calls	-9.86851
▁express	-9.86931
▁anyways	-9.8706
▁herself	-9.87082
▁shit	-9.87262
▁--	-9.87395
▁missed	-9.87524
▁dat	-9.8756
▁bow	-9.8761
rely	-9.87623
est	-9.87698
as	-9.87701
▁itunes	-9.87821
▁talent	-9.87905
▁station	-9.87997
▁obvious	-9.88071
▁actress	-9.88076
▁excuse	-9.88114
▁whats	-9.88136
▁familiar	-9.88161
▁cold	-9.88187
▁scene	-9.88684
▁force	-9.88741
▁horrible	-9.88756
▁blind	-9.88787
▁poor	-9.88874
▁calling	-9.88908
▁hide	-9.88962
▁pull	-9.88983
▁light	-9.8911
▁christian	-9.89333
▁chocolate	-9.89412
▁rose	-9.89492
▁became	-9.89496
▁town	-9.89738
▁omg	-9.89837
▁helped	-9.89958
▁offer	-9.90038
▁copy	-9.90197
▁average	-9.90261
▁common	-9.90287
▁bored	-9.90292
▁local	-9.90322
▁blood	-9.90337
▁against	-9.90425
▁advise	-9.90608
▁fav	-9.90708
▁acceptable	-9.90855
▁knock	-9.911
▁sell	-9.91482
▁discuss	-9.91515
▁items	-9.91586
▁relations	-9.91726
▁sh	-9.91938
▁secret	-9.92052
▁heavy	-9.92345
▁meaning	-9.92402
▁plays	-9.92541
▁perform	-9.92614
▁tall	-9.92766
love	-9.92798
▁enter	-9.92807
▁negative	-9.92864
▁team	-9.92886
▁brain	-9.92942
▁clothes	-9.93011
▁paid	-9.93113
▁appears	-9.93185
.)	-9.932
▁drugs	-9.9331
▁business	-9.93359
▁q	-9.93445
▁.	-9.93493
▁therefore	-9.93723
▁roll	-9.93734
▁hopefully	-9.93764
▁disney	-9.93773
**	-9.93798
▁nose	-9.93903
▁besides	-9.94071
▁everyday	-9.94494
ther	-9.94575
▁fit	-9.9464
▁id	-9.94643
▁towards	-9.94667
▁engine	-9.94679
▁reasons	-9.94886
hether	-9.94981
▁mp	-9.95098
▁location	-9.95123
▁odd	-9.95865
▁angelina	-9.95877
▁moon	-9.95941
▁tired	-9.95948
▁lord	-9.95983
▁havent	-9.96015
▁ive	-9.96078
▁clean	-9.96097
▁fly	-9.96137
turned	-9.96365
▁jail	-9.9657
▁quickly	-9.96654
▁..	-9.96716
se	-9.96896
▁shop	-9.9696
▁v	-9.97246
▁practice	-9.97389
▁surprised	-9.97459
▁based	-9.97495
am	-9.97575
▁whe	-9.97638
),	-9.97687
▁rent	-9.97769
▁episodes	-9.9779
▁norris	-9.9814
▁forward	-9.98143
▁south	-9.98148
▁curious	-9.98186
▁superman	-9.98204
▁hanging	-9.98521
▁legal	-9.98654
▁support	-9.98876
▁lesbian	-9.98882
▁nasty	-9.98948
▁jump	-9.99263
!!!!!!!!!!!!!!!!	-9.99454
▁manner	-9.99574
▁gross	-9.99589
▁handsome	-9.99658
▁3.	-9.99667
▁ideas	-9.99725
▁dated	-9.99746
▁bill	-9.99776
▁tomorrow	-9.9979
▁:-)	-9.99834
▁fighting	-9.99869
▁dj	-9.99935
▁relax	-9.99985
▁forgive	-10.0002
▁bush	-10.0014
▁push	-10.0014
........	-10.0026
▁ought	-10.0034
▁bout	-10.0034
▁bunch	-10.0041
▁jolie	-10.0046
▁lunch	-10.0048
▁details	-10.0055
▁80'	-10.0057
▁naked	-10.0058
▁learned	-10.006
▁pass	-10.0077
▁....	-10.0092
then	-10.0109
▁doctor	-10.012
▁concert	-10.0122
▁amusing	-10.0201
▁letter	-10.0202
te	-10.0222
▁whenever	-10.0225
▁wearing	-10.0225
▁films	-10.0228
▁ended	-10.0234
old	-10.0236
▁hop	-10.0254
▁position	-10.0275
get	-10.0276
▁unattractive	-10.0277
▁beatles	-10.0281
:)	-10.0288
▁ball	-10.0307
▁individuals	-10.0315
▁carry	-10.0321
▁lee	-10.0342
▁100	-10.0342
▁invite	-10.0343
▁particular	-10.0351
▁definately	-10.0354
▁police	-10.0355
▁vegas	-10.0358
▁websites	-10.0387
▁sea	-10.0394
▁depp	-10.0395
▁keeps	-10.0398
▁ne	-10.0416
▁remain	-10.0417
▁kno	-10.0419
▁item	-10.0421
▁several	-10.0434
well	-10.0435
▁intelligent	-10.0437
▁additionally	-10.0437
▁total	-10.044
▁public	-10.0457
▁sight	-10.046
▁assume	-10.0462
▁missing	-10.0465
▁duh	-10.0465
▁meeting	-10.0484
▁west	-10.0496
▁loose	-10.0512
back	-10.0516
▁beyonce	-10.0518
▁tape	-10.0529
▁wrote	-10.0596
▁spouse	-10.0603
why	-10.0616
▁lips	-10.0622
▁laughing	-10.0626
▁loser	-10.063
▁artists	-10.0633
▁,	-10.0647
▁dates	-10.0664
▁nor	-10.0666
▁include	-10.0667
▁fair	-10.0672
▁14	-10.0673
▁ending	-10.0691
▁sky	-10.0692
▁jesus	-10.0693
▁sometime	-10.0709
▁kissed	-10.071
▁options	-10.0714
▁york	-10.0727
▁fear	-10.0738
▁page	-10.076
▁section	-10.0762
▁expensive	-10.0762
▁creepy	-10.0771
▁jones	-10.0772
▁early	-10.0776
▁track	-10.0781
ie	-10.0793
▁drama	-10.0795
▁stars	-10.0807
▁walking	-10.0808
▁respond	-10.0832
.........	-10.0844
▁running	-10.0844
▁knowledge	-10.0845
▁humorous	-10.0847
▁behavior	-10.0848
▁yellow	-10.0864
▁umm	-10.0881
▁yep	-10.0882
▁law	-10.0887
em	-10.0892
im	-10.0895
▁answering	-10.0898
▁shoes	-10.0907
▁desperate	-10.0927
▁current	-10.0929
▁everywhere	-10.0931
▁april	-10.094
▁candy	-10.0953
▁anime	-10.0961
▁rid	-10.0965
▁mate	-10.0971
▁needed	-10.0979
ne	-10.0997
▁discover	-10.0997
us	-10.0997
▁turns	-10.1002
▁beer	-10.101
▁entire	-10.1011
▁church	-10.1016
▁eating	-10.1018
▁rapper	-10.1021
▁drop	-10.1029
▁bass	-10.1033
net	-10.1056
▁states	-10.1062
▁changed	-10.1074
▁further	-10.1098
▁excited	-10.11
▁unintelligent	-10.11
▁britney	-10.1104
▁mo	-10.1115
▁21	-10.1138
▁de	-10.1155
▁obtain	-10.117
▁mary	-10.1185
▁jennifer	-10.1189
▁evil	-10.1195
▁heaven	-10.1196
▁period	-10.1196
▁beauty	-10.1207
▁rocks	-10.1213
▁basically	-10.1276
▁spice	-10.1277
▁pretend	-10.1302
▁wise	-10.1305
▁17	-10.1327
▁fix	-10.1327
▁code	-10.1354
▁quiet	-10.1358
▁driving	-10.1359
▁mood	-10.1363
▁loud	-10.1363
▁physically	-10.1363
▁extra	-10.1364
▁simpson	-10.1367
▁weeks	-10.1374
▁billy	-10.1381
▁shower	-10.1384
▁lame	-10.1385
▁huh	-10.1387
▁nine	-10.1395
!!!!!!	-10.1436
▁beginning	-10.145
▁monkey	-10.1457
▁genre	-10.1461
▁following	-10.147
▁wars	-10.1505
▁shirt	-10.1513
▁breath	-10.1515
▁lay	-10.1534
▁tongue	-10.1544
▁jim	-10.1546
▁regard	-10.1547
▁thin	-10.1549
▁mountain	-10.1556
▁sports	-10.1563
▁urself	-10.1566
▁blow	-10.1571
▁eight	-10.1577
ur	-10.1577
▁main	-10.1581
▁sooo	-10.1585
▁addition	-10.1614
▁engage	-10.1621
▁jay	-10.1622
▁safe	-10.1623
▁pleasure	-10.1624
▁jus	-10.1627
▁moving	-10.1642
▁al	-10.1647
▁badly	-10.169
▁pursue	-10.1705
▁wild	-10.1706
▁key	-10.1708
▁frequently	-10.1718
▁previously	-10.172
▁bi	-10.1726
▁mentioned	-10.1726
▁starts	-10.1727
▁cash	-10.1732
▁spelling	-10.1755
▁hour	-10.1778
▁wake	-10.1778
▁general	-10.1784
▁chances	-10.1789
▁chose	-10.1796
▁lonely	-10.1817
▁guessing	-10.1828
▁thoughts	-10.1833
▁40	-10.1837
▁ride	-10.1857
▁dave	-10.1859
▁seek	-10.1887
▁burn	-10.1902
▁cover	-10.1908
▁paper	-10.1922
▁smith	-10.1922
▁finger	-10.1922
▁favor	-10.1923
▁st	-10.1928
▁received	-10.1937
▁ain	-10.1939
▁showing	-10.1945
hey	-10.199
▁disagree	-10.1992
▁proceed	-10.1992
▁french	-10.1995
▁appropriate	-10.1996
▁coffee	-10.2
▁90	-10.2001
▁affection	-10.2008
▁avatar	-10.2008
▁subject	-10.2008
▁van	-10.2008
▁normally	-10.2009
ng	-10.2014
▁minute	-10.2016
▁race	-10.2017
▁scare	-10.2023
▁emotions	-10.2027
▁handle	-10.2047
▁hook	-10.2057
▁gifts	-10.207
▁successful	-10.2081
▁awful	-10.2088
▁obsessed	-10.2095
▁bottom	-10.2106
▁reach	-10.2112
▁seven	-10.2122
▁girlfriends	-10.2132
▁teeth	-10.2185
▁shame	-10.2193
▁nicole	-10.2194
▁kevin	-10.2197
▁na	-10.2199
▁wh	-10.22
▁window	-10.2207
▁liking	-10.2215
▁voted	-10.2216
▁)	-10.2227
▁teen	-10.223
8	-10.2233
▁tree	-10.2248
▁tha	-10.2268
▁boss	-10.2269
▁sung	-10.2272
▁emotional	-10.2281
▁horror	-10.2283
▁duff	-10.2284
▁judge	-10.2285
▁appealing	-10.2287
▁promise	-10.2288
▁hmm	-10.229
▁soundtrack	-10.2304
▁indian	-10.2319
▁gun	-10.2324
▁signs	-10.2327
▁moved	-10.2337
▁event	-10.2353
▁hearing	-10.236
▁mike	-10.2361
▁gf	-10.2374
▁skinny	-10.2379
▁celebrity	-10.2381
▁lazy	-10.2383
▁faith	-10.2388
▁lets	-10.2389
cause	-10.2399
▁confidence	-10.2413
there	-10.2416
▁enjoys	-10.2424
be	-10.2428
▁screw	-10.2438
▁comedy	-10.244
▁pro	-10.247
▁fans	-10.2483
▁model	-10.2484
▁calm	-10.2486
▁texas	-10.2489
▁peace	-10.2494
▁nick	-10.2507
▁stated	-10.2509
▁daniel	-10.2512
▁ill	-10.2514
▁pitt	-10.2524
▁acts	-10.2529
▁hits	-10.2566
▁somewhat	-10.2569
▁angel	-10.2575
▁fantastic	-10.2575
▁kong	-10.2583
▁disgusting	-10.2586
▁hill	-10.259
▁attitude	-10.2594
▁plz	-10.2603
▁million	-10.2606
▁albums	-10.2611
?)	-10.2615
▁birth	-10.2627
▁lines	-10.2635
ness	-10.265
▁pray	-10.2662
▁intimate	-10.2673
▁casual	-10.2674
▁attend	-10.2675
▁worried	-10.2676
▁spanish	-10.2678
▁di	-10.2679
▁jerry	-10.2688
▁media	-10.269
▁noticed	-10.2704
▁realy	-10.2707
▁helpful	-10.2709
▁amazon	-10.2713
▁singers	-10.2723
▁trick	-10.2753
▁final	-10.2758
▁hug	-10.2759
▁floyd	-10.2776
▁opportunity	-10.2776
▁messenger	-10.2781
of	-10.2785
▁request	-10.2793
▁sleeping	-10.2813
who	-10.2834
▁cream	-10.2857
▁24	-10.2862
▁ca	-10.2867
▁yrs	-10.2876
▁mix	-10.2888
▁related	-10.2895
▁affair	-10.29
▁sum	-10.2908
▁horse	-10.2915
▁term	-10.2925
▁rule	-10.2959
▁shouldnt	-10.2969
▁sent	-10.297
▁inquire	-10.2973
▁hav	-10.2978
▁boyfriends	-10.2981
▁biggest	-10.2981
▁buddy	-10.2982
le	-10.2989
▁pizza	-10.2989
▁impress	-10.2999
▁elvis	-10.2999
▁peter	-10.3002
yo	-10.3005
▁file	-10.3011
????	-10.3012
▁create	-10.3018
▁carey	-10.3072
▁attract	-10.3081
▁commitment	-10.3086
▁overweight	-10.3086
▁stopped	-10.3086
▁spears	-10.309
▁surprise	-10.3095
▁spelled	-10.3096
▁cheese	-10.3101
▁highly	-10.3103
▁material	-10.3108
▁located	-10.3116
▁gas	-10.3117
able	-10.3125
▁types	-10.3135
can	-10.314
▁dolls	-10.3149
▁las	-10.3189
▁ryan	-10.3193
▁lack	-10.3195
▁writing	-10.3209
▁lies	-10.3212
are	-10.3218
this	-10.3221
▁decided	-10.3232
▁apart	-10.3238
▁wall	-10.3266
▁clubs	-10.3269
▁guns	-10.3269
▁locate	-10.3287
▁joking	-10.3295
▁content	-10.3299
▁service	-10.3323
▁cross	-10.3324
▁friday	-10.3326
▁wanting	-10.3336
▁picked	-10.3341
▁smoke	-10.3343
▁wood	-10.3368
▁experienced	-10.337
▁awhile	-10.3373
▁war	-10.3373
▁spot	-10.3378
▁natural	-10.3392
▁easily	-10.3407
▁kept	-10.3408
▁bird	-10.3412
▁starting	-10.3413
▁passed	-10.3414
hop	-10.3415
▁created	-10.342
▁including	-10.342
▁thier	-10.3436
▁soft	-10.3443
▁4.	-10.3451
▁topic	-10.3465
▁pre	-10.3493
▁fifteen	-10.3513
▁chemical	-10.3513
▁creative	-10.3516
▁mariah	-10.3517
▁hollywood	-10.3522
▁cell	-10.3522
we	-10.3522
▁batman	-10.3527
▁sugar	-10.3533
▁repeat	-10.3539
▁fault	-10.3542
▁animal	-10.3546
▁blond	-10.3563
your	-10.3581
ha	-10.3596
▁bitch	-10.36
▁finish	-10.3603
yes	-10.3603
ce	-10.3616
▁z	-10.3616
for	-10.3618
▁actors	-10.3622
▁previous	-10.3623
▁proud	-10.3623
▁refrain	-10.3623
▁immediately	-10.3623
▁imdb	-10.3624
▁leaving	-10.3627
▁metallica	-10.3635
▁price	-10.3639
▁correctly	-10.3643
▁chest	-10.3654
▁listed	-10.3655
▁skin	-10.3662
▁test	-10.3675
▁knowing	-10.3677
5	-10.3677
▁falling	-10.3689
ry	-10.3694
▁happening	-10.3696
▁contain	-10.3698
ers	-10.3699
▁dogs	-10.3706
▁ends	-10.3736
▁member	-10.3737
▁gentlemen	-10.3737
▁fairly	-10.3738
▁require	-10.3751
▁boobs	-10.3753
▁effort	-10.3757
▁adore	-10.3758
▁magic	-10.376
have	-10.376
▁linkin	-10.3761
▁cow	-10.3788
▁bear	-10.3828
▁double	-10.3835
▁becomes	-10.3845
▁constantly	-10.3847
▁quick	-10.3847
▁celebrities	-10.385
▁tupac	-10.3855
▁art	-10.3855
▁language	-10.3879
▁weekend	-10.3883
sorry	-10.3884
▁performance	-10.3884
▁wishes	-10.3888
▁behave	-10.391
▁19	-10.3921
▁fuck	-10.3941
▁sam	-10.3942
▁possess	-10.3945
▁choices	-10.3947
▁gain	-10.3949
▁foolish	-10.3957
▁mark	-10.396
▁majority	-10.396
▁risk	-10.3969
▁tune	-10.3978
men	-10.3979
▁divorced	-10.3993
▁bisexual	-10.4001
▁role	-10.4004
▁asian	-10.4007
limewire	-10.4019
▁wa	-10.4024
▁colors	-10.4027
▁sir	-10.403
▁sun	-10.4044
▁images	-10.4051
▁martin	-10.4053
▁carrie	-10.4071
▁cds	-10.4076
▁hottest	-10.4078
▁former	-10.409
▁11	-10.409
▁engaged	-10.4092
▁commercial	-10.4111
▁neck	-10.4115
▁cents	-10.4115
▁major	-10.4122
▁rain	-10.4132
j	-10.4133
▁caring	-10.4138
▁ho	-10.4152
ic	-10.417
▁babies	-10.4194
▁prove	-10.4197
▁fantasy	-10.4198
▁history	-10.42
▁california	-10.42
▁idk	-10.4213
rd	-10.4216
▁system	-10.423
▁larger	-10.4231
▁titled	-10.4241
▁bang	-10.4257
▁keeping	-10.426
▁boat	-10.4275
▁dick	-10.4283
▁talks	-10.4297
▁leg	-10.4301
▁phil	-10.4304
▁approximately	-10.4309
▁floor	-10.431
▁madonna	-10.4315
▁unique	-10.4318
▁whose	-10.4318
▁losing	-10.4326
▁wins	-10.4327
▁screen	-10.4334
▁warm	-10.4341
▁whoever	-10.4345
▁realized	-10.4353
▁devil	-10.4364
▁harder	-10.4372
▁arent	-10.4374
▁70	-10.4385
▁rules	-10.4402
▁bruce	-10.4431
▁entirely	-10.4433
▁concern	-10.4445
▁panic	-10.4446
▁shopping	-10.4453
▁drinking	-10.4459
▁office	-10.4463
▁valentine	-10.4468
................	-10.4502
▁desires	-10.4517
▁treats	-10.4521
▁sin	-10.4526
▁select	-10.4538
▁:(	-10.4539
▁patient	-10.4549
▁nearly	-10.4557
▁finished	-10.4563
▁shoot	-10.4572
ar	-10.4587
lyrics	-10.4594
▁checked	-10.46
▁lo	-10.4604
▁button	-10.4639
▁trip	-10.4654
▁deserves	-10.4656
▁talked	-10.4659
▁reply	-10.4663
▁yesterday	-10.4674
maybe	-10.4676
▁insane	-10.468
▁scream	-10.4686
▁prison	-10.4689
▁written	-10.469
▁photo	-10.4713
▁preference	-10.4714
▁piece	-10.4716
▁blondes	-10.4718
▁ghost	-10.4733
▁soap	-10.4736
by	-10.4754
!!!!!!!	-10.4759
▁hates	-10.4766
▁yup	-10.4781
▁buying	-10.4785
▁hilary	-10.4794
▁japanese	-10.4794
▁thirty	-10.4794
▁funniest	-10.4795
▁entertaining	-10.4797
▁smoking	-10.4798
▁revenge	-10.48
▁directly	-10.4801
▁spent	-10.4807
▁gotten	-10.4809
▁beyond	-10.4813
▁ability	-10.4824
▁riddle	-10.4828
year	-10.4829
▁string	-10.4878
▁remove	-10.4899
▁refer	-10.49
▁exciting	-10.4922
▁attraction	-10.4924
▁insecure	-10.4924
▁virginity	-10.4926
▁sucked	-10.4938
!!!!!!!!	-10.4939
▁becoming	-10.4949
▁ran	-10.4952
▁junk	-10.4954
▁shall	-10.4956
▁chicks	-10.4958
▁telephone	-10.4958
▁prince	-10.4973
▁shake	-10.4982
▁25	-10.4983
▁kate	-10.5
▁pair	-10.5006
▁characters	-10.5006
▁eyed	-10.5017
▁steal	-10.5026
▁5.	-10.5034
▁rings	-10.5041
▁bald	-10.5049
▁steve	-10.505
▁incorrect	-10.5051
▁sitting	-10.5052
▁daily	-10.5055
▁tons	-10.5074
▁specific	-10.5083
▁wasnt	-10.5087
▁march	-10.5092
even	-10.5095
▁breast	-10.5096
▁twins	-10.5099
▁egg	-10.51
▁led	-10.5124
▁80	-10.5135
"?	-10.5152
▁pressure	-10.5161
▁career	-10.5171
▁cook	-10.5173
▁bedroom	-10.5174
▁planning	-10.5174
▁offense	-10.5175
▁nirvana	-10.5177
▁billie	-10.5179
▁keith	-10.5179
▁generally	-10.5182
▁sharing	-10.5182
▁selfish	-10.5188
..........	-10.5191
▁sisters	-10.5195
▁se	-10.52
▁crying	-10.5204
▁allowed	-10.521
▁features	-10.5219
▁dollar	-10.5224
▁fave	-10.5225
▁image	-10.5242
▁duck	-10.5252
▁onto	-10.5255
▁travel	-10.5264
▁dan	-10.5275
▁weak	-10.5277
ey	-10.5282
▁downloading	-10.5285
▁60	-10.5302
▁wind	-10.5302
▁superior	-10.5304
▁clothing	-10.5304
▁goin	-10.5311
▁india	-10.5313
▁everytime	-10.5315
!!!!!!!!!!	-10.5323
▁blame	-10.5327
▁sooner	-10.5331
▁inches	-10.5333
▁peas	-10.5338
▁disco	-10.5341
▁attempting	-10.5342
▁adam	-10.5343
▁hole	-10.5347
with	-10.5349
▁cake	-10.535
▁sunday	-10.5357
▁private	-10.5359
out	-10.5359
▁slap	-10.5362
▁listened	-10.5383
▁non	-10.5394
▁cos	-10.5408
▁li	-10.5423
▁lookin	-10.5434
▁basketball	-10.5435
▁katie	-10.5438
▁1980	-10.5453
▁jeans	-10.5458
▁value	-10.549
▁seasons	-10.5508
▁tickets	-10.5509
ally	-10.5517
▁walks	-10.5527
▁closer	-10.5528
▁actual	-10.5544
▁greatly	-10.5545
▁dig	-10.5553
▁communicate	-10.5556
▁assistance	-10.5569
▁entertainment	-10.5569
▁impossible	-10.557
▁impression	-10.5573
▁laid	-10.5575
▁deeply	-10.5577
▁iron	-10.558
▁eachother	-10.5583
▁wives	-10.559
▁bag	-10.5592
▁goodness	-10.5594
▁fox	-10.5596
▁pic	-10.5612
▁con	-10.5617
▁kisses	-10.562
▁hmmm	-10.5626
▁assist	-10.5627
▁ps	-10.5635
▁outcome	-10.5646
▁uses	-10.5668
▁animals	-10.5673
▁pleasant	-10.5686
▁trash	-10.5693
▁enjoying	-10.5696
▁net	-10.57
▁happiness	-10.5707
▁bathroom	-10.5707
▁oprah	-10.5714
▁train	-10.5716
ies	-10.5718
▁rolling	-10.5736
▁result	-10.576
▁mid	-10.5761
▁talkin	-10.5761
▁bro	-10.5781
▁court	-10.5786
▁ac	-10.579
▁honesty	-10.5792
time	-10.5811
▁breaking	-10.5812
▁bo	-10.5818
▁gurl	-10.5821
▁tight	-10.5828
ch	-10.5848
▁kicked	-10.5856
▁kazaa	-10.5862
▁swear	-10.5879
▁disc	-10.5881
▁jerks	-10.5887
▁holding	-10.5888
▁elliot	-10.5891
▁racist	-10.5893
▁account	-10.5895
▁bus	-10.5905
▁couldnt	-10.5917
▁lovely	-10.5923
▁btw	-10.5944
▁foot	-10.5946
▁def	-10.5969
▁activities	-10.5979
less	-10.5984
▁understanding	-10.5986
▁prob	-10.5986
▁hubby	-10.5991
▁dis	-10.5995
▁cheats	-10.6017
▁thick	-10.6019
▁lived	-10.6022
▁hasn	-10.6022
▁dare	-10.6047
▁source	-10.6053
when	-10.6064
▁credit	-10.6073
try	-10.6081
▁simon	-10.609
▁teach	-10.6091
▁belive	-10.6097
▁zac	-10.6105
▁rappers	-10.6117
▁blink	-10.6125
▁jason	-10.6127
▁walmart	-10.6132
▁boyz	-10.6132
▁faithful	-10.6135
▁csi	-10.6148
boy	-10.6165
considering	-10.6172
▁bearshare	-10.6182
▁comics	-10.6196
▁youtube	-10.6199
▁social	-10.6204
!!!!!!!!!	-10.6216
▁ages	-10.6238
▁innocent	-10.6266
because	-10.6267
▁indeed	-10.6267
▁dangerous	-10.6268
▁grace	-10.6273
▁pool	-10.6276
▁uh	-10.6287
▁informed	-10.6292
▁minds	-10.6302
▁brand	-10.6308
▁opposite	-10.633
▁marrying	-10.6345
▁oral	-10.6348
▁dies	-10.6352
mon	-10.6361
▁rate	-10.6386
▁research	-10.6399
▁determine	-10.6401
▁united	-10.641
▁letters	-10.6411
▁dying	-10.6413
▁clarkson	-10.6415
▁featuring	-10.6434
▁afterwards	-10.6439
ok	-10.6443
▁goodbye	-10.6448
▁22	-10.6457
▁quote	-10.6458
▁purple	-10.6479
▁opinions	-10.648
▁cowboy	-10.6481
▁despi	-10.6488
▁gang	-10.6496
▁remix	-10.6497
▁hump	-10.6498
▁land	-10.6503
▁bon	-10.6509
▁resemble	-10.652
▁drums	-10.6529
▁occur	-10.6537
▁task	-10.6538
▁heads	-10.6541
▁mamma	-10.6544
▁earlier	-10.6555
▁ridiculous	-10.6555
▁necessary	-10.6556
▁inuyasha	-10.6559
▁finds	-10.6561
▁til	-10.6562
▁awsome	-10.6562
▁faster	-10.6569
▁soo	-10.657
▁round	-10.6582
▁anytime	-10.6585
▁wut	-10.6593
▁plain	-10.6594
▁!!	-10.6601
ish	-10.6609
▁comment	-10.661
▁arms	-10.661
▁smells	-10.661
ma	-10.6613
▁parts	-10.6628
▁swim	-10.6637
▁fresh	-10.6641
ion	-10.6646
▁soooo	-10.6649
▁ego	-10.666
which	-10.6675
▁simpsons	-10.6695
▁disappointed	-10.6705
▁block	-10.6705
▁underwear	-10.6708
▁addicted	-10.671
▁clearly	-10.6715
▁thirteen	-10.6715
▁lisa	-10.6718
▁required	-10.6723
▁ear	-10.6729
▁hott	-10.6737
▁charge	-10.6741
now	-10.6745
▁stalker	-10.6773
▁selection	-10.6774
▁text	-10.6778
▁grab	-10.6796
▁mi	-10.6797
▁members	-10.6799
▁nicely	-10.6799
▁becua	-10.6808
▁wayne	-10.6816
▁fingers	-10.6834
▁north	-10.6843
some	-10.6847
▁jon	-10.685
▁instant	-10.6855
▁hint	-10.6859
▁complicated	-10.686
▁brian	-10.686
▁according	-10.6861
▁violent	-10.6862
▁june	-10.6864
▁african	-10.6865
▁plane	-10.6869
▁greenday	-10.6874
▁kinds	-10.6877
▁ciara	-10.6878
▁across	-10.6879
▁hoping	-10.6881
▁cha	-10.689
▁numbers	-10.689
▁killing	-10.6908
▁hated	-10.6912
▁2006	-10.6912
▁counts	-10.6914
▁paying	-10.692
▁fails	-10.692
▁flash	-10.6927
▁toilet	-10.6927
▁minor	-10.6928
▁orgasm	-10.6928
▁phrase	-10.6931
▁geek	-10.6932
▁network	-10.6934
▁wire	-10.6936
▁ba	-10.6943
▁wine	-10.6961
▁stranger	-10.6963
▁windows	-10.6988
▁1)	-10.7
▁pu	-10.7006
▁possibility	-10.701
▁confusing	-10.701
▁committed	-10.701
▁2)	-10.7013
▁twelve	-10.7013
▁unaware	-10.7013
▁intelligence	-10.7014
▁hiding	-10.7014
▁religion	-10.7014
▁typically	-10.7015
▁prepared	-10.7016
co	-10.7019
▁brains	-10.7027
▁differently	-10.7054
▁improve	-10.7063
▁seeking	-10.7067
▁companion	-10.7085
▁rumor	-10.7086
girl	-10.7086
▁mall	-10.7087
▁le	-10.7088
▁downloads	-10.7095
▁jam	-10.7103
▁hurting	-10.7132
▁usher	-10.714
▁hat	-10.7157
▁multiple	-10.7166
▁breakfast	-10.717
▁shallow	-10.7171
▁pornography	-10.7171
▁treated	-10.7184
▁booty	-10.7193
▁shave	-10.7195
▁gal	-10.7201
▁believed	-10.722
▁san	-10.7237
▁events	-10.7239
▁hints	-10.7239
▁recent	-10.7242
▁connection	-10.7246
▁ticket	-10.725
▁stones	-10.725
ck	-10.7262
▁incredible	-10.7267
▁apple	-10.7276
▁loss	-10.7279
▁island	-10.7289
▁via	-10.7305
▁balls	-10.7309
▁rip	-10.7311
▁acquire	-10.7316
▁flow	-10.7318
▁surely	-10.732
▁random	-10.7321
▁build	-10.7328
▁earn	-10.7329
▁slowly	-10.7343
▁lovers	-10.7344
▁lately	-10.7346
▁charlie	-10.7346
▁lime	-10.7353
▁solo	-10.7359
▁gre	-10.736
7	-10.7363
▁freakin	-10.7366
▁health	-10.739
▁gals	-10.739
▁yr	-10.7405
▁learning	-10.741
▁uncle	-10.7432
▁terms	-10.7446
▁abuse	-10.7465
thats	-10.7467
▁cared	-10.748
▁proper	-10.7483
▁friendly	-10.7485
▁protection	-10.7486
▁katherine	-10.7486
▁guilty	-10.749
▁eric	-10.7491
▁sensitive	-10.7492
▁mixed	-10.7495
▁stronger	-10.7503
▁load	-10.7504
▁bite	-10.7505
▁stands	-10.7509
▁nelly	-10.751
▁drag	-10.7516
▁boo	-10.7531
▁purchased	-10.7543
▁pie	-10.7551
▁release	-10.7551
▁opera	-10.7554
▁records	-10.7561
▁stage	-10.7562
▁pure	-10.7565
▁someday	-10.7566
▁purpose	-10.7568
▁statement	-10.7571
king	-10.7572
▁snow	-10.7573
▁saturday	-10.7574
▁gold	-10.7581
red	-10.7587
ask	-10.7598
▁23	-10.7599
▁within	-10.7601
▁wolf	-10.761
▁picking	-10.7613
▁nervous	-10.7617
▁bright	-10.7627
▁mistakes	-10.7627
▁moves	-10.7632
▁rub	-10.7644
▁piano	-10.7649
▁cried	-10.7651
▁jovi	-10.7652
▁murder	-10.7652
▁september	-10.7654
▁began	-10.7654
▁form	-10.7655
▁alcohol	-10.7656
ley	-10.766
▁stores	-10.7662
▁sweetie	-10.7667
▁jesse	-10.7675
▁suggestions	-10.7705
▁speed	-10.7706
▁manga	-10.7709
▁ground	-10.771
▁alternative	-10.7724
▁software	-10.7729
▁brunette	-10.7736
▁interests	-10.7737
!!!!!!!!!!!!!!!	-10.7742
▁massage	-10.7744
▁commit	-10.7755
▁weren	-10.777
▁staying	-10.7781
▁miles	-10.7782
▁;-)	-10.7801
▁seat	-10.7811
▁unfortunate	-10.7814
▁process	-10.7816
▁patrick	-10.7816
▁lohan	-10.7817
▁threw	-10.7817
▁gender	-10.7817
▁immature	-10.7817
▁exact	-10.782
▁modern	-10.7821
▁slipknot	-10.7825
▁afford	-10.7825
▁discovered	-10.7826
▁bobby	-10.7826
▁kellie	-10.783
▁active	-10.7836
▁performing	-10.7841
▁welcome	-10.7843
▁frank	-10.7846
▁growing	-10.7856
▁stone	-10.7859
▁peppers	-10.7861
▁among	-10.7866
▁yall	-10.787
▁yell	-10.7877
▁relate	-10.7879
▁cartoons	-10.788
▁condom	-10.7905
???????????????	-10.7906
▁diamond	-10.7909
▁sake	-10.7921
▁mc	-10.7932
▁sean	-10.7937
▁gosh	-10.7939
▁holy	-10.7942
▁parent	-10.7945
***	-10.7946
▁leo	-10.7952
▁variety	-10.7986
▁replied	-10.7986
▁potential	-10.7986
▁distance	-10.7988
▁files	-10.7989
▁maiden	-10.7991
▁silent	-10.7996
▁pearl	-10.7998
▁chicago	-10.7999
▁satisfied	-10.7999
▁chinese	-10.7999
▁moore	-10.8002
▁milk	-10.8002
▁eddie	-10.8003
▁perfectly	-10.8004
dependent	-10.8009
▁vs	-10.8011
▁crash	-10.8013
dont	-10.8023
▁planet	-10.8031
▁base	-10.8036
▁usa	-10.8062
▁grand	-10.8066
▁staring	-10.8069
▁musicians	-10.8082
▁flower	-10.81
▁bye	-10.8117
▁comic	-10.8139
▁wheth	-10.8141
▁cast	-10.8154
▁unpleasant	-10.8154
▁introduce	-10.8156
▁fancy	-10.8158
▁beleive	-10.8159
▁stomach	-10.8159
▁pathetic	-10.816
▁education	-10.8161
▁inappropriate	-10.8162
▁ocean	-10.8162
▁ignorant	-10.8167
▁naughty	-10.8167
▁promiscuous	-10.8167
▁solve	-10.8168
▁posted	-10.8171
▁fashion	-10.8171
▁rhythm	-10.8172
▁fo	-10.8173
▁latest	-10.8174
▁label	-10.8174
▁strip	-10.8175
▁kim	-10.8178
▁pe	-10.8181
▁stations	-10.8192
▁bu	-10.8194
tta	-10.8198
▁protect	-10.8208
▁drug	-10.821
---	-10.8211
▁truely	-10.822
rs	-10.8222
▁experiences	-10.8225
▁dreaming	-10.8225
▁mexican	-10.8255
▁press	-10.827
▁waited	-10.8283
▁truck	-10.8294
▁east	-10.8299
mp	-10.8306
▁doors	-10.8312
▁belong	-10.832
▁master	-10.8321
▁bloom	-10.8322
▁unusual	-10.8329
tell	-10.8329
▁effective	-10.8331
▁method	-10.8334
▁library	-10.8334
music	-10.8335
▁sarah	-10.8335
▁shakira	-10.8338
▁stories	-10.8338
▁naruto	-10.8342
▁orlando	-10.8342
▁partners	-10.8349
▁obese	-10.835
▁korn	-10.8351
▁ashley	-10.8352
▁strike	-10.8368
?!	-10.8371
▁chase	-10.8372
american	-10.84
▁idiots	-10.8402
age	-10.8413
let	-10.8416
▁shape	-10.8418
▁approve	-10.8419
▁communication	-10.8429
▁results	-10.8438
▁sat	-10.8442
▁rob	-10.8443
▁cable	-10.8453
▁report	-10.8461
▁anger	-10.8484
▁convince	-10.8498
▁prior	-10.8502
▁category	-10.8512
▁regular	-10.8516
▁sixteen	-10.8517
▁lindsay	-10.8521
na	-10.8527
▁strongly	-10.8528
▁saving	-10.8529
▁eggs	-10.8534
▁complain	-10.8539
▁attempted	-10.8541
▁bucky	-10.8542
▁plot	-10.8547
▁stayed	-10.8576
▁exists	-10.8577
▁lower	-10.858
▁equal	-10.8584
▁compare	-10.8599
▁professional	-10.8612
▁split	-10.8612
▁ears	-10.8616
▁robert	-10.8619
▁teacher	-10.8622
▁ti	-10.8624
▁/	-10.8641
▁watches	-10.8641
0	-10.8644
▁cup	-10.8654
▁beats	-10.8664
▁snoop	-10.8671
▁meat	-10.8677
▁si	-10.8679
▁apply	-10.8685
▁coitus	-10.8694
▁efron	-10.8694
▁uncomfortable	-10.8694
▁slightly	-10.8695
▁appeal	-10.8695
▁uncertain	-10.8698
▁brilliant	-10.8698
▁confront	-10.8698
▁polite	-10.8703
▁weather	-10.8709
▁mouse	-10.8709
▁proof	-10.8712
▁gettin	-10.8719
day	-10.8721
bad	-10.8721
▁abc	-10.874
▁intend	-10.876
▁sweat	-10.8767
▁toys	-10.8768
▁los	-10.8777
▁challenge	-10.8778
▁flat	-10.8781
▁occasion	-10.8788
ent	-10.8799
▁wears	-10.8815
▁escape	-10.8824
▁center	-10.8824
▁ray	-10.8825
pm	-10.8844
▁wierd	-10.8855
▁sa	-10.8867
▁fart	-10.8869
▁tour	-10.887
▁encourage	-10.8875
▁qualities	-10.8879
▁football	-10.8879
▁seventeen	-10.8879
▁counseling	-10.8881
▁slept	-10.8881
▁mandisa	-10.8884
▁genuine	-10.8888
▁gwen	-10.8888
▁accomplish	-10.8889
▁slim	-10.889
▁seconds	-10.8891
▁accident	-10.8893
▁describe	-10.8896
▁hooked	-10.8897
▁fill	-10.8897
▁july	-10.8898
▁dumped	-10.8899
▁usual	-10.8902
▁moron	-10.8909
▁pa	-10.8917
▁provided	-10.8923
▁wo	-10.8928
el	-10.893
▁dragon	-10.8939
▁height	-10.894
▁sounded	-10.8942
▁cards	-10.8947
▁crack	-10.8951
▁pack	-10.8959
▁audio	-10.8969
▁scorpio	-10.897
▁bra	-10.897
▁fail	-10.8974
▁twin	-10.8982
▁pocket	-10.8985
ity	-10.8989
ra	-10.9022
▁lied	-10.9026
▁mommy	-10.9026
▁dem	-10.9041
www	-10.9044
▁agent	-10.9066
▁mccartney	-10.9068
▁barely	-10.9071
▁lick	-10.9075
▁target	-10.9077
▁blunt	-10.9078
▁chili	-10.9078
▁urban	-10.9081
▁gorgeous	-10.9082
▁gary	-10.9085
▁jimmy	-10.9085
▁guide	-10.9085
▁painful	-10.91
▁despise	-10.9106
▁seemed	-10.9121
free	-10.9132
▁harm	-10.9135
▁tabs	-10.9142
▁eve	-10.9157
▁mistaken	-10.9162
▁thru	-10.9167
look	-10.9173
▁dvds	-10.9175
▁elephant	-10.9177
▁machine	-10.9177
▁passion	-10.9179
▁itself	-10.9181
▁tony	-10.9189
▁math	-10.9192
▁hundred	-10.9195
▁couples	-10.9197
etc	-10.9197
▁poop	-10.9215
ous	-10.9218
▁te	-10.9233
▁bars	-10.9235
▁hahaha	-10.924
▁theme	-10.9254
▁happier	-10.926
▁eighteen	-10.926
▁halen	-10.9261
▁occasionally	-10.9261
▁somthing	-10.9261
▁false	-10.9262
▁slayer	-10.9262
▁wealthy	-10.9264
▁jazz	-10.9266
▁apparently	-10.9266
▁kool	-10.9266
▁wicked	-10.9267
▁bless	-10.927
▁field	-10.927
▁attack	-10.9274
ts	-10.9275
▁hurry	-10.9275
▁horny	-10.9275
▁concerning	-10.9277
▁hammer	-10.9279
▁viewed	-10.9287
▁blues	-10.9293
▁tommy	-10.9295
▁ar	-10.9296
▁score	-10.9312
▁pounds	-10.9314
▁nah	-10.9321
▁lean	-10.9339
▁downloaded	-10.9343
ant	-10.9354
sh	-10.9358
▁comments	-10.9365
▁compliment	-10.9377
▁comp	-10.9384
▁pig	-10.9391
▁hung	-10.9399
............	-10.9403
▁aries	-10.9421
▁tim	-10.9427
▁bump	-10.943
▁theater	-10.9434
▁recognize	-10.9445
lly	-10.9447
▁gemini	-10.9456
▁memory	-10.9456
▁society	-10.9456
▁uk	-10.9457
▁smiling	-10.9457
▁pet	-10.9459
▁bible	-10.946
▁depressed	-10.9461
▁goo	-10.9462
▁golden	-10.9469
▁bam	-10.9471
▁rooms	-10.9476
▁firstly	-10.9478
▁wwe	-10.9485
▁williams	-10.9491
▁beast	-10.9504
▁bucks	-10.9511
▁ummm	-10.9512
▁suit	-10.9517
▁abt	-10.9519
dc	-10.9523
▁host	-10.9541
▁hood	-10.9555
▁vacation	-10.9566
▁aside	-10.9566
▁pussycat	-10.9571
▁reaction	-10.9573
▁27	-10.9577
▁leaves	-10.9579
▁restaurant	-10.9579
▁begins	-10.9581
▁holiday	-10.9584
▁musician	-10.9585
▁scale	-10.9586
▁alien	-10.9586
▁messages	-10.9596
▁joy	-10.96
▁access	-10.9619
▁incredibl	-10.9625
▁vh	-10.9626
▁admire	-10.9636
where	-10.964
never	-10.9641
▁mutual	-10.9652
▁useful	-10.9654
▁gibson	-10.9656
▁goofy	-10.9656
▁garbage	-10.9661
▁plastic	-10.9661
▁jamie	-10.9662
▁unlike	-10.9665
▁dancer	-10.9667
▁jumped	-10.9669
▁hicks	-10.9669
▁kenny	-10.9671
▁screaming	-10.9673
▁skills	-10.9676
▁bullet	-10.9677
▁river	-10.9679
▁witch	-10.9683
act	-10.9687
▁asleep	-10.9696
his	-10.9714
▁magazines	-10.9716
▁dang	-10.9727
▁std	-10.9729
ever	-10.9738
▁darn	-10.9745
▁propose	-10.9748
ation	-10.9764
▁director	-10.9772
▁mirror	-10.9777
▁neighbor	-10.9777
▁ideal	-10.9778
▁lion	-10.978
▁cancer	-10.9782
▁remake	-10.9783
▁rubber	-10.9789
org	-10.9803
ny	-10.9817
▁cole	-10.9817
▁closet	-10.9823
▁keys	-10.9824
▁liar	-10.983
▁includes	-10.9858
▁hillary	-10.986
▁england	-10.986
▁fifty	-10.9861
▁blah	-10.9861
▁doc	-10.9864
▁zeppelin	-10.9865
.............	-10.9866
▁rarely	-10.9867
▁lopez	-10.9868
▁freaks	-10.987
▁argue	-10.9882
head	-10.9888
▁grey	-10.9889
rock	-10.9893
▁saved	-10.9899
▁circumstances	-10.99
ke	-10.9905
▁wi	-10.9919
▁chorus	-10.9923
▁jane	-10.9975
▁corner	-10.9981
▁vampire	-10.9985
▁drummer	-10.9985
▁stripper	-10.9986
▁contest	-10.9988
▁rabbit	-10.9988
▁monster	-11
...........	-11.0005
friend	-11.0007
▁feed	-11.0009
▁consume	-11.0024
▁killer	-11.0029
▁worthy	-11.0029
▁yah	-11.0029
▁babe	-11.0033
ssed	-11.0039
▁stole	-11.0055
▁utilize	-11.0056
▁observe	-11.006
▁intoxicated	-11.007
▁romantically	-11.0072
▁bubba	-11.0073
▁intended	-11.0075
▁changes	-11.0076
▁emotionally	-11.0076
▁particularly	-11.0077
▁hoopz	-11.0079
▁lesbians	-11.008
▁yelling	-11.0082
▁culture	-11.0082
ring	-11.0084
▁flying	-11.01
id	-11.0101
▁included	-11.0107
▁josh	-11.0114
▁nerves	-11.0114
▁freaky	-11.0122
▁182	-11.0123
▁pee	-11.0127
▁alba	-11.0137
▁loyal	-11.0143
▁pigs	-11.0147
▁fu	-11.0151
▁tone	-11.0154
▁shoe	-11.0157
▁opening	-11.0157
▁associate	-11.0182
▁definition	-11.0187
ether	-11.02
▁weigh	-11.0206
▁bat	-11.0218
▁direct	-11.0233
▁meal	-11.0239
▁leads	-11.0243
▁mac	-11.0244
from	-11.0244
▁bath	-11.0246
▁lyric	-11.025
▁hips	-11.0261
de	-11.0272
think	-11.0275
▁tale	-11.0275
▁somethin	-11.0277
▁cease	-11.028
▁stress	-11.0282
▁homework	-11.0284
▁louie	-11.0287
▁license	-11.0289
right	-11.029
▁equally	-11.029
▁hindi	-11.0291
▁infidelity	-11.0291
▁note	-11.0294
▁hotter	-11.0306
▁mental	-11.0309
▁juice	-11.0309
▁players	-11.0314
▁fourth	-11.0315
▁showed	-11.0317
▁glass	-11.0321
▁9.	-11.0327
ay	-11.0331
▁nails	-11.0332
▁central	-11.0335
▁pete	-11.0343
▁fred	-11.0356
▁fools	-11.0395
take	-11.0407
▁sides	-11.041
▁strangers	-11.0413
way	-11.0413
▁teenager	-11.0425
▁tease	-11.044
▁lane	-11.044
▁camera	-11.0442
▁notes	-11.0467
ment	-11.0477
▁couch	-11.0498
▁hospital	-11.0498
▁feminine	-11.0499
▁entitled	-11.0499
▁experiencing	-11.05
▁maintain	-11.0502
▁awkward	-11.0504
▁dozen	-11.0505
▁tiger	-11.0507
▁mentally	-11.0509
▁halloween	-11.051
▁raise	-11.0511
▁titanic	-11.0515
▁pimp	-11.0516
▁impressed	-11.0516
▁cheaper	-11.0517
▁teenage	-11.0518
▁ozzy	-11.0523
▁cruel	-11.0524
▁atleast	-11.0529
▁paint	-11.0539
▁kany	-11.054
▁costs	-11.0543
▁recording	-11.0545
▁higher	-11.0546
▁touching	-11.0561
▁min	-11.0565
ty	-11.0568
▁1990	-11.0569
▁tips	-11.0575
▁beg	-11.0583
▁torrent	-11.0585
▁draw	-11.0596
▁hardly	-11.0599
▁basic	-11.0609
▁stare	-11.061
▁standing	-11.0613
▁sale	-11.0626
▁lock	-11.0631
ive	-11.0632
▁advantage	-11.0633
▁favourite	-11.0643
▁ny	-11.0664
▁exercise	-11.067
▁pics	-11.0682
▁angels	-11.0688
▁connect	-11.0692
▁settle	-11.0707
▁causes	-11.0711
▁sincere	-11.0713
▁perspective	-11.0721
▁permission	-11.0721
▁pissed	-11.0724
▁parties	-11.0725
▁understood	-11.0728
▁responsible	-11.0729
▁naturally	-11.0733
▁winning	-11.0734
▁courage	-11.0735
▁rocky	-11.074
▁en	-11.0741
line	-11.0744
download	-11.0745
!!!!!!!!!!!	-11.0748
▁personals	-11.0752
▁laughed	-11.0757
▁lessons	-11.0763
▁edge	-11.0764
▁viewing	-11.0767
any	-11.0776
▁mile	-11.0777
▁banks	-11.078
▁aids	-11.0786
▁!!!	-11.0791
▁bugs	-11.0795
▁gr	-11.0796
▁goals	-11.0798
▁hearts	-11.081
▁rejects	-11.0812
yeah	-11.0814
too	-11.0823
▁starr	-11.083
▁groups	-11.0859
▁influence	-11.0864
▁reject	-11.0866
google	-11.0866
▁photos	-11.0866
▁profile	-11.0867
▁flick	-11.0878
▁spring	-11.0883
▁pat	-11.0884
▁orange	-11.0884
▁winner	-11.0892
▁fully	-11.0919
▁checking	-11.0927
▁fa	-11.0936
▁husbands	-11.0937
▁adorable	-11.0948
▁accompany	-11.0949
▁sold	-11.0951
▁happily	-11.0953
▁classes	-11.0964
▁necessarily	-11.0969
▁tunes	-11.0972
▁assuming	-11.0973
▁smarter	-11.0974
▁joel	-11.0974
▁princess	-11.0975
▁spam	-11.098
▁affect	-11.098
▁award	-11.0993
▁bomb	-11.0993
▁habit	-11.0999
▁nuts	-11.1005
▁heights	-11.1047
▁tool	-11.1049
▁makeup	-11.1054
▁advance	-11.1085
▁psycho	-11.1095
▁sequel	-11.1099
▁clown	-11.11
recorded	-11.1101
▁flirts	-11.1105
▁commercials	-11.1109
▁spin	-11.111
▁guitarist	-11.1111
▁virgo	-11.1112
▁hills	-11.1127
▁smooth	-11.1145
▁45	-11.1161
lie	-11.1166
▁deny	-11.1166
▁cop	-11.1167
▁3)	-11.1173
▁hoo	-11.1175
▁existence	-11.1181
▁pursuing	-11.1181
▁stefani	-11.1182
▁prevent	-11.1182
▁success	-11.1182
hi	-11.1184
▁empty	-11.1186
▁redneck	-11.1186
▁baseball	-11.1186
▁suddenly	-11.1187
▁table	-11.1188
▁vinci	-11.1188
▁hitting	-11.119
▁romeo	-11.1191
▁mickey	-11.1193
▁gently	-11.1193
▁hottie	-11.1195
▁brave	-11.1197
▁msn	-11.1203
▁netflix	-11.1204
▁mainly	-11.1205
▁drum	-11.1208
▁manson	-11.121
ut	-11.1212
▁smaller	-11.1214
▁rape	-11.1223
▁joey	-11.1231
▁official	-11.1231
▁kat	-11.1232
▁interview	-11.1241
▁paula	-11.1246
▁edit	-11.1257
▁dun	-11.1262
▁jobs	-11.1266
▁aspect	-11.1279
▁condoms	-11.1293
▁clip	-11.13
▁bottle	-11.1337
▁zombie	-11.1348
ya	-11.1356
▁building	-11.1356
▁wings	-11.1374
five	-11.1383
▁react	-11.1384
▁arm	-11.139
▁tea	-11.1399
▁annoy	-11.1402
▁cars	-11.141
▁1/2	-11.141
▁pen	-11.1416
▁godsmack	-11.1418
▁acquainted	-11.1418
▁unhappy	-11.1419
▁attached	-11.1419
▁extent	-11.1421
▁ensure	-11.1422
▁puppy	-11.1424
▁sincerely	-11.1427
▁consequences	-11.1432
▁randy	-11.1432
▁10.	-11.1432
ad	-11.1436
▁captain	-11.1436
▁gangsta	-11.1437
▁converse	-11.1438
▁fiction	-11.1449
▁sixth	-11.145
▁blast	-11.1451
▁returned	-11.1453
▁wen	-11.1453
▁techno	-11.1463
▁charmed	-11.1464
▁switch	-11.1464
▁dressed	-11.1466
▁spy	-11.1466
▁whore	-11.1492
▁vhs	-11.1494
▁tip	-11.1495
▁grown	-11.1503
▁teenagers	-11.1509
▁tie	-11.1516
▁tastes	-11.1535
▁mar	-11.1545
▁motion	-11.155
▁spirit	-11.1563
▁sentence	-11.1563
▁que	-11.1566
▁president	-11.1578
▁yankee	-11.158
▁sweetheart	-11.158
▁limit	-11.1581
▁legend	-11.1584
▁suggestion	-11.1585
▁goal	-11.1592
▁era	-11.1595
▁fi	-11.1602
▁plans	-11.1612
▁hotel	-11.1613
▁raven	-11.1618
▁yu	-11.1624
▁noise	-11.1628
▁dirt	-11.1646
imdb	-11.1651
hello	-11.1654
boyfriend	-11.1655
▁delete	-11.1655
▁punch	-11.1662
▁houston	-11.1662
▁mexico	-11.1662
▁poison	-11.1663
▁priority	-11.1663
▁query	-11.1663
▁receiving	-11.1664
▁genuinely	-11.1667
▁typing	-11.1667
▁bubble	-11.1668
▁camp	-11.1668
▁spongebob	-11.1668
▁lucy	-11.1668
▁failed	-11.1669
▁charming	-11.1669
▁allows	-11.167
▁electric	-11.1676
▁drawn	-11.1678
▁johnson	-11.1682
▁bowling	-11.169
ful	-11.1703
▁bones	-11.1723
▁bell	-11.1728
▁grandma	-11.1735
▁voices	-11.1738
▁twist	-11.1741
▁visiting	-11.1747
▁smiles	-11.1747
▁rough	-11.1758
▁pc	-11.1759
▁tab	-11.176
▁35	-11.1766
▁pays	-11.177
cool	-11.1776
▁continues	-11.1785
▁ska	-11.1798
▁humps	-11.18
▁weed	-11.1802
▁spit	-11.181
▁solution	-11.1823
unless	-11.1826
▁emotion	-11.1827
erto	-11.1829
▁belief	-11.1837
▁bride	-11.1839
▁thousand	-11.1842
▁fellow	-11.1842
▁closed	-11.1848
▁wasted	-11.1853
best	-11.1889
▁battle	-11.1889
▁participate	-11.1897
▁drinks	-11.19
▁fr	-11.19
▁fourteen	-11.1908
▁accurate	-11.191
▁charlotte	-11.1912
▁london	-11.1912
▁responsibility	-11.1912
▁intimacy	-11.1913
▁prolly	-11.1913
▁demonstrate	-11.1916
▁properly	-11.192
▁taller	-11.1921
▁bunny	-11.1922
▁length	-11.1927
▁childish	-11.1928
▁bond	-11.1929
▁teddy	-11.1931
▁hoe	-11.194
▁capable	-11.1942
▁fucking	-11.1942
▁gilmore	-11.1944
ling	-11.1952
▁fame	-11.1961
▁dosent	-11.1962
ted	-11.1964
▁tears	-11.1975
▁28	-11.1978
▁lifetime	-11.1982
lo	-11.1984
big	-11.1992
▁fired	-11.1993
!!!!!!!!!!!!!!	-11.2002
▁zoo	-11.2006
very	-11.2015
wow	-11.2021
ist	-11.2031
▁programs	-11.2032
ter	-11.2037
▁difficulty	-11.204
▁rumors	-11.2043
▁turning	-11.2052
▁wide	-11.2066
▁priest	-11.2078
▁gym	-11.2084
▁accent	-11.2086
▁direction	-11.2087
▁disease	-11.2088
▁drives	-11.209
▁burger	-11.2092
▁eh	-11.21
▁homer	-11.2102
▁crowd	-11.2102
▁julia	-11.2136
▁url	-11.2137
▁genres	-11.2141
▁fiance	-11.2143
▁tyra	-11.2154
▁sufficient	-11.2166
▁jeff	-11.2166
▁enemy	-11.2168
▁easiest	-11.2169
▁violence	-11.2169
▁replies	-11.2169
▁security	-11.217
▁choosing	-11.2171
▁board	-11.2174
▁journey	-11.2175
▁infatuation	-11.2175
▁biggie	-11.2176
azlyrics	-11.2176
▁china	-11.2178
▁returns	-11.2179
▁changing	-11.2184
▁luke	-11.2186
▁attended	-11.2186
▁ruined	-11.219
▁dresses	-11.2192
10	-11.22
▁folks	-11.2211
▁flip	-11.2216
▁heels	-11.2217
▁26	-11.2217
pac	-11.2221
▁riding	-11.2226
our	-11.2231
▁****	-11.2233
▁claims	-11.2234
would	-11.2242
▁nude	-11.225
▁8.	-11.2253
▁tattoos	-11.2254
▁situations	-11.2264
▁involve	-11.227
▁360	-11.2277
▁pr	-11.228
▁indicate	-11.228
▁vin	-11.228
▁exceptional	-11.229
▁sry	-11.229
▁dealing	-11.2309
off	-11.231
▁shoulders	-11.234
▁grandmother	-11.234
▁reference	-11.234
▁swing	-11.2341
▁cheek	-11.2344
▁destiny	-11.2354
▁jacket	-11.2355
▁instance	-11.2357
ize	-11.2358
ary	-11.2359
▁product	-11.2375
▁eva	-11.2393
▁kicks	-11.2405
great	-11.2413
▁australia	-11.2416
▁separate	-11.2421
▁backstreet	-11.2425
▁collect	-11.2427
▁genius	-11.2429
▁tracks	-11.243
▁holmes	-11.2432
▁florida	-11.2432
▁arrogant	-11.2432
▁december	-11.2432
▁aquarius	-11.2432
▁british	-11.2432
▁beneficial	-11.2432
▁lawyer	-11.2432
▁grammar	-11.2432
▁thomas	-11.2432
▁notebook	-11.2432
▁eleven	-11.2432
▁mysterious	-11.2432
▁childhood	-11.2432
▁rascal	-11.2432
▁spread	-11.2432
▁trunk	-11.2433
▁driver	-11.2434
▁rejected	-11.2437
▁compatible	-11.2438
▁stevie	-11.2438
▁heterosexual	-11.2438
▁nbc	-11.2444
▁barry	-11.2447
▁pulled	-11.2449
▁twisted	-11.245
▁marily	-11.2452
▁belly	-11.2454
▁socks	-11.2467
▁actresses	-11.2473
▁hun	-11.2479
▁expecting	-11.2483
bay	-11.2485
▁libra	-11.2488
▁adults	-11.2506
▁suffer	-11.2512
▁sand	-11.252
does	-11.2522
▁wil	-11.2531
▁richard	-11.2534
▁theory	-11.254
tv	-11.2544
▁agreed	-11.2557
la	-11.2564
▁corn	-11.2565
!!)	-11.2571
▁breaks	-11.2575
▁gods	-11.2589
him	-11.2591
▁sue	-11.2593
▁forty	-11.2604
▁perfume	-11.2604
▁chill	-11.2604
▁feature	-11.2606
▁shoots	-11.2607
▁gum	-11.2607
▁possession	-11.2615
▁soulmate	-11.2615
▁generation	-11.2616
▁wet	-11.2624
▁trailer	-11.2625
un	-11.263
!!!!!!!!!!!!	-11.2637
▁crime	-11.2645
▁lift	-11.2646
▁bull	-11.2658
▁dry	-11.2661
ance	-11.2668
▁jk	-11.2671
um	-11.2672
▁august	-11.2692
▁beep	-11.2694
▁rachel	-11.2702
▁italian	-11.2702
▁religious	-11.2702
▁barney	-11.2702
▁wilson	-11.2702
▁niece	-11.2708
▁impressive	-11.2709
▁status	-11.271
▁arrested	-11.271
ee	-11.2711
▁rory	-11.2711
▁contract	-11.2713
▁virus	-11.2713
▁miami	-11.2715
▁project	-11.2715
▁originally	-11.2718
▁wud	-11.272
▁proposed	-11.272
▁phantom	-11.2722
only	-11.2728
▁carefully	-11.2731
▁launch	-11.2738
▁jumping	-11.2739
▁represent	-11.2743
▁scenes	-11.2744
▁fairy	-11.2744
▁reruns	-11.2746
▁dnt	-11.2748
▁invited	-11.2749
▁standards	-11.275
▁su	-11.2758
▁jumps	-11.2759
▁rite	-11.2766
▁messing	-11.2767
▁inch	-11.2774
▁grass	-11.2777
give	-11.2782
▁ab	-11.2783
▁lmao	-11.2793
▁aol	-11.2795
▁slut	-11.2804
▁row	-11.2814
▁pan	-11.2814
▁hall	-11.2822
▁dudes	-11.2831
▁toby	-11.284
▁mini	-11.2841
▁fate	-11.2843
here	-11.286
▁fee	-11.2868
law	-11.2874
▁sl	-11.2879
▁guarantee	-11.2879
▁tryin	-11.2886
▁caucasian	-11.2888
▁shoulder	-11.2893
▁effect	-11.2897
▁clark	-11.2898
▁benefit	-11.2903
will	-11.2906
▁fruit	-11.2913
▁schedule	-11.2918
▁robot	-11.2923
▁satan	-11.2936
▁cases	-11.2941
say	-11.2943
▁aunt	-11.2954
▁stink	-11.2956
▁succeed	-11.2962
▁jet	-11.2971
▁hulk	-11.2979
▁python	-11.2979
▁alabama	-11.2979
▁jewelry	-11.298
▁dynamite	-11.298
▁presence	-11.298
▁infatuated	-11.298
▁toward	-11.2981
▁pickler	-11.2983
▁desirable	-11.2983
▁closing	-11.2986
▁abusive	-11.2986
▁apologies	-11.2986
▁fifth	-11.2987
▁freedom	-11.2987
▁hawthorne	-11.2988
▁filled	-11.2989
▁ricky	-11.2989
▁kurt	-11.2991
▁angeles	-11.2991
▁poorly	-11.2992
▁screwed	-11.2993
▁hardcore	-11.2994
▁barbie	-11.2994
▁spiderman	-11.2994
▁hero	-11.2995
▁thanx	-11.2995
▁austin	-11.2997
▁perverted	-11.2997
▁chatting	-11.2999
▁stalking	-11.3001
▁reveal	-11.3002
▁explore	-11.3006
▁healthy	-11.3006
duh	-11.301
▁jo	-11.3017
▁zero	-11.3018
▁cinema	-11.3023
▁gon	-11.3024
▁christ	-11.303
▁lap	-11.3032
please	-11.3034
▁lasts	-11.3037
▁nurse	-11.304
▁mrs	-11.3046
ble	-11.3053
...............	-11.3072
▁humans	-11.3072
▁sneak	-11.3073
▁dogg	-11.3077
rought	-11.3088
ze	-11.3092
▁.....	-11.31
▁fed	-11.3118
▁comfort	-11.3119
▁cats	-11.312
▁desired	-11.3125
▁searched	-11.3131
▁define	-11.3136
▁doll	-11.3138
▁gar	-11.3151
▁hesitate	-11.3153
▁range	-11.3158
▁arrive	-11.3171
▁flute	-11.3174
▁instrument	-11.3176
cuz	-11.318
▁tattoo	-11.3181
▁gossip	-11.3182
▁relation	-11.3184
▁newspaper	-11.3187
▁prostitute	-11.319
▁ponder	-11.3221
▁gut	-11.3238
▁confirm	-11.3259
▁aniston	-11.3265
▁sawyer	-11.3265
▁anniversary	-11.3265
▁wrestling	-11.3266
▁disturbed	-11.3266
▁marley	-11.3266
▁apartment	-11.3266
▁pleased	-11.3267
▁replace	-11.3269
▁forgotten	-11.3269
▁typical	-11.327
▁ka	-11.3271
▁inexpensive	-11.3271
▁rihanna	-11.3272
▁various	-11.3272
▁reunion	-11.3272
▁blockbuster	-11.3272
▁bodies	-11.3274
▁taught	-11.3274
▁richie	-11.3275
▁believes	-11.3276
▁inclined	-11.3277
▁increase	-11.3278
▁tiny	-11.3279
▁caution	-11.328
▁achieve	-11.3282
▁speaks	-11.3283
▁irish	-11.3285
use	-11.3285
▁pin	-11.3285
▁legally	-11.3287
▁wal	-11.3287
▁appeared	-11.3293
▁expected	-11.3301
looking	-11.3302
▁oc	-11.3311
▁boots	-11.3314
▁pity	-11.3317
▁rat	-11.3331
▁manage	-11.3338
son	-11.3339
▁pal	-11.334
▁alex	-11.3348
▁jealousy	-11.3351
▁nothin	-11.3356
hot	-11.3361
ate	-11.3375
▁pm	-11.3375
▁scores	-11.3375
▁woke	-11.3378
▁awards	-11.3382
▁ah	-11.3385
▁loads	-11.3401
sex	-11.3401
▁mothers	-11.3402
▁classical	-11.341
▁sho	-11.3412
▁ben	-11.3416
▁classics	-11.3418
▁latin	-11.3427
▁bare	-11.343
▁valentines	-11.3461
▁refuse	-11.3465
▁insult	-11.3465
▁competition	-11.347
▁studio	-11.3479
trust	-11.3483
bout	-11.3487
▁setting	-11.3504
▁sport	-11.3508
▁bestfriend	-11.3521
▁com	-11.3521
cha	-11.3522
▁hugs	-11.3524
▁steps	-11.3529
▁anna	-11.3544
▁fulfill	-11.3554
▁hendrix	-11.3559
▁panties	-11.3559
▁vanilla	-11.3559
▁japan	-11.3559
▁max	-11.356
▁swallow	-11.356
▁blew	-11.356
▁dramatic	-11.356
▁surgery	-11.356
▁occurred	-11.356
▁frankie	-11.356
▁jelly	-11.3561
▁ohio	-11.3562
▁smack	-11.3562
▁frame	-11.3562
▁sponge	-11.3564
▁budget	-11.3565
▁patience	-11.3566
▁aroused	-11.3567
▁taffy	-11.3567
▁pride	-11.3567
▁nano	-11.3568
▁aggressive	-11.357
▁louder	-11.3572
▁produced	-11.3574
▁bills	-11.3574
▁sis	-11.3577
▁accidentally	-11.3583
▁accepted	-11.3591
▁fm	-11.3593
▁pages	-11.3593
▁remaining	-11.3598
▁selling	-11.3602
▁duke	-11.3603
▁discussing	-11.3603
▁bowl	-11.3606
▁additional	-11.3611
▁mont	-11.3612
▁pirates	-11.3618
avril	-11.3622
▁peer	-11.3624
▁forced	-11.3626
▁benefits	-11.3644
▁closes	-11.3645
▁eats	-11.3648
▁vice	-11.3667
▁jen	-11.3668
▁cops	-11.3678
▁clues	-11.3684
▁chin	-11.369
ian	-11.3691
▁roberts	-11.3692
▁ther	-11.371
▁headed	-11.3714
▁prom	-11.3715
▁lu	-11.3721
▁occurs	-11.3725
▁forth	-11.3727
▁butts	-11.3739
▁del	-11.3752
▁pencil	-11.3773
▁vagina	-11.3777
▁lip	-11.3786
▁volume	-11.3787
▁poem	-11.379
▁spider	-11.3794
▁pepper	-11.3796
▁prefers	-11.3803
▁buck	-11.3803
▁dre	-11.3803
▁animation	-11.3811
▁faces	-11.3823
..............	-11.3828
▁pound	-11.3839
▁spoil	-11.3855
▁reggae	-11.3862
▁anatomy	-11.3862
▁remeber	-11.3862
▁evidence	-11.3862
▁olivia	-11.3862
▁identify	-11.3862
▁underneath	-11.3862
▁destination	-11.3862
▁congratulations	-11.3862
▁funeral	-11.3863
▁bastard	-11.3863
▁thunder	-11.3865
▁frightened	-11.3866
▁ourselves	-11.3866
▁aerosmith	-11.387
▁fits	-11.3871
▁truthful	-11.3877
▁elsewhere	-11.3877
▁psp	-11.3877
▁pisces	-11.3877
▁honor	-11.3878
▁study	-11.3878
▁responded	-11.388
▁corny	-11.3881
▁overcome	-11.3881
▁arrived	-11.3885
▁crew	-11.389
▁stealing	-11.3894
▁birds	-11.3896
▁shorter	-11.3897
▁breakup	-11.3897
▁howard	-11.3899
▁secrets	-11.3902
▁donkey	-11.3902
▁burning	-11.3904
▁passing	-11.3904
▁pole	-11.3905
▁hire	-11.391
▁vocals	-11.3912
▁rhymes	-11.3922
▁ga	-11.3924
▁producers	-11.3925
▁fishing	-11.3928
▁yang	-11.3937
▁reside	-11.3941
▁gothic	-11.3959
▁spa	-11.396
▁den	-11.396
▁aired	-11.3968
ah	-11.3971
▁log	-11.3987
▁trans	-11.3994
▁ect	-11.4001
▁trusted	-11.4011
...)	-11.4029
erely	-11.4031
was	-11.4031
▁emails	-11.4031
▁produce	-11.4069
▁seth	-11.4069
▁vehicle	-11.4076
▁po	-11.4099
▁cube	-11.4102
▁circle	-11.4107
▁banana	-11.4107
▁decisions	-11.4107
▁worrying	-11.4109
▁argument	-11.4115
▁theatre	-11.4117
▁cam	-11.4118
did	-11.412
▁crue	-11.4151
?!?	-11.4153
▁---	-11.4155
▁3,	-11.4161
▁satisfy	-11.4164
?????	-11.4165
▁heat	-11.417
▁complex	-11.417
▁affirmative	-11.417
▁scott	-11.4174
▁jojo	-11.4174
▁zodiac	-11.4175
▁aaliyah	-11.4175
▁seinfeld	-11.4175
▁judgement	-11.4175
▁rainbow	-11.4175
▁wednesday	-11.4175
▁miserable	-11.4175
▁armstrong	-11.4175
▁combination	-11.4175
▁murray	-11.4175
▁therapy	-11.4175
▁cancelled	-11.4175
▁offensive	-11.4175
▁definetly	-11.4175
▁resist	-11.4177
▁built	-11.4177
▁remains	-11.4179
▁lifestyle	-11.4179
▁offended	-11.4179
▁groove	-11.418
▁viruses	-11.418
▁sandler	-11.418
▁carter	-11.4182
▁harsh	-11.4182
▁marijuana	-11.4182
▁delicious	-11.4182
▁backwards	-11.4183
▁reflect	-11.4184
▁lik	-11.4185
▁russian	-11.4185
▁ashamed	-11.4187
▁identity	-11.419
▁cherry	-11.4191
▁mel	-11.4191
▁featured	-11.4191
▁2005	-11.4193
▁probly	-11.4194
life	-11.4196
▁deeper	-11.42
▁concentrate	-11.4201
da	-11.4207
▁newest	-11.4215
▁sharp	-11.4215
3.	-11.4217
▁greater	-11.4226
▁dumber	-11.4226
▁guts	-11.4242
uk	-11.4245
▁doo	-11.4247
▁tricks	-11.4248
▁assure	-11.425
▁rice	-11.4252
▁chad	-11.4259
▁goth	-11.4262
▁thay	-11.4268
thanks	-11.4269
▁soup	-11.4271
▁finale	-11.4272
▁worlds	-11.4279
▁clowns	-11.4285
▁:-	-11.4296
▁restaurants	-11.4304
▁theaters	-11.4304
most	-11.4311
▁berry	-11.4325
il	-11.4327
▁29	-11.4336
▁falls	-11.4336
▁brunettes	-11.4337
▁sole	-11.4339
▁ta	-11.434
▁brush	-11.4346
!!!!!!!!!!!!!	-11.4358
▁stops	-11.4395
▁strings	-11.4401
▁assault	-11.4405
▁nickname	-11.4412
▁cheer	-11.4412
▁detective	-11.4412
▁intention	-11.4414
▁flav	-11.4415
▁outfit	-11.4416
▁oscar	-11.4416
▁mu	-11.4421
▁student	-11.4423
▁butter	-11.4427
▁graphic	-11.443
come	-11.443
▁bridge	-11.4431
▁claim	-11.4433
▁nightmare	-11.4437
▁teens	-11.4451
▁gu	-11.4454
6	-11.4461
▁rocket	-11.4467
▁laff	-11.4468
▁plug	-11.4468
▁confess	-11.4483
▁nicer	-11.4484
▁crow	-11.4488
▁independent	-11.4493
▁portray	-11.4496
▁speech	-11.4497
▁dylan	-11.4497
▁youre	-11.4497
▁santa	-11.4497
▁cautious	-11.4497
▁christopher	-11.4497
▁advertising	-11.4497
▁memories	-11.4498
▁engaging	-11.4498
▁blige	-11.4498
▁embarrassed	-11.4499
▁sexier	-11.4501
▁cocky	-11.4503
▁annoyed	-11.4504
▁alternatively	-11.4504
▁gentle	-11.4505
▁arnold	-11.4505
▁characteristics	-11.4513
▁broadway	-11.4513
▁borrow	-11.4514
▁mars	-11.4517
▁frog	-11.4519
▁secretly	-11.452
▁urge	-11.4528
▁darling	-11.4531
▁lacking	-11.4531
▁caus	-11.4534
▁expert	-11.4535
▁horn	-11.4537
▁longest	-11.4538
▁bothered	-11.4539
▁ch	-11.4539
▁jr	-11.4544
▁path	-11.456
star	-11.4561
▁laws	-11.4574
esteem	-11.4575
▁shady	-11.4578
▁intentions	-11.458
▁diff	-11.4581
ily	-11.4594
▁mmm	-11.4594
▁effects	-11.4594
▁decides	-11.4595
▁el	-11.4597
▁sucking	-11.4598
▁blog	-11.4607
q	-11.4608
▁climax	-11.4609
▁examples	-11.4611
▁tap	-11.4617
more	-11.4617
▁curse	-11.4622
real	-11.4623
▁interact	-11.4627
et	-11.4632
sexual	-11.4677
▁somehow	-11.4679
tch	-11.4681
▁cure	-11.4682
▁mabe	-11.4693
▁skip	-11.4706
▁11.	-11.4711
ld	-11.4712
▁ship	-11.4721
yrs	-11.4727
▁bleed	-11.4732
▁maid	-11.4737
▁vocalist	-11.4738
▁monday	-11.4741
▁script	-11.4763
▁pornograph	-11.4764
▁worship	-11.4769
▁colour	-11.4769
ying	-11.4778
ow	-11.4782
▁papa	-11.4787
elton	-11.4789
pop	-11.479
2,	-11.4797
92;	-11.4822
▁browse	-11.4823
▁kitchen	-11.483
▁dribbles	-11.483
▁xbox	-11.483
▁junior	-11.4831
▁excitement	-11.4831
▁reggaeton	-11.4831
▁energy	-11.4831
▁imagination	-11.4831
▁cheesy	-11.4832
▁napoleon	-11.4832
▁crappy	-11.4832
▁duran	-11.4833
▁embarrassing	-11.4834
▁mister	-11.4834
▁controlling	-11.4835
▁unlikely	-11.4836
▁mag	-11.4836
▁frightening	-11.4838
▁narnia	-11.4838
▁supply	-11.4839
▁coldplay	-11.4839
▁yelled	-11.4841
▁carmen	-11.4842
▁preferred	-11.4843
▁vince	-11.4846
▁circus	-11.4846
▁soccer	-11.4847
▁diesel	-11.4847
▁silver	-11.4847
▁clever	-11.4848
baby	-11.4851
▁grateful	-11.4856
▁morpheus	-11.4856
▁unlimited	-11.4856
▁jake	-11.4856
▁grandfather	-11.4856
▁alice	-11.4858
▁oil	-11.4858
▁scooby	-11.4864
▁attending	-11.4865
▁perceive	-11.487
world	-11.4875
▁dances	-11.4883
▁aged	-11.4887
▁pls	-11.489
▁cousins	-11.4905
▁fights	-11.491
ka	-11.4913
ba	-11.4917
▁root	-11.4923
▁ofcourse	-11.4926
▁becuz	-11.4938
end	-11.4944
▁mis	-11.4952
date	-11.4953
▁views	-11.4978
▁raw	-11.499
▁bc	-11.499
keep	-11.5003
▁diamonds	-11.5011
▁factor	-11.502
▁apples	-11.5026
▁remembered	-11.5026
▁gurls	-11.5027
▁demo	-11.5028
▁rated	-11.5051
▁uhh	-11.5062
▁bum	-11.5065
▁whine	-11.5068
▁agreement	-11.5075
▁mystery	-11.5076
▁concept	-11.5076
▁package	-11.5082
▁encounter	-11.5086
▁consideration	-11.5087
▁snake	-11.509
▁object	-11.5093
▁novel	-11.5093
▁smurf	-11.5093
▁pervert	-11.5095
▁freind	-11.5095
▁tear	-11.5104
▁rod	-11.5105
ely	-11.5108
om	-11.513
two	-11.5132
▁piss	-11.5133
haha	-11.5141
years	-11.5158
▁spoke	-11.5162
▁responds	-11.5163
▁follows	-11.5163
long	-11.5165
▁foreign	-11.5171
▁surprising	-11.5172
▁clarify	-11.5175
▁squirrel	-11.5175
▁elizabeth	-11.5175
▁pregnancy	-11.5175
▁stewart	-11.5175
▁nowadays	-11.5175
▁families	-11.5175
▁buddies	-11.5175
▁clooney	-11.5175
▁foreplay	-11.5176
▁washington	-11.5176
▁stewie	-11.5176
▁crashers	-11.5176
▁tucker	-11.5177
▁suicide	-11.5178
▁science	-11.5178
▁pussy	-11.518
▁pointless	-11.518
▁shawn	-11.5181
▁laughter	-11.5181
▁winter	-11.5182
▁discussion	-11.5183
▁karma	-11.5183
▁amusement	-11.5184
▁fantasize	-11.5186
▁korean	-11.5186
▁seventh	-11.5188
▁emma	-11.5189
▁sammy	-11.519
▁makin	-11.5191
▁writer	-11.5193
▁subtle	-11.5194
▁azlyrics	-11.5195
▁complaining	-11.5195
▁sci	-11.5195
▁askin	-11.5196
▁cherish	-11.5196
▁highest	-11.5198
▁throughout	-11.5199
▁courting	-11.5199
▁ghetto	-11.5201
▁karaoke	-11.5201
▁fortune	-11.5202
▁existed	-11.5204
▁cooking	-11.5209
▁navigate	-11.5209
▁removed	-11.5215
▁factory	-11.5216
▁som	-11.5224
▁robin	-11.5226
▁nail	-11.5228
▁visited	-11.5231
▁mobile	-11.5232
▁abs	-11.5235
ice	-11.5244
▁verse	-11.5247
▁dish	-11.5248
ol	-11.5248
▁added	-11.5249
▁anderson	-11.5251
girls	-11.5258
▁kicking	-11.5263
▁stinks	-11.5264
▁develop	-11.5264
▁thus	-11.5265
▁pill	-11.5281
▁diseases	-11.5286
▁holly	-11.5305
▁sleepy	-11.5312
▁sins	-11.5327
▁ron	-11.5335
▁rare	-11.5336
!".	-11.5337
▁hunt	-11.5355
▁ye	-11.5361
▁proba	-11.5363
girlfriend	-11.5377
ine	-11.5387
▁matt	-11.5388
▁function	-11.5403
▁pieces	-11.5408
▁languages	-11.5429
▁addict	-11.5432
ical	-11.5433
▁inner	-11.5439
▁psychic	-11.5444
▁reputation	-11.5444
know	-11.5445
▁americans	-11.5453
▁godfather	-11.5453
first	-11.5456
▁silence	-11.546
▁trek	-11.546
ot	-11.546
▁collection	-11.5461
▁gimme	-11.5465
tries	-11.5469
▁dust	-11.5471
??????????????	-11.5475
▁square	-11.548
▁trap	-11.5487
▁formal	-11.5488
friends	-11.5488
▁listens	-11.549
▁doin	-11.5502
▁bank	-11.5509
▁coke	-11.551
▁damage	-11.552
ial	-11.5524
something	-11.553
▁senior	-11.5532
▁twenties	-11.5532
▁fabulous	-11.5532
▁presley	-11.5532
▁anorexic	-11.5532
▁nonsense	-11.5532
▁diffrent	-11.5533
▁travis	-11.5533
▁government	-11.5533
▁housewives	-11.5533
▁powerful	-11.5533
▁sells	-11.5533
▁consistently	-11.5533
▁hobby	-11.5533
▁percent	-11.5535
▁victoria	-11.5535
▁pump	-11.5535
▁suspect	-11.5536
▁flatts	-11.5537
▁sacrifice	-11.5537
▁concerts	-11.5537
▁basis	-11.5538
▁wipe	-11.5538
▁intense	-11.5539
▁cena	-11.5539
▁rooster	-11.554
▁stern	-11.554
▁yeh	-11.5541
▁woodchuck	-11.5541
▁underground	-11.5541
▁christina	-11.5541
▁sunshine	-11.5543
▁rise	-11.5543
▁kidman	-11.5546
▁useless	-11.5548
▁positions	-11.5549
▁fixed	-11.5552
▁smallville	-11.5552
▁coolest	-11.5557
▁1:	-11.5558
▁begging	-11.556
▁introduced	-11.5563
▁cliff	-11.5568
▁gates	-11.5568
should	-11.557
▁eaten	-11.5571
▁runs	-11.5579
▁army	-11.5584
▁bothers	-11.5588
▁placed	-11.5589
▁exorcist	-11.5591
live	-11.5597
▁shine	-11.5599
▁cleaning	-11.5601
oo	-11.5601
▁excuses	-11.5603
▁porno	-11.5607
▁sadly	-11.561
▁catchy	-11.561
▁overall	-11.5616
▁2,	-11.5628
tley	-11.5638
▁hanks	-11.5638
oooooooooooooooo	-11.5646
----	-11.5654
▁bay	-11.5655
▁basket	-11.566
▁jan	-11.5663
ca	-11.5663
▁moments	-11.5668
▁woo	-11.5671
▁appreciated	-11.5672
li	-11.5678
▁regrets	-11.5679
▁recieve	-11.5681
▁ge	-11.5691
▁holidays	-11.5699
▁hon	-11.57
bo	-11.5706
▁manly	-11.5727
▁yells	-11.5733
▁submit	-11.5745
▁virgins	-11.5768
▁sticks	-11.5788
rest	-11.5791
▁charm	-11.5796
ex	-11.5798
▁audition	-11.5807
▁bryan	-11.581
▁esteem	-11.581
▁gangster	-11.5821
▁brick	-11.5825
▁article	-11.5826
▁rai	-11.5836
▁stays	-11.5837
▁che	-11.5842
▁photograph	-11.5843
****	-11.5849
▁cheaters	-11.585
▁bone	-11.5851
▁demand	-11.5854
▁evening	-11.5857
▁yer	-11.5857
▁nights	-11.5872
▁aka	-11.5875
▁lake	-11.5876
over	-11.5881
▁ros	-11.5886
▁dishonest	-11.5888
▁destroy	-11.5892
▁sooooo	-11.5893
▁respectful	-11.5897
▁abandon	-11.5898
▁mafia	-11.5903
▁acoustic	-11.5903
▁dictionary	-11.5903
▁clapton	-11.5903
▁buttocks	-11.5903
▁explanation	-11.5903
▁satisfaction	-11.5903
▁thoroughly	-11.5903
▁eager	-11.5903
▁naive	-11.5904
▁coach	-11.5904
▁specifically	-11.5904
▁repeatedly	-11.5904
▁undesirable	-11.5905
▁initial	-11.5905
▁brake	-11.5905
▁greedy	-11.5906
made	-11.5906
▁initially	-11.5907
▁spoiled	-11.5908
▁display	-11.5911
▁thursday	-11.5911
▁maturity	-11.5913
▁hungry	-11.5913
▁gray	-11.5914
▁canada	-11.5915
▁preferable	-11.5918
▁bb	-11.5922
▁waist	-11.5923
▁trustworthy	-11.5923
▁locked	-11.5927
▁funky	-11.5929
▁deleted	-11.5933
▁spare	-11.5937
▁drew	-11.5939
▁november	-11.594
▁mayb	-11.594
▁input	-11.5942
▁lucas	-11.5942
▁yoda	-11.5944
▁knees	-11.595
▁coast	-11.5952
▁holla	-11.5953
▁brooks	-11.5957
▁sence	-11.5958
▁raised	-11.596
▁cage	-11.5962
▁wink	-11.5968
▁ratings	-11.5969
▁gather	-11.5969
guitar	-11.5975
▁cookies	-11.5983
referred	-11.5992
▁messy	-11.5996
▁students	-11.5998
▁towel	-11.6
▁returning	-11.6004
▁indie	-11.6004
▁refuses	-11.6008
▁scam	-11.6008
▁responses	-11.6016
▁merry	-11.6017
▁2006.	-11.6023
▁creat	-11.6026
tion	-11.6029
ik	-11.6034
▁17.	-11.6036
▁traditional	-11.6038
▁owe	-11.604
▁snap	-11.6043
▁channels	-11.6045
▁ot	-11.6059
ge	-11.6061
▁print	-11.6074
▁bcuz	-11.6077
▁bags	-11.6094
▁wore	-11.6098
▁les	-11.611
▁dial	-11.6117
▁6.	-11.6117
cc	-11.612
▁31	-11.6131
▁gi	-11.6134
▁shown	-11.6135
▁99	-11.614
▁cuter	-11.615
▁ro	-11.6154
ia	-11.616
▁weekends	-11.618
▁spike	-11.6182
hope	-11.6184
▁picnic	-11.6194
▁foster	-11.6196
▁singles	-11.6196
▁background	-11.6198
▁firm	-11.62
▁quarter	-11.6205
▁fender	-11.6206
▁micheal	-11.6213
▁knight	-11.6214
▁compete	-11.6221
▁links	-11.6226
sure	-11.6228
▁officer	-11.623
▁ja	-11.623
▁performer	-11.6234
led	-11.6235
▁cookie	-11.6237
▁menu	-11.6244
▁absolute	-11.625
▁wheel	-11.6252
▁shadow	-11.6258
▁differences	-11.626
check	-11.6261
ou	-11.6262
▁cuddle	-11.6272
▁nerve	-11.6273
▁jess	-11.6273
ite	-11.6276
▁german	-11.6277
full	-11.6279
▁zip	-11.628
▁southern	-11.6282
▁passionate	-11.6285
▁voting	-11.6287
▁taurus	-11.6287
▁airplane	-11.6287
▁sarcastic	-11.6287
▁orchestra	-11.6287
▁bollywood	-11.6287
▁comparison	-11.6287
▁numerous	-11.6287
▁1970	-11.6287
▁santana	-11.6287
▁paramour	-11.6288
▁elderly	-11.6288
▁panther	-11.6288
▁counselor	-11.6288
▁edition	-11.6289
▁wallet	-11.6289
▁conduct	-11.629
▁shocked	-11.6292
▁pooh	-11.6292
▁relevant	-11.6293
▁difficulties	-11.6293
▁anthony	-11.6293
▁degrassi	-11.6296
▁chainsaw	-11.6296
▁community	-11.6296
▁stating	-11.6297
▁leather	-11.6298
▁germany	-11.6298
▁stephen	-11.6299
▁shops	-11.63
▁breathe	-11.6301
▁jackie	-11.6301
▁philippines	-11.6302
▁reese	-11.6304
▁greetings	-11.6305
▁tyler	-11.6306
▁enjoyment	-11.6306
▁unknown	-11.6306
▁troy	-11.6307
▁versions	-11.6308
▁anti	-11.6313
▁wing	-11.6313
▁passes	-11.6314
▁yard	-11.6315
▁compared	-11.6319
▁rico	-11.6326
▁clock	-11.6329
▁buffy	-11.633
▁siblings	-11.6334
▁wikipedia	-11.6337
▁1000	-11.6337
▁pushing	-11.6338
put	-11.6343
▁review	-11.6353
ro	-11.6354
▁nut	-11.6356
▁invest	-11.6358
▁initiate	-11.6362
▁reviews	-11.6362
▁celebs	-11.6369
▁ki	-11.6372
▁tina	-11.6375
▁posting	-11.6379
▁accepting	-11.638
1.	-11.6381
▁sara	-11.6382
▁sux	-11.6392
▁havin	-11.6394
▁ignor	-11.6399
▁mum	-11.6402
▁lp	-11.6409
?".	-11.641
▁exception	-11.6412
ns	-11.6413
▁deserved	-11.6418
▁provides	-11.6418
▁aspects	-11.6422
▁wid	-11.6423
15	-11.6424
laying	-11.6428
▁guyz	-11.643
▁zone	-11.6433
▁neat	-11.6434
▁dime	-11.6434
▁clips	-11.6442
▁fe	-11.6462
▁equals	-11.6464
▁belongs	-11.6466
▁interfere	-11.6486
hes	-11.6487
side	-11.6489
▁credits	-11.6519
▁income	-11.6543
▁dislikes	-11.6544
ball	-11.6545
▁whip	-11.655
▁guitars	-11.6563
▁requires	-11.6581
husband	-11.659
▁allen	-11.6596
▁ram	-11.6598
▁maria	-11.6598
▁creep	-11.6598
▁disorder	-11.6599
▁??	-11.6601
play	-11.6601
ryl	-11.6602
mart	-11.6605
▁millions	-11.6611
▁victim	-11.6613
▁author	-11.6614
nce	-11.6618
anna	-11.6625
▁nerd	-11.6626
▁producer	-11.6628
▁user	-11.6628
▁survivor	-11.6633
▁pour	-11.6643
▁grandpa	-11.6644
▁styles	-11.6647
▁earl	-11.6651
▁pace	-11.6656
▁kean	-11.6656
▁sith	-11.6658
▁tub	-11.6663
▁louis	-11.6668
▁africa	-11.6673
▁urinate	-11.6674
▁reciprocate	-11.6675
▁guilt	-11.6678
▁disrespectful	-11.6683
▁slide	-11.6683
▁confuse	-11.6684
▁sumthin	-11.6684
▁excessive	-11.6684
▁viagra	-11.6686
▁shrek	-11.6686
▁catholic	-11.6686
▁powter	-11.6686
▁lottery	-11.6686
▁grocery	-11.6686
▁industry	-11.6686
▁deceased	-11.6686
ver	-11.6686
▁ashlee	-11.6686
▁repair	-11.6687
▁mercy	-11.6687
▁obnoxious	-11.6687
▁bartender	-11.6687
▁fantasies	-11.6687
▁throat	-11.6687
▁immensely	-11.6688
▁miller	-11.6688
▁definatly	-11.6688
▁disturbing	-11.6689
▁purchasing	-11.6689
▁retired	-11.6689
▁sperm	-11.669
▁traffic	-11.6696
▁thong	-11.6696
▁snl	-11.6696
▁shud	-11.6696
▁jungle	-11.6696
▁january	-11.6696
▁keyboard	-11.6697
▁buzz	-11.6697
▁animated	-11.6697
▁fought	-11.6698
▁furthermore	-11.6699
▁reeves	-11.67
▁sayin	-11.67
▁sailor	-11.6707
shirt	-11.6707
▁sexuality	-11.6708
▁seduce	-11.6709
▁ninja	-11.671
▁pleasing	-11.6714
women	-11.6718
▁alphabet	-11.6718
▁aaron	-11.6719
▁stable	-11.6723
▁signals	-11.6725
▁repeating	-11.6726
▁relaxing	-11.6741
▁breathing	-11.6745
▁covered	-11.6746
▁entering	-11.6748
▁chosen	-11.6749
although	-11.6751
▁chocolates	-11.6754
whatever	-11.6755
▁wash	-11.6758
▁cutest	-11.676
okay	-11.676
▁county	-11.6761
▁signed	-11.6771
▁performs	-11.6773
▁posters	-11.6785
▁treating	-11.6796
plus	-11.6797
▁200	-11.6804
▁shared	-11.6839
▁cu	-11.6876
▁wan	-11.6877
▁sta	-11.6877
spot	-11.6885
▁format	-11.6891
unit	-11.6895
▁celeb	-11.6903
▁geeks	-11.6904
mitted	-11.6919
▁erotic	-11.6921
▁plant	-11.6924
after	-11.6926
20	-11.6929
▁chan	-11.6931
▁adams	-11.694
▁numb	-11.6952
▁beating	-11.6959
▁waiter	-11.6962
▁torn	-11.6972
▁stan	-11.6973
▁gee	-11.6973
▁alley	-11.6983
▁garden	-11.6997
▁rack	-11.7001
▁bike	-11.7002
▁treatment	-11.7003
▁topics	-11.7005
▁conflict	-11.7009
▁surprises	-11.7019
▁hunter	-11.7021
▁circumstance	-11.7022
40	-11.7022
▁differ	-11.7023
▁leader	-11.7027
▁4)	-11.703
▁races	-11.7041
▁production	-11.7041
▁rhyme	-11.7045
▁partial	-11.7046
▁element	-11.7053
▁guard	-11.7059
▁update	-11.7059
▁mor	-11.706
▁tr	-11.7065
▁dam	-11.7066
▁soooooo	-11.7071
whoa	-11.7071
▁ju	-11.7074
wife	-11.7077
▁fetish	-11.7079
▁pi	-11.7079
▁tolerate	-11.7084
ir	-11.7087
▁ed	-11.7088
▁broadcast	-11.7091
▁flirtatious	-11.7098
▁persist	-11.71
9	-11.71
▁losers	-11.71
▁reverse	-11.71
▁15,	-11.7101
▁phoenix	-11.7102
▁irrelevant	-11.7102
▁headphones	-11.7102
▁afternoon	-11.7102
▁gasoline	-11.7102
▁gospel	-11.7102
▁jewish	-11.7102
▁margera	-11.7103
▁slutty	-11.7103
▁lavigne	-11.7103
▁murphy	-11.7103
▁academy	-11.7104
▁greek	-11.7104
▁highschool	-11.7105
▁abilities	-11.7106
▁folder	-11.7106
▁sexiest	-11.7106
▁witnessed	-11.7107
▁exchange	-11.7107
▁personalities	-11.7109
▁springer	-11.711
▁freddy	-11.7113
▁mainstream	-11.7114
▁register	-11.7114
▁demon	-11.7116
▁stood	-11.7117
about	-11.7122
▁market	-11.7122
▁hormones	-11.7122
▁satisfactory	-11.7123
▁golf	-11.7123
▁reasonable	-11.7124
▁manners	-11.7124
▁samurai	-11.7124
▁casually	-11.7128
▁highway	-11.7129
▁salt	-11.7131
▁beware	-11.7132
▁ultimate	-11.7132
down	-11.7138
▁taxi	-11.7139
coz	-11.7139
▁youngest	-11.7139
▁mandy	-11.7141
ten	-11.7146
▁oldies	-11.7146
▁nipples	-11.7147
walk	-11.7149
▁srry	-11.7151
▁poker	-11.7152
▁whisper	-11.7153
▁delight	-11.7153
▁hum	-11.7154
▁morals	-11.7159
▁spoken	-11.7163
▁damned	-11.7163
▁comin	-11.7165
▁secondly	-11.7175
per	-11.7181
▁rapping	-11.7185
▁counting	-11.7186
▁lights	-11.7194
▁beside	-11.7203
especially	-11.7205
ger	-11.7211
▁disliked	-11.7225
▁tre	-11.7226
▁ou	-11.723
▁naw	-11.7234
▁bla	-11.7234
▁reacts	-11.7235
▁progress	-11.7237
ence	-11.724
▁bug	-11.7241
▁sally	-11.7243
▁fret	-11.7251
▁boi	-11.7261
▁ross	-11.7266
▁aliens	-11.7269
▁putt	-11.7272
▁killers	-11.7274
hotmail	-11.7276
people	-11.7292
▁greet	-11.7292
fi	-11.7306
▁paste	-11.7314
▁7.	-11.7318
other	-11.7319
▁smash	-11.7323
once	-11.7327
nnie	-11.7351
▁sources	-11.7356
▁13.	-11.7359
▁rear	-11.7366
hat	-11.7382
▁kit	-11.7387
▁elliott	-11.7387
▁jean	-11.7389
▁dee	-11.7395
▁sub	-11.7397
▁offend	-11.7406
▁marriages	-11.7407
▁ease	-11.7408
▁36	-11.7409
▁noone	-11.7409
▁services	-11.7429
▁sould	-11.7431
▁airs	-11.7439
▁detail	-11.7449
▁yur	-11.7449
▁conclusion	-11.7451
▁chooses	-11.7452
▁skirt	-11.7456
▁sp	-11.7458
▁models	-11.7458
▁afterward	-11.7459
▁peanut	-11.7464
▁poser	-11.7468
▁criminal	-11.7469
▁giant	-11.747
▁iam	-11.7475
ell	-11.7479
▁0	-11.7482
▁wrap	-11.7487
▁wishing	-11.7501
▁relative	-11.7502
▁rating	-11.7512
talk	-11.7519
▁cafe	-11.7522
money	-11.7527
▁lesson	-11.7528
▁examine	-11.7529
▁disrespect	-11.7532
▁stalk	-11.7532
▁financial	-11.7534
▁comical	-11.7536
▁inebriated	-11.7537
▁leppard	-11.7537
▁sinatra	-11.7537
▁adventurous	-11.7537
▁enemies	-11.7537
▁carolina	-11.7537
▁muscular	-11.7537
▁unstable	-11.7537
▁anxious	-11.7537
▁popcorn	-11.7537
▁exotic	-11.7537
▁neighborhood	-11.7537
▁craig	-11.7537
▁pepsi	-11.7538
▁emule	-11.7538
▁countries	-11.7538
▁safety	-11.7539
▁authentic	-11.7539
▁retarded	-11.7539
▁radcliffe	-11.754
▁clinton	-11.7541
▁ordinary	-11.7541
▁millionaire	-11.7541
▁watson	-11.7542
▁astrology	-11.7543
▁billion	-11.7546
▁bitter	-11.7546
▁cyber	-11.7547
▁sunset	-11.7548
▁prettier	-11.7548
▁dennis	-11.7549
▁whatsoever	-11.7549
▁inquiring	-11.7549
▁cave	-11.7549
▁bowwow	-11.7549
▁worries	-11.755
▁grease	-11.7552
▁educated	-11.7554
▁shaving	-11.7559
dy	-11.7559
▁cinderella	-11.756
▁nickelback	-11.756
▁kyle	-11.7561
▁wtf	-11.7561
▁bcoz	-11.7562
▁shock	-11.7563
▁jar	-11.7563
▁shaved	-11.7563
▁coat	-11.7565
▁playboy	-11.7565
▁vows	-11.7566
▁thug	-11.757
▁wax	-11.757
▁separated	-11.7572
▁becasu	-11.7573
▁entered	-11.7574
▁mos	-11.7576
▁vibe	-11.7578
▁bittorrent	-11.7583
▁ol	-11.7585
ding	-11.7587
▁ad	-11.7594
▁chair	-11.7595
▁lovin	-11.7596
pe	-11.7603
▁rick	-11.7605
▁shirts	-11.7609
▁importantly	-11.7615
▁bury	-11.7615
▁gene	-11.7616
▁chains	-11.7616
▁nerds	-11.7627
▁classy	-11.763
▁talents	-11.7633
▁38	-11.7633
god	-11.7641
manda	-11.7646
▁colored	-11.7651
▁smurfs	-11.7653
▁chi	-11.7666
▁personaly	-11.7678
ating	-11.768
myspace	-11.7693
ps	-11.7707
▁foo	-11.7709
▁suits	-11.7717
▁fist	-11.7727
▁vi	-11.7732
ties	-11.7735
▁ate	-11.7757
▁bun	-11.7777
▁nation	-11.7787
▁fries	-11.7788
▁hehe	-11.7791
▁triple	-11.7795
▁1,	-11.7801
▁remote	-11.7813
▁ra	-11.7826
▁anal	-11.7828
▁seal	-11.7843
▁nowhere	-11.7848
▁holes	-11.7849
▁pun	-11.7865
▁hadn	-11.7868
▁national	-11.7878
▁ludacris	-11.7879
▁gump	-11.7879
funny	-11.789
▁locke	-11.7892
▁audience	-11.7898
▁costume	-11.7898
▁portion	-11.7901
▁janet	-11.791
▁instinct	-11.7911
▁standard	-11.7912
▁jersey	-11.7914
▁held	-11.7917
master	-11.7921
▁playin	-11.7923
▁blank	-11.7936
ill	-11.7938
coming	-11.7939
▁regards	-11.7942
run	-11.7952
12	-11.7958
▁beverl	-11.7962
▁elm	-11.7965
os	-11.7969
▁minded	-11.7975
▁profess	-11.7975
▁frighten	-11.7978
▁suprise	-11.798
▁pills	-11.7982
▁justin	-11.7988
▁affectionate	-11.7989
▁adventure	-11.799
▁mcgraw	-11.7992
▁osama	-11.7992
▁napster	-11.7992
▁boston	-11.7992
▁rotten	-11.7992
▁rebound	-11.7992
▁kingdom	-11.7992
▁cellphone	-11.7992
▁joan	-11.7992
▁comprehend	-11.7992
▁hostel	-11.7992
▁slapped	-11.7992
▁brittany	-11.7992
▁funnier	-11.7992
▁kc	-11.7993
▁irritating	-11.7993
▁monroe	-11.7993
▁realistic	-11.7993
▁darth	-11.7995
▁worthwhile	-11.7996
▁jade	-11.7997
▁purse	-11.7997
▁depth	-11.7997
▁letterman	-11.7997
▁cody	-11.7998
▁portrayed	-11.7998
▁install	-11.7999
▁terry	-11.8
▁ethan	-11.8
▁gerard	-11.8001
▁witness	-11.8002
▁october	-11.8003
▁decade	-11.8003
▁pokemon	-11.8003
▁evanescence	-11.8003
▁14.	-11.8004
▁biography	-11.8004
▁playstation	-11.8005
▁witty	-11.8005
▁expectations	-11.8006
▁hustle	-11.8006
▁axl	-11.8007
▁fyi	-11.8012
▁flies	-11.8012
▁conan	-11.8014
▁attributes	-11.8015
▁failure	-11.8015
▁underwood	-11.8016
▁bucket	-11.8017
▁underworld	-11.8018
▁sixty	-11.8019
ones	-11.802
▁gaze	-11.8022
??????	-11.8025
uh	-11.8026
▁morrison	-11.8029
▁16.	-11.8035
▁tick	-11.8037
▁heather	-11.8037
▁watchin	-11.804
▁fiancee	-11.8043
▁cus	-11.8049
▁upside	-11.8055
▁911	-11.8059
always	-11.8063
▁diddy	-11.8068
▁bee	-11.8073
▁ke	-11.8077
black	-11.8082
thing	-11.8085
▁turner	-11.8094
▁fashioned	-11.8101
▁caps	-11.8102
▁hmmmm	-11.8107
▁oops	-11.8109
▁respects	-11.8115
▁completed	-11.8124
▁curv	-11.8126
sp	-11.8126
land	-11.8129
▁upload	-11.8136
▁products	-11.8137
▁owner	-11.8139
▁sch	-11.8152
▁presents	-11.8158
mo	-11.8165
top	-11.8167
having	-11.8171
▁chew	-11.8177
▁din	-11.8179
▁shots	-11.818
les	-11.8193
▁scorpios	-11.8197
▁stuffed	-11.8198
▁teachers	-11.8203
▁hu	-11.8205
▁reads	-11.822
▁streets	-11.8224
▁nas	-11.8233
▁sheep	-11.8243
▁esp	-11.8248
▁kisser	-11.8251
wait	-11.8252
▁consist	-11.8258
▁pam	-11.8262
▁conversations	-11.8265
▁ver	-11.8269
▁sheet	-11.8274
▁str	-11.8296
▁data	-11.8305
▁itz	-11.8314
▁app	-11.833
▁cher	-11.8331
watch	-11.8337
▁laughs	-11.8349
▁drown	-11.8352
▁rican	-11.8355
...?	-11.8355
▁electronic	-11.8364
however	-11.8374
▁posterior	-11.8382
ner	-11.8382
▁degree	-11.8385
bloody	-11.839
▁serve	-11.8394
▁dose	-11.8394
▁dope	-11.8397
▁hooker	-11.8402
▁toast	-11.8406
▁inter	-11.841
pretty	-11.8412
▁folk	-11.8412
▁acted	-11.8415
▁scar	-11.8418
▁insist	-11.8421
▁tu	-11.8429
▁chain	-11.8438
▁advertise	-11.8451
▁rider	-11.8455
▁masturbate	-11.8457
▁thou	-11.8458
▁climb	-11.8458
▁steven	-11.8458
▁34	-11.8459
▁resolve	-11.8459
rk	-11.8464
▁spank	-11.8464
▁apparent	-11.8465
ight	-11.8466
▁bedingfield	-11.8468
▁capricorn	-11.8468
▁chemistry	-11.8468
▁clarinet	-11.8468
▁cobain	-11.8468
▁equivalent	-11.8468
▁february	-11.8468
▁melissa	-11.8468
▁squarepants	-11.8468
▁primarily	-11.8468
▁proposal	-11.8468
▁caribbean	-11.8468
▁michelle	-11.8468
▁toronto	-11.8468
▁massacre	-11.8468
▁socialize	-11.8468
▁natasha	-11.8468
▁suspicious	-11.8468
▁slang	-11.8468
▁nanny	-11.8468
▁publicity	-11.8469
▁judging	-11.8469
▁tlc	-11.8469
▁garage	-11.8469
▁ginger	-11.8469
▁ultimatum	-11.8469
▁forgiveness	-11.8469
▁canceled	-11.8469
▁monica	-11.847
▁bonus	-11.847
▁pawn	-11.8471
▁implants	-11.8471
▁occupy	-11.8471
▁financially	-11.8471
▁foxx	-11.8472
▁skilled	-11.8473
woman	-11.8474
▁jeezy	-11.8475
▁charles	-11.8476
▁chasing	-11.8478
▁steak	-11.8479
▁cologne	-11.848
▁graduation	-11.848
▁swimming	-11.848
▁freddie	-11.848
▁opportunities	-11.848
▁banned	-11.8481
▁teasing	-11.8481
▁universe	-11.8482
▁reported	-11.8482
▁beaver	-11.8484
▁daughters	-11.8484
▁hawk	-11.8485
night	-11.8488
▁screamed	-11.8488
▁friggin	-11.8489
▁acid	-11.8489
▁distant	-11.849
▁negatively	-11.849
▁creatures	-11.849
▁drift	-11.8491
▁24/7	-11.8491
▁disk	-11.8493
▁boogie	-11.8493
▁butterflies	-11.8493
▁powder	-11.8494
ending	-11.8495
▁fuckin	-11.8496
▁backside	-11.8496
▁sublime	-11.8497
▁prayer	-11.8501
▁crossed	-11.8501
ggy	-11.8503
▁moms	-11.8504
▁matrix	-11.8505
▁kitty	-11.8505
without	-11.8506
▁strict	-11.8507
▁flavor	-11.8507
▁fortunate	-11.8508
▁copies	-11.8508
▁casting	-11.8509
▁aqua	-11.8509
▁spoon	-11.851
▁neil	-11.8511
▁crawling	-11.8513
▁shaped	-11.8518
▁sonny	-11.8528
▁digital	-11.8532
▁solved	-11.8534
▁muscles	-11.8537
▁candles	-11.8539
7,	-11.8544
▁thugs	-11.8545
▁tube	-11.8546
▁favors	-11.8549
▁awake	-11.8558
▁fooling	-11.8562
▁jaws	-11.8571
▁operation	-11.8577
▁hating	-11.8583
▁lieing	-11.8586
▁ville	-11.8588
▁manipulate	-11.8595
▁13,	-11.8596
▁bricks	-11.8596
▁settings	-11.8596
hit	-11.8598
▁timing	-11.86
▁doom	-11.8602
▁studios	-11.8602
▁recover	-11.8602
▁writers	-11.8614
▁glue	-11.8619
▁shell	-11.862
100	-11.8621
▁xm	-11.8624
▁aww	-11.8625
▁33	-11.8626
▁limits	-11.8628
▁hail	-11.863
ple	-11.8642
▁bread	-11.8644
▁adding	-11.866
▁nite	-11.8665
field	-11.8667
▁compliments	-11.8672
▁sha	-11.869
easy	-11.8697
guys	-11.8699
▁dana	-11.8711
▁gabriel	-11.8713
▁stares	-11.8714
▁poo	-11.8716
▁hehehe	-11.8732
both	-11.8733
▁raps	-11.8733
▁lasted	-11.8741
bs	-11.875
▁fri	-11.8752
idden	-11.8772
▁bound	-11.8776
▁chop	-11.8784
▁carlo	-11.8788
▁rely	-11.8791
▁preferences	-11.8794
▁ouch	-11.8794
▁2:	-11.8814
▁riddles	-11.8815
▁spots	-11.8818
▁farm	-11.8819
▁cliche	-11.8828
▁ru	-11.8828
▁pirate	-11.8833
nice	-11.8843
want	-11.8844
▁heal	-11.8858
punk	-11.8863
▁survive	-11.8863
▁weddings	-11.8865
tha	-11.8869
▁waz	-11.8873
▁believ	-11.8876
▁device	-11.8879
▁toss	-11.8882
▁webcam	-11.8882
▁advertisement	-11.8882
hard	-11.8884
▁3-	-11.8884
▁doubts	-11.8885
may	-11.8887
▁queer	-11.8887
ons	-11.8887
▁blanket	-11.8889
▁tuesday	-11.889
,,,	-11.89
▁expression	-11.89
▁hype	-11.8905
▁vocal	-11.8906
▁pilot	-11.8909
gi	-11.891
▁21,	-11.8917
▁venture	-11.8928
▁tech	-11.8928
▁tapes	-11.8937
happy	-11.8939
13	-11.8942
minded	-11.8945
▁fin	-11.895
▁celebrate	-11.8954
▁explode	-11.8955
▁steel	-11.896
▁ky	-11.896
▁fade	-11.8967
▁athletic	-11.8968
▁emerald	-11.8968
▁inferior	-11.8968
▁laundry	-11.8968
▁ritchie	-11.8968
▁kagome	-11.8968
▁geisha	-11.8968
▁scarface	-11.8968
▁precious	-11.8968
▁godzilla	-11.8968
▁marvin	-11.8968
▁shannon	-11.8968
..:)	-11.8968
▁foremost	-11.8969
▁adultery	-11.8969
▁carrey	-11.8969
▁weezer	-11.8969
place	-11.8969
▁emily	-11.897
▁provid	-11.8971
▁racing	-11.8971
▁granted	-11.8971
▁practicing	-11.8971
▁khan	-11.8971
▁excessively	-11.8972
▁logan	-11.8972
▁jury	-11.8972
▁disappointing	-11.8974
▁dwell	-11.8974
▁creator	-11.8974
▁deaf	-11.8974
▁buble	-11.8974
▁revealed	-11.8977
▁technique	-11.8977
▁exclusive	-11.8977
▁varies	-11.8978
▁craft	-11.8979
▁glasses	-11.898
▁mere	-11.898
▁grudge	-11.898
▁antonio	-11.898
▁necklace	-11.898
▁sympathy	-11.898
▁cuddling	-11.898
▁poetry	-11.898
▁honeymoon	-11.8981
▁1960	-11.8981
chris	-11.8981
▁beastie	-11.8982
▁incest	-11.8982
▁amazed	-11.8985
town	-11.8985
▁studying	-11.8985
▁fullest	-11.8986
▁comming	-11.8991
▁clay	-11.8991
▁reached	-11.8992
▁mask	-11.8993
▁midnight	-11.8994
▁du	-11.8994
▁karen	-11.8994
▁roommate	-11.8995
▁communicating	-11.8995
▁native	-11.8995
▁technically	-11.8996
▁needle	-11.8997
▁penny	-11.8999
▁liek	-11.9001
▁sandwich	-11.9002
▁stolen	-11.9003
▁leno	-11.9003
▁offered	-11.9005
▁planned	-11.9006
▁washed	-11.9006
▁ticketmaster	-11.9007
▁lingerie	-11.9008
▁shortly	-11.9016
▁risky	-11.902
▁demi	-11.9024
make	-11.903
▁fling	-11.9032
▁responding	-11.9032
▁oz	-11.9038
▁speakers	-11.9038
▁madly	-11.904
video	-11.9042
▁pac	-11.9044
▁determined	-11.9047
▁traveling	-11.9048
▁cutie	-11.9049
▁listings	-11.9051
▁outgoing	-11.9052
▁ooh	-11.9056
▁areas	-11.9057
cd	-11.9058
▁instincts	-11.9059
ja	-11.9061
▁ann	-11.9062
)!	-11.907
▁offering	-11.9072
▁rockers	-11.9081
▁vol	-11.9083
▁packages	-11.9089
▁reli	-11.9095
▁pops	-11.9097
▁sur	-11.9099
?...	-11.9099
▁leading	-11.91
▁boot	-11.9101
three	-11.9103
▁ups	-11.9103
ds	-11.911
▁bold	-11.9118
▁wed	-11.9118
▁reception	-11.9121
▁pts	-11.9126
▁cheeks	-11.9128
▁listing	-11.9128
▁sony	-11.9129
ike	-11.9135
▁mia	-11.9151
every	-11.916
▁flicks	-11.9165
▁moral	-11.9166
▁neighbors	-11.9176
▁queens	-11.9184
▁brook	-11.9185
50	-11.9191
▁condition	-11.9195
▁occasions	-11.9201
▁continued	-11.9205
four	-11.9206
▁typed	-11.9206
▁iii	-11.9212
▁18.	-11.9213
▁knee	-11.9217
▁rocked	-11.9218
▁reall	-11.922
youtube	-11.9226
though	-11.9226
▁glance	-11.9228
ace	-11.9233
▁companions	-11.9236
▁fag	-11.9245
hole	-11.9247
ho	-11.9261
▁brit	-11.927
▁cowboys	-11.9282
che	-11.9304
read	-11.932
anything	-11.9326
▁cows	-11.9326
bye	-11.9331
enjoy	-11.9348
ped	-11.9351
gf	-11.9362
▁affairs	-11.938
▁brief	-11.9406
stop	-11.9408
▁hairy	-11.9408
▁playlist	-11.941
▁weapon	-11.9411
▁pillow	-11.9411
▁comedian	-11.9411
▁preview	-11.9412
▁error	-11.9413
▁slave	-11.9418
▁lighter	-11.9435
▁sour	-11.9435
▁horoscope	-11.9437
▁reasoning	-11.944
▁lizz	-11.9447
▁turtle	-11.9449
▁iv	-11.9454
▁wannabe	-11.9471
really	-11.9472
▁cuts	-11.9472
▁impact	-11.9475
▁2!	-11.9483
▁wealth	-11.9484
▁iraq	-11.9486
▁mon	-11.9486
▁stream	-11.9488
▁easter	-11.9489
▁adequate	-11.949
green	-11.9492
▁predict	-11.9492
▁interpret	-11.9493
▁seperate	-11.9493
▁canadian	-11.9494
▁marraige	-11.9494
▁vulgar	-11.9494
▁laguna	-11.9494
▁meredith	-11.9494
▁valuable	-11.9494
▁crosby	-11.9494
▁mississippi	-11.9494
▁roseanne	-11.9494
▁zepplin	-11.9494
▁terminator	-11.9494
▁lipstick	-11.9494
▁specify	-11.9494
▁sabbath	-11.9495
▁minimum	-11.9495
▁hannah	-11.9495
▁harbor	-11.9495
▁skool	-11.9495
▁offspring	-11.9495
▁depressing	-11.9495
▁robbie	-11.9495
▁shipping	-11.9495
▁conservative	-11.9495
▁masculine	-11.9495
▁witherspoon	-11.9495
▁terribly	-11.9495
▁baggage	-11.9495
▁magical	-11.9496
▁wendy	-11.9496
▁inquiry	-11.9496
▁comedies	-11.9496
▁intimidated	-11.9497
▁choke	-11.9497
▁curb	-11.9497
▁dedicated	-11.9497
▁jessie	-11.9497
▁surround	-11.9499
▁codes	-11.9499
▁anakin	-11.95
▁testicles	-11.9501
▁genitals	-11.9502
▁mighty	-11.9505
▁offence	-11.9505
▁sauce	-11.9506
▁congrats	-11.9507
▁hawaii	-11.9507
▁dallas	-11.9507
▁suitable	-11.9507
▁rejection	-11.9508
work	-11.9508
▁accomplished	-11.9508
▁popularity	-11.9508
▁paranoid	-11.9509
▁earrings	-11.951
▁limited	-11.9513
▁threesome	-11.9513
▁elmo	-11.9516
▁studies	-11.9516
▁frankly	-11.9518
▁eagles	-11.9519
▁odor	-11.9521
▁coffin	-11.9521
▁warner	-11.9523
▁boxers	-11.9523
type	-11.9525
▁covers	-11.9526
▁ramones	-11.9528
white	-11.9528
▁positively	-11.953
▁versu	-11.953
▁harmful	-11.9531
▁boondocks	-11.9532
▁connected	-11.9532
move	-11.9537
▁addicting	-11.9537
▁donald	-11.9538
▁disloyal	-11.9541
▁touched	-11.9541
▁burned	-11.9541
▁sorts	-11.9546
▁xanga	-11.9549
▁hardest	-11.9551
▁blowing	-11.9554
▁danger	-11.9556
▁pretending	-11.9557
▁supposedly	-11.9558
▁chilli	-11.956
▁pickup	-11.9566
▁walker	-11.9572
▁persuade	-11.9577
▁previews	-11.9577
▁leon	-11.9581
va	-11.9584
▁rushing	-11.9602
▁handed	-11.9608
find	-11.9609
▁begining	-11.9611
▁mario	-11.9613
▁arguments	-11.9636
▁feat	-11.9637
▁clash	-11.9647
▁prostitutes	-11.9648
▁hose	-11.9651
▁rocker	-11.9656
▁defeat	-11.9657
▁powers	-11.9663
▁sooooooo	-11.9671
▁dosn	-11.9676
▁cooper	-11.9692
▁whet	-11.9695
nny	-11.9698
▁profiles	-11.9716
▁gig	-11.973
▁acquaintances	-11.9731
▁filming	-11.9736
▁legit	-11.9753
▁thx	-11.9755
▁par	-11.9763
▁alas	-11.9765
▁dork	-11.9769
comedy	-11.9774
has	-11.9779
jeeves	-11.9789
▁chee	-11.9815
▁hopes	-11.9822
▁writes	-11.9822
guy	-11.9833
▁shout	-11.9841
▁dean	-11.9855
▁col	-11.9856
▁16,	-11.987
▁risks	-11.9871
▁fab	-11.9875
▁roles	-11.9878
▁ipods	-11.9882
▁entertain	-11.9886
▁valo	-11.9888
looks	-11.9892
▁royal	-11.9894
cant	-11.9898
lot	-11.9916
▁grill	-11.9923
rated	-11.9929
▁moo	-11.9937
▁je	-11.9941
▁;	-11.9953
▁utter	-11.9955
▁description	-11.9956
▁cock	-11.9959
▁blade	-11.9961
▁invitation	-11.9962
▁puzzle	-11.9964
help	-11.9964
▁cigarette	-11.9966
▁wrestler	-11.9969
▁shark	-11.9969
▁wuz	-11.9969
▁haircut	-11.997
endency	-11.997
▁muscle	-11.9971
▁affections	-11.9975
▁temper	-11.9977
▁temptation	-11.9979
air	-11.9979
▁wana	-11.998
▁happend	-11.998
▁ringtone	-11.9983
▁lamb	-11.9994
???????	-11.9999
▁trait	-12.0005
▁casino	-12.0006
▁abdul	-12.001
▁avenue	-12.0019
ized	-12.0023
▁belt	-12.0034
▁spill	-12.0038
▁endure	-12.0043
▁cheerleader	-12.005
▁grumpy	-12.005
▁kenshin	-12.005
▁nudity	-12.005
▁paradise	-12.005
▁wolverine	-12.005
▁reccommend	-12.005
▁osbourne	-12.005
▁charlize	-12.005
▁desperation	-12.005
▁unsuccessful	-12.005
▁banjo	-12.005
▁paige	-12.005
▁verify	-12.005
▁importance	-12.005
▁bliss	-12.005
▁medication	-12.005
▁nineteen	-12.005
▁unfair	-12.005
▁shania	-12.005
▁trophy	-12.005
▁grail	-12.0051
▁melody	-12.0051
▁amicable	-12.0051
▁vanilli	-12.0051
▁routine	-12.0051
▁subsequently	-12.0051
▁atlanta	-12.0051
▁burton	-12.0051
▁engagement	-12.0051
▁stretch	-12.0052
▁tax	-12.0052
▁backstage	-12.0052
▁vincent	-12.0052
▁unacceptable	-12.0053
▁unlock	-12.0053
▁brazil	-12.0053
▁potatoes	-12.0053
▁employed	-12.0053
▁organ	-12.0054
▁milli	-12.0054
▁whomever	-12.0054
▁beforehand	-12.0055
▁scroll	-12.0055
▁downtown	-12.0055
▁nathan	-12.0056
▁chong	-12.0057
▁breed	-12.0057
▁bacon	-12.0059
▁trish	-12.006
▁300	-12.0061
▁curiosity	-12.0063
nk	-12.0065
▁larry	-12.0065
▁considerate	-12.0066
▁vader	-12.007
▁ski	-12.0071
▁retain	-12.0071
▁hobbies	-12.0071
▁doctors	-12.0072
▁balance	-12.0074
▁classified	-12.0075
▁agreeable	-12.0075
▁holds	-12.0076
▁gained	-12.0076
▁alicia	-12.0077
▁clitoris	-12.0078
▁aishwarya	-12.0078
▁craigslist	-12.0078
▁spain	-12.0078
▁definitly	-12.0079
▁labeled	-12.0079
▁thriller	-12.008
▁mates	-12.0083
▁lynn	-12.0083
▁wherever	-12.0086
▁relaxed	-12.0087
▁obsess	-12.0089
▁franchi	-12.009
▁abnormal	-12.0091
▁sera	-12.0092
▁storm	-12.0093
▁odds	-12.0093
▁secure	-12.0094
▁homosexuals	-12.0094
▁banging	-12.0098
▁girly	-12.01
▁acquired	-12.0102
):	-12.0103
▁freaked	-12.0105
▁doug	-12.0105
ft	-12.0105
▁15.	-12.0106
▁fallout	-12.0106
▁georgia	-12.0107
▁engines	-12.0112
▁thang	-12.0117
kin	-12.0117
▁sons	-12.0117
▁complet	-12.0118
▁12.	-12.0119
▁39	-12.0121
ith	-12.0121
word	-12.0122
▁literally	-12.0122
▁br	-12.0125
▁loses	-12.0129
ac	-12.0132
ak	-12.0133
fish	-12.0133
▁locker	-12.0135
eight	-12.0136
▁horoscopes	-12.0138
▁nata	-12.0142
▁tooth	-12.0142
▁appearing	-12.015
▁racer	-12.0153
▁creed	-12.0154
▁asap	-12.0159
▁grave	-12.0165
ery	-12.0171
▁mite	-12.018
▁hbo	-12.018
▁lin	-12.0182
▁bling	-12.0183
gether	-12.0185
ki	-12.0186
▁mick	-12.0189
▁avid	-12.0191
kiss	-12.0193
▁freinds	-12.0195
▁jest	-12.0196
▁poems	-12.02
▁strat	-12.0204
▁jani	-12.0209
▁cheers	-12.0211
▁boom	-12.0213
▁teases	-12.0218
ss	-12.0224
▁bin	-12.0233
ard	-12.0236
▁10,	-12.0242
▁selves	-12.0243
▁zombies	-12.0248
▁cud	-12.0252
▁oranges	-12.0253
▁advances	-12.0254
▁wack	-12.0261
▁grim	-12.0267
▁flirty	-12.0273
▁lions	-12.0276
▁bj	-12.0276
▁sales	-12.0279
▁reconsider	-12.0279
ave	-12.0282
▁arts	-12.0292
▁pertain	-12.0294
▁soda	-12.0297
▁sweety	-12.0301
▁asses	-12.0305
▁prank	-12.0326
▁5)	-12.033
believe	-12.0335
▁qu	-12.0342
▁solos	-12.0342
▁tel	-12.0347
▁melt	-12.0349
▁shore	-12.0354
▁orgasms	-12.0356
bearshare	-12.0366
self	-12.0374
▁peoples	-12.0376
nine	-12.0381
anime	-12.0389
▁walls	-12.0399
▁map	-12.04
▁ren	-12.04
▁dum	-12.041
▁carl	-12.0448
▁42	-12.0453
uch	-12.0453
▁marie	-12.0462
ebay	-12.0471
▁efforts	-12.0473
school	-12.0475
▁theirs	-12.0481
ping	-12.0483
od	-12.0483
ries	-12.0496
▁core	-12.0525
▁treasure	-12.0527
▁satellite	-12.0535
▁measure	-12.0538
▁chic	-12.0539
▁cassette	-12.0544
▁mint	-12.0547
▁assumption	-12.0547
▁manager	-12.0553
▁roger	-12.0556
▁rerun	-12.056
movie	-12.0569
????????	-12.0574
▁latino	-12.0576
▁prude	-12.0577
▁elevator	-12.0578
▁monkeys	-12.0582
ends	-12.0585
ned	-12.0586
▁ninety	-12.0588
▁bears	-12.0596
▁resent	-12.0597
gay	-12.0597
▁ep	-12.0602
▁thumb	-12.0606
▁drops	-12.0607
little	-12.0613
listen	-12.0625
▁pronounce	-12.0625
▁5,	-12.0627
▁crawl	-12.0634
▁micro	-12.0634
▁pl	-12.0637
▁roller	-12.0638
▁phoebe	-12.0638
▁tragedies	-12.0638
▁stereotypical	-12.0638
▁sevenfold	-12.0638
▁furious	-12.0638
▁olsen	-12.0638
▁knife	-12.0638
▁preppy	-12.0638
▁challenging	-12.0638
▁investigate	-12.0638
▁disaster	-12.0638
▁residence	-12.0638
▁svu	-12.0638
▁companionship	-12.0638
▁frustrated	-12.0638
▁curtis	-12.0638
▁jockey	-12.0638
▁francisco	-12.0639
▁europe	-12.0639
▁erection	-12.0639
▁hitler	-12.0639
▁hygiene	-12.0639
▁policy	-12.0639
▁headache	-12.0639
▁surname	-12.0639
▁franchise	-12.0639
▁jonny	-12.064
▁concur	-12.064
▁cupid	-12.064
▁cosby	-12.064
▁salad	-12.064
▁petty	-12.0641
lu	-12.0641
▁copyright	-12.0641
▁knowledgeable	-12.0642
▁diane	-12.0642
▁supportive	-12.0642
▁resume	-12.0642
▁entry	-12.0642
▁detest	-12.0643
▁betray	-12.0643
▁arthur	-12.0644
▁shane	-12.0645
▁bashful	-12.0646
▁continuing	-12.0648
▁therapist	-12.0648
▁tension	-12.0649
▁politely	-12.0649
▁fastest	-12.0649
▁irritated	-12.065
▁lloyd	-12.0651
▁grunge	-12.0652
▁beacuse	-12.0652
▁politics	-12.0652
▁automatically	-12.0652
▁entertainer	-12.0652
▁yellowcard	-12.0652
▁pluto	-12.0653
▁blessed	-12.0653
▁darkness	-12.0654
▁farrell	-12.0654
▁nerdy	-12.0654
▁faking	-12.0655
ier	-12.0659
▁warning	-12.066
▁tank	-12.066
▁arabic	-12.0661
ew	-12.0663
▁floats	-12.0665
▁lauren	-12.0666
▁boulevard	-12.0666
▁federline	-12.0667
▁homepage	-12.0668
▁refused	-12.0668
▁served	-12.0668
▁nun	-12.0669
▁sesame	-12.0669
▁sweetest	-12.0669
▁wentz	-12.0669
▁yourselves	-12.067
▁painted	-12.067
▁pistols	-12.0671
▁squad	-12.0672
▁zach	-12.0672
▁roughly	-12.0673
▁significantly	-12.0674
▁avenge	-12.0674
)...	-12.0675
▁advanced	-12.0675
▁remained	-12.0675
▁virtual	-12.0675
▁fruity	-12.0675
▁tested	-12.0675
▁ballad	-12.0676
anyone	-12.0678
▁matches	-12.0679
▁fac	-12.068
▁discussed	-12.0681
▁comparable	-12.0682
▁debut	-12.0682
▁omarion	-12.0683
▁brenna	-12.0683
▁akon	-12.0684
▁obtained	-12.0686
▁irritate	-12.0688
▁licking	-12.069
▁abused	-12.0692
▁sets	-12.0696
▁woody	-12.0696
▁pulp	-12.0698
▁chime	-12.0699
▁hush	-12.07
▁embrace	-12.07
▁revolver	-12.0701
cos	-12.0702
▁cleaner	-12.0702
▁movements	-12.0702
▁renting	-12.0704
▁cbs	-12.0705
...(	-12.0706
▁nyc	-12.0708
▁sunny	-12.0709
▁rangers	-12.071
▁slower	-12.0711
▁beloved	-12.0712
▁tail	-12.0712
box	-12.0715
someone	-12.0718
see	-12.0719
▁figures	-12.0727
▁peck	-12.0727
▁fl	-12.073
▁comedians	-12.0731
▁flight	-12.0734
▁kings	-12.0738
▁brady	-12.074
▁52	-12.0744
▁joining	-12.0746
▁weekly	-12.0747
▁defend	-12.0749
▁cooler	-12.0756
▁similarly	-12.0758
▁buns	-12.076
▁parker	-12.0763
new	-12.0763
▁sucker	-12.0765
▁linda	-12.0766
▁forgiven	-12.0767
family	-12.0775
▁addicts	-12.0786
▁reck	-12.079
▁oscars	-12.079
▁mins	-12.079
break	-12.079
home	-12.0793
▁sued	-12.0796
sometimes	-12.0798
▁drool	-12.0802
▁airing	-12.0806
▁ri	-12.0808
▁thankful	-12.0816
▁betty	-12.0824
▁liars	-12.0824
▁puff	-12.0827
▁directions	-12.0832
▁waits	-12.0835
▁goodies	-12.0838
▁thousands	-12.0838
▁amy	-12.0854
▁forum	-12.0862
▁signing	-12.0867
▁meals	-12.0868
▁whoa	-12.0869
▁marc	-12.0874
▁originate	-12.0877
▁imply	-12.0878
ye	-12.0883
▁trace	-12.0889
▁beans	-12.0891
ardo	-12.0894
▁tales	-12.0896
▁alway	-12.0897
2.	-12.0903
kate	-12.0909
dumb	-12.0909
worker	-12.092
simple	-12.0922
▁tri	-12.0933
▁accuse	-12.094
▁guest	-12.0945
▁belle	-12.095
▁wham	-12.0958
▁yuck	-12.0968
:-)	-12.0976
▁faves	-12.0984
face	-12.0989
▁hearted	-12.0992
▁convert	-12.0999
▁ohh	-12.1
▁sti	-12.1008
▁premiere	-12.1009
▁picks	-12.1011
true	-12.1013
ink	-12.1017
▁heath	-12.1024
▁honk	-12.1025
▁mack	-12.1026
▁bart	-12.1028
▁cooks	-12.1066
ere	-12.1072
▁troubles	-12.1074
▁titles	-12.1082
▁asians	-12.1084
zo	-12.1089
aid	-12.1104
gh	-12.1104
eyed	-12.1113
▁design	-12.1118
▁explains	-12.1125
▁hoped	-12.1136
▁hahahaha	-12.1141
▁va	-12.1142
▁decline	-12.1158
▁wih	-12.1159
▁mosquito	-12.116
▁promises	-12.1162
▁addiction	-12.1168
▁blows	-12.1168
rry	-12.1169
▁lois	-12.1169
▁appointment	-12.1172
▁bookstore	-12.1173
▁stereo	-12.1174
▁infant	-12.1178
▁pumpkin	-12.1179
▁friendships	-12.1182
▁hippie	-12.1182
▁:))	-12.1184
▁trial	-12.1185
▁geez	-12.1185
▁sy	-12.119
▁picky	-12.119
▁perv	-12.1197
▁teh	-12.1198
▁monk	-12.1211
▁consent	-12.122
▁poster	-12.1222
▁redhead	-12.1233
ably	-12.1235
▁compromise	-12.1247
saw	-12.1252
▁sharon	-12.1253
▁kentucky	-12.1253
▁filth	-12.1256
▁detroit	-12.1258
▁absurd	-12.1263
▁dessert	-12.1263
▁legitimate	-12.1263
▁lincoln	-12.1263
▁nigeria	-12.1263
▁privacy	-12.1263
▁redemption	-12.1263
▁samantha	-12.1263
▁wizard	-12.1263
▁consult	-12.1263
▁sympathize	-12.1263
▁daughtry	-12.1263
▁department	-12.1263
▁boomerang	-12.1263
▁oregon	-12.1263
▁unappealing	-12.1263
▁fellatio	-12.1263
▁raymond	-12.1263
▁beavis	-12.1263
▁envy	-12.1263
▁forehead	-12.1264
▁maggie	-12.1264
▁dropped	-12.1264
▁wallace	-12.1264
▁realise	-12.1264
▁restroom	-12.1264
▁rouge	-12.1264
▁chubby	-12.1264
▁whining	-12.1264
▁inviting	-12.1264
▁fridge	-12.1265
▁nagging	-12.1265
▁denny	-12.1265
▁entirety	-12.1265
▁cameron	-12.1265
▁masturbating	-12.1265
▁oooh	-12.1266
▁deserving	-12.1266
▁valley	-12.1266
▁conversing	-12.1267
▁gir	-12.1267
▁evan	-12.1267
▁ultimately	-12.1268
▁gaming	-12.1269
▁ribs	-12.127
▁abba	-12.127
▁farmer	-12.127
▁nancy	-12.1271
▁roy	-12.1271
▁hispanic	-12.1271
▁overrated	-12.1271
▁cnn	-12.1271
▁sappy	-12.1274
▁regularly	-12.1275
▁chewing	-12.1275
▁employment	-12.1275
▁dosen	-12.1276
▁randomly	-12.1276
▁instructions	-12.1277
▁sydney	-12.1277
▁busta	-12.1277
▁staind	-12.1277
▁futurama	-12.1277
▁depression	-12.1278
▁shaggy	-12.1278
dashboard	-12.1278
▁battery	-12.1279
▁heroin	-12.1279
▁kinky	-12.128
▁pitch	-12.128
▁stairs	-12.1281
▁stressed	-12.1281
▁sopranos	-12.1282
▁mari	-12.1282
▁meanwhile	-12.1282
▁hatch	-12.1285
▁possesses	-12.1285
▁obsessive	-12.1286
▁gnr	-12.1286
▁insulting	-12.1286
▁capital	-12.1286
▁dopey	-12.1288
▁biker	-12.1292
▁incident	-12.1292
▁salsa	-12.1293
nothing	-12.1295
▁wrestle	-12.1297
▁valid	-12.1297
▁skating	-12.1297
▁eighth	-12.1299
▁collins	-12.1301
▁persons	-12.1301
▁partake	-12.1302
▁flava	-12.1305
▁leap	-12.131
▁whitney	-12.1311
▁presently	-12.1312
▁2-	-12.1313
▁described	-12.1314
▁behalf	-12.1317
▁cult	-12.1321
▁kirk	-12.1324
▁fur	-12.1324
▁crossing	-12.1326
▁sirius	-12.1327
▁sack	-12.1327
▁lightly	-12.1327
▁tricky	-12.1334
▁aid	-12.1336
▁sonic	-12.1336
▁dull	-12.1336
▁gud	-12.1337
▁hitch	-12.1338
▁moody	-12.134
▁screamo	-12.1341
▁dc	-12.135
▁knw	-12.1352
▁flags	-12.1353
▁sitcom	-12.1353
▁zen	-12.1356
▁xxx	-12.1357
▁totaly	-12.1362
▁recorder	-12.1363
▁alan	-12.1365
▁thongs	-12.1366
▁coin	-12.1369
sa	-12.1371
▁alternate	-12.1374
▁giants	-12.1379
▁chester	-12.1381
▁bff	-12.1381
pod	-12.1383
▁dressing	-12.1387
▁hunting	-12.1388
▁joker	-12.1389
search	-12.139
▁mystic	-12.1399
▁dora	-12.14
▁ellen	-12.1406
▁bein	-12.1409
▁touring	-12.1413
▁perverts	-12.1419
▁appearances	-12.142
hen	-12.143
▁quarters	-12.1431
▁tied	-12.1431
▁hopeless	-12.1434
▁armed	-12.1436
▁plate	-12.1441
▁wave	-12.1451
▁arrives	-12.1453
▁puke	-12.1456
lin	-12.1464
ious	-12.1465
▁dinosaur	-12.147
van	-12.1476
▁insert	-12.1482
▁relie	-12.1485
▁sk	-12.1489
▁jodi	-12.149
▁1-	-12.1494
beautiful	-12.1494
▁kindly	-12.1495
rie	-12.1496
crazy	-12.1505
▁strippers	-12.1519
▁playa	-12.1527
▁exit	-12.1528
got	-12.153
▁computers	-12.1537
▁et	-12.1538
▁thi	-12.1543
▁dancers	-12.1545
truck	-12.1548
fire	-12.1549
▁imagin	-12.155
sweet	-12.1552
▁sane	-12.1552
▁98	-12.1554
▁symbol	-12.1558
tempted	-12.156
sing	-12.1566
con	-12.1567
▁rage	-12.1573
za	-12.1577
▁pets	-12.1577
▁ark	-12.1577
▁hong	-12.1587
▁statements	-12.159
sexy	-12.1604
▁whores	-12.1604
▁mas	-12.1605
▁versa	-12.1609
▁deals	-12.1611
rap	-12.1614
rah	-12.1615
turn	-12.1616
▁leos	-12.1617
▁69	-12.1621
hmmm	-12.1647
house	-12.1647
▁compar	-12.1647
amazon	-12.1648
▁guessed	-12.1649
▁cum	-12.1651
▁ve	-12.1653
*****	-12.1655
need	-12.1659
metal	-12.1659
goose	-12.166
▁hers	-12.1661
▁sundays	-12.1672
specially	-12.1694
▁hank	-12.1699
▁iz	-12.1701
▁adopt	-12.1707
also	-12.1711
▁loc	-12.1714
▁???	-12.1715
producing	-12.1716
▁preform	-12.1717
ella	-12.172
▁favs	-12.1739
▁prices	-12.1747
▁owned	-12.1749
ess	-12.1768
▁toni	-12.1777
;)	-12.1791
▁frequent	-12.1798
▁rea	-12.1804
▁rec	-12.1807
rate	-12.1811
▁boob	-12.1814
▁poke	-12.1823
▁strength	-12.1826
▁mutant	-12.1827
▁lightning	-12.1828
▁barker	-12.183
▁amuse	-12.1832
▁william	-12.1833
▁spark	-12.1838
▁pipe	-12.1839
▁judgment	-12.184
▁lemon	-12.184
▁coupon	-12.1841
▁veronica	-12.1842
▁gesture	-12.1844
▁predator	-12.1845
▁cr	-12.1846
ease	-12.1846
▁sibling	-12.1847
▁midget	-12.1848
▁vibrator	-12.1854
▁oppose	-12.1858
▁western	-12.186
▁roof	-12.1861
▁sink	-12.1868
dance	-12.1879
▁understands	-12.1887
acious	-12.1893
▁trie	-12.1906
▁conclude	-12.1915
▁tickle	-12.1915
▁potato	-12.1926
▁technical	-12.1926
▁susan	-12.1929
▁hudson	-12.193
▁invisible	-12.193
▁mediocre	-12.193
▁nicholas	-12.193
▁scientology	-12.193
▁shrimp	-12.193
▁exceedingly	-12.193
▁sponsor	-12.193
▁beneath	-12.193
▁environment	-12.193
▁butterfly	-12.193
▁hermione	-12.193
▁outkast	-12.193
▁whisky	-12.193
▁companies	-12.193
▁medicine	-12.193
▁unnecessary	-12.193
▁muslim	-12.193
▁cradle	-12.193
▁bitcomet	-12.193
▁continuously	-12.193
▁occurrence	-12.193
▁ignorance	-12.193
▁simultaneously	-12.193
▁marvel	-12.193
▁bizarre	-12.193
▁arguing	-12.193
▁precisely	-12.193
▁dropping	-12.193
▁programming	-12.193
▁surgeon	-12.193
▁outrageous	-12.193
▁appearence	-12.1931
▁exploring	-12.1931
▁household	-12.1932
▁disgusted	-12.1932
▁homosexuality	-12.1933
▁madden	-12.1933
▁flaws	-12.1933
▁constant	-12.1933
▁freestyle	-12.1933
▁supper	-12.1933
▁superb	-12.1934
▁idiotic	-12.1934
▁unclear	-12.1934
▁silk	-12.1934
▁deliver	-12.1935
▁bully	-12.1936
▁overboard	-12.1936
▁preacher	-12.1936
▁surprisingly	-12.1936
▁playful	-12.1936
▁macho	-12.1937
▁spray	-12.1937
▁advisable	-12.1937
▁stabbed	-12.1938
▁goku	-12.194
same	-12.194
▁critical	-12.1943
▁admitted	-12.1944
▁landed	-12.1944
▁village	-12.1944
▁military	-12.1944
▁gadgets	-12.1944
▁oklahoma	-12.1945
▁thighs	-12.1945
▁maroon	-12.1945
▁meatloaf	-12.1945
▁flag	-12.1945
▁vanessa	-12.1945
▁genesis	-12.1946
▁wooden	-12.1946
▁directed	-12.1946
▁nero	-12.1947
▁occupied	-12.1947
▁cracked	-12.1948
▁boredom	-12.1951
▁attractiveness	-12.1951
2000	-12.1952
▁gloves	-12.1952
▁debt	-12.1954
▁superficial	-12.1954
▁applies	-12.1954
00	-12.1954
▁insight	-12.1956
crystal	-12.1956
▁selected	-12.1957
▁posing	-12.1958
▁fye	-12.1958
▁clint	-12.1959
▁strait	-12.1959
▁pancakes	-12.196
▁sensation	-12.196
▁rox	-12.1961
▁incorrectly	-12.1961
▁tounge	-12.1962
▁waht	-12.1963
▁mode	-12.1964
▁kazza	-12.1964
▁cities	-12.1965
▁whit	-12.1965
nry	-12.1966
▁eww	-12.1967
last	-12.1968
▁dawn	-12.1969
▁menace	-12.197
▁serial	-12.197
▁loudly	-12.197
▁grant	-12.1971
▁facts	-12.1972
▁666	-12.1974
pposed	-12.1977
▁hp	-12.1982
▁approached	-12.1984
▁convinced	-12.1984
▁sting	-12.1985
▁shaking	-12.1989
▁skit	-12.199
▁crackers	-12.1992
▁fighters	-12.1993
▁becky	-12.1994
▁funds	-12.1997
▁teaching	-12.2
▁restrain	-12.2
▁castle	-12.2001
▁meaningful	-12.2003
used	-12.2003
▁indiana	-12.2004
▁diego	-12.2005
ass	-12.2005
▁jose	-12.2006
▁explained	-12.2006
▁gate	-12.2012
▁mission	-12.2013
destined	-12.2014
▁worker	-12.2015
▁chords	-12.2016
▁training	-12.2018
▁earned	-12.2019
▁washing	-12.2022
▁cab	-12.2025
▁knocking	-12.2026
▁fever	-12.2027
▁relatives	-12.2027
▁cigarettes	-12.2031
▁thinkin	-12.2032
▁hippies	-12.2034
▁straightforward	-12.2034
▁meantime	-12.2035
▁recommended	-12.2039
▁ummmm	-12.2039
▁errors	-12.2044
▁zack	-12.2044
▁dion	-12.2044
▁approaching	-12.2046
▁pose	-12.2049
▁warez	-12.2052
▁centered	-12.2065
▁existing	-12.207
▁adjust	-12.2072
▁nicky	-12.2073
▁suggested	-12.2077
again	-12.2081
▁limp	-12.2085
everything	-12.2095
▁neo	-12.2097
▁kak	-12.2103
▁hog	-12.2107
▁sober	-12.2108
0)	-12.212
sounds	-12.2122
▁seeds	-12.2123
▁sniff	-12.2128
▁evans	-12.2136
aking	-12.2139
▁beliefs	-12.214
▁tables	-12.2141
▁ham	-12.2143
▁anyhow	-12.2146
▁toy	-12.2148
hehe	-12.215
▁bong	-12.2156
ure	-12.216
▁atl	-12.217
voice	-12.2172
▁sequels	-12.2173
▁habits	-12.2175
were	-12.2176
send	-12.2177
▁winners	-12.2178
▁cur	-12.2181
▁arse	-12.2182
rey	-12.2193
▁whos	-12.2196
▁involv	-12.2197
juicy	-12.2197
rent	-12.2202
▁worn	-12.2222
▁prime	-12.2226
▁roth	-12.2237
▁afterall	-12.2242
▁amber	-12.2243
▁mouths	-12.2248
▁mellow	-12.2256
kinda	-12.2259
▁beef	-12.2262
ward	-12.2265
▁mcphee	-12.2267
▁operate	-12.227
▁nag	-12.2271
tom	-12.2274
▁tag	-12.2278
▁mart	-12.2279
iest	-12.228
next	-12.2284
▁6,	-12.2294
▁feb	-12.2294
▁101	-12.2306
pain	-12.2307
▁inspire	-12.2308
▁woods	-12.2316
kelly	-12.2322
chick	-12.2329
wish	-12.2337
▁cali	-12.234
▁fathers	-12.2343
▁sleeps	-12.2351
▁cap	-12.2352
▁tat	-12.2353
confidence	-12.2356
knock	-12.2357
▁4,	-12.2358
▁sizes	-12.2363
uncredited	-12.2364
▁theron	-12.2373
▁nuthin	-12.2375
familiar	-12.2379
▁kills	-12.238
sigh	-12.2381
▁meets	-12.2383
foot	-12.2397
▁haired	-12.2403
parental	-12.2405
▁accus	-12.2406
▁league	-12.2411
▁behaves	-12.2412
ated	-12.2414
six	-12.2415
ways	-12.2415
▁spaces	-12.2426
itty	-12.2426
ig	-12.2428
ome	-12.243
▁pg	-12.2432
▁transfer	-12.2434
▁performances	-12.2438
▁fees	-12.2446
▁discs	-12.2452
tic	-12.2456
bie	-12.2466
)?	-12.2469
club	-12.2479
▁horses	-12.248
ron	-12.248
▁rope	-12.2484
light	-12.2489
▁seed	-12.2501
ative	-12.2501
ri	-12.2507
▁mat	-12.2521
▁har	-12.2525
▁phones	-12.2532
▁scenario	-12.2549
▁mermaid	-12.2549
▁requirement	-12.2559
▁remark	-12.2563
▁vinyl	-12.2565
▁turkey	-12.2565
▁comb	-12.2567
res	-12.257
▁balloon	-12.2575
▁ew	-12.2576
▁wats	-12.258
ving	-12.2585
▁maya	-12.2589
▁9,	-12.2591
▁feather	-12.2593
▁periods	-12.2594
ul	-12.2603
▁porch	-12.2604
▁pot	-12.261
▁wha	-12.2612
fun	-12.2614
▁woul	-12.2619
ga	-12.2621
▁stock	-12.2622
▁endings	-12.2626
yea	-12.2629
-5	-12.2631
hand	-12.2631
▁junkie	-12.2634
▁dunn	-12.2635
▁plac	-12.2637
ek	-12.2639
▁disappear	-12.264
▁jock	-12.2642
▁michigan	-12.2644
▁alchemist	-12.2644
▁anonymous	-12.2644
▁conceited	-12.2644
▁joplin	-12.2644
▁mercury	-12.2644
▁ozzfest	-12.2644
▁ralph	-12.2644
▁surmise	-12.2644
▁tisdale	-12.2644
▁chamillionaire	-12.2644
▁shirley	-12.2644
▁cindy	-12.2644
▁superbowl	-12.2644
▁unbelievable	-12.2644
▁certificate	-12.2644
▁parrot	-12.2644
▁slender	-12.2644
▁committment	-12.2644
▁disregard	-12.2644
▁orientation	-12.2644
▁pantera	-12.2644
▁vague	-12.2644
▁lennon	-12.2644
▁webpage	-12.2644
▁heavier	-12.2644
▁incarcerated	-12.2644
▁username	-12.2644
▁arrival	-12.2644
▁twain	-12.2644
▁motivation	-12.2644
▁surface	-12.2644
▁electra	-12.2644
▁slightest	-12.2644
▁vcr	-12.2644
▁participating	-12.2644
▁morgan	-12.2645
▁sagittarius	-12.2645
▁fuzzy	-12.2645
▁russell	-12.2645
▁tivo	-12.2645
▁katharine	-12.2645
▁humble	-12.2645
▁operator	-12.2646
▁vaughn	-12.2646
▁trump	-12.2646
▁tennis	-12.2646
▁arabian	-12.2647
▁illness	-12.2647
▁ninth	-12.2647
▁overwhelming	-12.2647
▁flattered	-12.2648
▁jenny	-12.2648
▁completly	-12.2648
▁unkind	-12.2648
▁nightwish	-12.2648
▁rabia	-12.2649
▁drake	-12.2649
▁debate	-12.2649
▁firmly	-12.2649
▁experiment	-12.2649
▁believable	-12.2649
▁prick	-12.265
▁injured	-12.2651
?!?!	-12.2651
dude	-12.2651
▁burst	-12.2653
▁smoothly	-12.2654
▁respectable	-12.2655
▁upsetting	-12.2656
▁delivery	-12.2656
▁manhood	-12.2657
▁suffered	-12.2657
▁angle	-12.2657
▁escort	-12.2658
▁neverland	-12.2658
▁cutting	-12.2658
▁lemme	-12.2658
▁diet	-12.2659
▁puberty	-12.266
▁multi	-12.266
▁assertive	-12.266
▁fantasia	-12.266
▁hunger	-12.2661
▁maby	-12.2663
▁formerly	-12.2665
▁juz	-12.2665
▁radiohead	-12.2665
▁jeez	-12.2665
▁stroke	-12.2666
▁fitting	-12.2667
die	-12.2668
▁alcoholic	-12.2668
▁crude	-12.2668
▁truthfully	-12.2669
▁livin	-12.267
▁suited	-12.267
▁stinky	-12.267
▁arrest	-12.2672
▁pile	-12.2674
▁pacific	-12.2676
▁bennett	-12.2677
▁lawrence	-12.2679
▁furniture	-12.2679
▁scratch	-12.2681
▁nwa	-12.2685
▁aloud	-12.2686
ys	-12.2691
▁observed	-12.2694
▁tru	-12.2694
▁lawn	-12.2695
▁researching	-12.2698
▁bates	-12.27
▁procure	-12.27
▁tire	-12.2701
▁fulfilling	-12.2703
▁cork	-12.2704
▁copie	-12.2706
▁owens	-12.2707
▁strangely	-12.2709
▁presented	-12.271
▁document	-12.2711
teen	-12.2711
▁addresses	-12.2713
▁stomp	-12.2715
▁puppets	-12.2715
▁starters	-12.2716
▁55	-12.2717
▁grillz	-12.2718
▁praying	-12.2721
▁xx	-12.2724
▁testing	-12.2724
▁grind	-12.2726
▁endless	-12.2727
▁demons	-12.2729
▁union	-12.273
▁sofa	-12.2742
▁rockstar	-12.2743
▁tuned	-12.2744
called	-12.2745
▁props	-12.2748
▁ringtones	-12.2753
dad	-12.2764
▁hart	-12.2764
▁inquired	-12.2765
▁fob	-12.2766
▁halle	-12.2772
▁juliet	-12.2772
▁evry	-12.2775
▁posers	-12.2776
▁adress	-12.2777
'.	-12.2786
▁poe	-12.2789
▁benny	-12.2794
▁carly	-12.2794
▁bea	-12.2795
▁custom	-12.2796
stupid	-12.2797
done	-12.2802
▁nip	-12.2803
met	-12.2803
▁translate	-12.2805
▁photographs	-12.2806
▁auditions	-12.2809
▁fray	-12.2811
yr	-12.2816
▁dumping	-12.2819
▁mj	-12.2822
▁factors	-12.2826
▁bot	-12.2831
▁hay	-12.2837
▁horns	-12.2839
▁attempts	-12.2842
▁mud	-12.2844
▁probable	-12.2845
pick	-12.2848
▁xd	-12.2849
▁advised	-12.2853
▁intent	-12.2859
▁quest	-12.2861
▁instruments	-12.2861
▁dolly	-12.2861
▁stared	-12.2864
▁hangin	-12.2865
▁projects	-12.2866
▁freely	-12.2867
▁juda	-12.2886
▁political	-12.2894
▁exes	-12.2897
aka	-12.2899
!!!)	-12.2903
state	-12.2904
▁rom	-12.2924
▁messe	-12.293
▁premier	-12.293
▁......	-12.2931
kid	-12.2934
▁spite	-12.2936
▁licks	-12.2946
ase	-12.295
:(	-12.2951
▁weirdo	-12.2958
lbs	-12.2959
▁20.	-12.2961
cial	-12.2963
500	-12.2972
dvd	-12.2973
ouch	-12.2975
▁dey	-12.2976
▁havn	-12.2977
thank	-12.2977
▁*****	-12.298
▁defin	-12.299
queen	-12.2993
▁labels	-12.2999
▁tasks	-12.3001
▁frown	-12.3002
▁whereas	-12.3002
▁pickle	-12.3004
ford	-12.3005
▁fla	-12.3009
▁tan	-12.3011
▁cracks	-12.3015
▁tak	-12.3016
click	-12.302
uld	-12.3035
rl	-12.3036
▁dub	-12.3045
14	-12.3046
broke	-12.3049
▁incredibles	-12.3049
honey	-12.3057
▁sec	-12.3062
▁des	-12.3067
under	-12.307
▁acquaintance	-12.3072
angel	-12.3073
ions	-12.3081
▁nicest	-12.3081
▁tower	-12.3086
▁betta	-12.3087
nobody	-12.3088
beat	-12.309
wink	-12.3093
except	-12.3102
ky	-12.3106
▁warrant	-12.3108
▁azz	-12.3113
▁anus	-12.3119
▁stumble	-12.3123
▁pains	-12.3127
▁43	-12.3136
stand	-12.3147
lmao	-12.3164
clock	-12.3166
▁rockin	-12.3172
married	-12.3191
▁2002	-12.32
damn	-12.3202
▁concerns	-12.3205
ove	-12.3206
ue	-12.3211
ole	-12.3215
mela	-12.3223
hip	-12.3235
couse	-12.3237
▁danced	-12.3259
▁usb	-12.326
uck	-12.3264
▁nu	-12.3276
▁***	-12.3279
▁lone	-12.3286
ugh	-12.3296
▁110	-12.3299
▁avatars	-12.3303
▁loo	-12.3307
▁microphone	-12.331
▁conc	-12.3311
▁shi	-12.3312
▁taboo	-12.3314
cking	-12.3315
▁citizen	-12.3315
▁gorilla	-12.3316
case	-12.3317
▁obsession	-12.3319
▁candle	-12.3322
▁dustin	-12.3325
▁bing	-12.3327
▁spanking	-12.3327
▁blocker	-12.3331
ong	-12.3336
▁genetic	-12.3339
▁shaw	-12.3339
▁movement	-12.3343
▁sample	-12.3344
▁taco	-12.3346
▁arch	-12.335
▁chatroom	-12.3364
▁conquer	-12.3368
▁sly	-12.3377
▁spendin	-12.3378
▁torture	-12.3385
stick	-12.3387
▁feelin	-12.3387
▁mole	-12.3398
▁mist	-12.3408
▁trivia	-12.3409
▁unconditional	-12.341
▁unexpected	-12.341
▁criteria	-12.3413
▁intriguing	-12.3413
▁lorelai	-12.3413
▁merchandise	-12.3413
▁miranda	-12.3413
▁neglect	-12.3413
▁testosterone	-12.3413
▁vitamin	-12.3413
▁vulnerable	-12.3413
▁beckham	-12.3413
▁nonetheless	-12.3413
▁platonic	-12.3413
▁rubbish	-12.3413
▁carribean	-12.3413
▁pacino	-12.3413
▁attorney	-12.3413
▁marissa	-12.3413
▁cotton	-12.3413
▁jelous	-12.3413
▁burden	-12.3413
▁goddess	-12.3413
▁milkshake	-12.3413
▁kewl	-12.3413
▁groban	-12.3413
▁excess	-12.3413
▁jeannie	-12.3413
▁undergarments	-12.3413
▁punishment	-12.3413
▁betrothed	-12.3413
▁priorities	-12.3413
▁refrigerator	-12.3413
▁roundhouse	-12.3413
▁stressful	-12.3413
▁sincerity	-12.3414
▁basement	-12.3414
▁indication	-12.3414
▁infected	-12.3414
▁arouse	-12.3414
▁addictive	-12.3414
▁utah	-12.3414
▁resort	-12.3414
▁utilizing	-12.3414
▁hickey	-12.3415
▁pleasurable	-12.3415
▁syndrome	-12.3415
▁uniform	-12.3415
▁ditto	-12.3415
▁terrific	-12.3415
huh	-12.3415
▁zipper	-12.3415
▁scoop	-12.3415
▁harrison	-12.3416
▁handful	-12.3416
▁discount	-12.3417
▁realizing	-12.3417
▁practically	-12.3417
▁petals	-12.3417
▁slapping	-12.3417
▁committing	-12.3417
▁clueless	-12.3417
▁goosebumps	-12.3417
▁rephrase	-12.3417
▁hiphop	-12.3418
▁freshman	-12.3418
▁corse	-12.3419
▁beginner	-12.342
▁bowie	-12.342
▁nigga	-12.342
▁homecoming	-12.3421
▁stella	-12.3422
▁tamil	-12.3422
▁detailed	-12.3422
▁wager	-12.3423
▁customer	-12.3423
▁remarried	-12.3423
▁printed	-12.3423
▁finances	-12.3423
▁devoted	-12.3424
▁babysit	-12.3425
▁herpes	-12.3425
▁bust	-12.3425
▁profit	-12.3425
▁stupidity	-12.3427
▁motor	-12.3427
▁outdated	-12.3427
▁trade	-12.3429
▁sequence	-12.3429
▁shuld	-12.3429
▁venus	-12.3429
▁memoir	-12.3429
▁celine	-12.3429
▁nelson	-12.3429
▁upfront	-12.343
▁mcdreamy	-12.343
▁apocalypse	-12.343
▁flatulence	-12.343
▁glory	-12.343
▁10,000	-12.3431
▁shiny	-12.3431
▁frustrating	-12.3431
▁reflection	-12.3431
▁cycle	-12.3431
▁obey	-12.3432
▁agian	-12.3433
▁seventy	-12.3433
▁pardon	-12.3435
▁dorky	-12.3435
▁booze	-12.3436
▁tuning	-12.3436
▁universal	-12.3437
▁murdered	-12.3437
▁explorer	-12.3437
dee	-12.3437
▁wisely	-12.3438
▁curves	-12.3439
▁95	-12.3439
▁kiddin	-12.3439
pittsburgh	-12.3441
▁regain	-12.3442
▁stealth	-12.3442
▁sneaky	-12.3443
▁polish	-12.3445
▁takin	-12.3445
▁brass	-12.3445
▁repeated	-12.3446
▁developed	-12.3446
▁confessional	-12.3449
▁lindsey	-12.345
▁cocaine	-12.3451
▁excite	-12.3452
▁replaced	-12.3452
▁server	-12.3454
▁trend	-12.3455
▁dearly	-12.3456
▁busted	-12.346
▁charts	-12.346
33	-12.3461
▁persue	-12.3463
▁misse	-12.3464
▁combo	-12.3464
▁cleaned	-12.3467
▁grrrs	-12.347
▁rocking	-12.3471
▁trance	-12.3472
▁donno	-12.3472
▁yummy	-12.3473
▁neva	-12.3473
▁epic	-12.3474
▁rushed	-12.3475
▁stunts	-12.3478
▁slice	-12.3479
▁marching	-12.3481
being	-12.3481
▁beaches	-12.3482
▁whichever	-12.3484
▁warn	-12.3484
▁endeavors	-12.3484
▁pond	-12.3486
▁avoided	-12.3487
▁pronounced	-12.3491
▁nike	-12.3495
▁shooting	-12.3497
▁dealer	-12.3497
usa	-12.3501
▁tink	-12.3501
▁swinging	-12.3503
▁productive	-12.3506
tting	-12.3507
gged	-12.3508
▁anyday	-12.3512
▁carefull	-12.3512
▁francis	-12.3514
ynard	-12.3515
▁recommendation	-12.3521
▁raz	-12.3521
remember	-12.3523
▁pushy	-12.3526
▁amused	-12.353
▁sitcoms	-12.3535
▁weapons	-12.3538
▁mentioning	-12.354
▁christians	-12.3543
▁kickin	-12.3546
▁pier	-12.3548
▁agrees	-12.3552
chan	-12.3552
▁js	-12.3556
▁yoko	-12.356
▁gap	-12.3564
▁marries	-12.3567
▁steam	-12.3568
▁lite	-12.3571
▁yay	-12.3571
▁becoz	-12.3573
▁victims	-12.3578
▁120	-12.3581
▁dani	-12.3581
grass	-12.3595
▁befriend	-12.36
▁rogers	-12.3601
▁alittle	-12.3603
runs	-12.3604
▁objects	-12.3606
▁penn	-12.3609
▁greener	-12.3614
▁gill	-12.3628
▁sn	-12.363
▁sigh	-12.3637
▁coma	-12.3637
▁duo	-12.3643
▁cl	-12.3644
much	-12.3653
ign	-12.3654
away	-12.3657
ching	-12.366
hehehe	-12.3665
mer	-12.3667
start	-12.3672
▁primar	-12.3672
point	-12.3675
▁por	-12.3675
▁lbs	-12.3675
▁punish	-12.3675
▁vent	-12.3677
▁stab	-12.3678
lots	-12.3678
ied	-12.3687
▁partying	-12.3687
▁bottles	-12.369
▁figur	-12.3691
▁sends	-12.3698
▁probal	-12.3719
▁astrolog	-12.3719
▁cal	-12.372
▁anthem	-12.372
▁21.	-12.3726
▁lists	-12.3726
ile	-12.3728
wat	-12.3734
▁cheatin	-12.3739
▁lyk	-12.3759
shank	-12.3766
doo	-12.3767
stay	-12.377
▁tools	-12.3777
eat	-12.378
▁pra	-12.3784
▁jeeves	-12.3789
▁54	-12.379
▁parks	-12.3791
000	-12.3794
ect	-12.3795
▁erect	-12.3797
▁ban	-12.3801
der	-12.3803
ct	-12.3804
using	-12.3811
▁listener	-12.3822
▁pit	-12.3823
versa	-12.3823
high	-12.3823
▁deer	-12.384
▁poll	-12.3847
almost	-12.385
que	-12.3859
board	-12.3868
jo	-12.3878
name	-12.3885
better	-12.3891
▁opposites	-12.3892
▁bop	-12.3893
omg	-12.3893
▁auto	-12.3898
dead	-12.3901
ically	-12.3905
▁toes	-12.3907
zz	-12.391
▁........	-12.3912
everybody	-12.3913
ives	-12.3919
ff	-12.3919
boys	-12.3924
player	-12.3934
waiting	-12.3935
besides	-12.3941
******	-12.3951
ook	-12.3954
ain	-12.3961
fox	-12.3962
lost	-12.3965
▁trips	-12.3966
insert	-12.397
bar	-12.3973
▁zz	-12.3974
chorus	-12.3975
▁ghosts	-12.3976
▁sms	-12.398
▁kn	-12.3983
▁jew	-12.3986
▁fro	-12.3986
manga	-12.3989
▁tal	-12.399
▁32	-12.3994
haired	-12.3999
xx	-12.4
▁hence	-12.4001
▁todays	-12.4004
▁pakistan	-12.4012
▁smokes	-12.402
▁faults	-12.4024
!...	-12.404
trained	-12.4053
▁bud	-12.4055
▁requests	-12.4067
willing	-12.4067
▁sm	-12.4068
▁emerge	-12.4069
/4	-12.4072
wan	-12.408
▁(*	-12.409
▁forest	-12.4097
▁semi	-12.4099
kill	-12.41
▁skill	-12.4101
▁ditch	-12.4103
tty	-12.4105
▁para	-12.411
▁cart	-12.4111
66	-12.4111
▁alike	-12.4115
▁judges	-12.4116
dd	-12.4117
▁supose	-12.4119
▁graduate	-12.4125
ible	-12.4125
ought	-12.4129
▁awaken	-12.4133
▁reward	-12.4135
▁''	-12.414
▁bridesmaid	-12.4143
▁zoe	-12.4144
▁blondie	-12.4148
▁hamster	-12.4152
▁iran	-12.4154
▁molester	-12.4155
▁european	-12.4157
▁dictate	-12.416
▁intellect	-12.416
▁substance	-12.4161
▁festival	-12.4162
▁puppet	-12.4163
▁grammy	-12.4163
▁giggle	-12.4164
▁flippin	-12.4167
▁tee	-12.4174
▁definite	-12.4177
▁superstar	-12.418
▁xp	-12.4182
▁flame	-12.4182
▁homo	-12.4183
▁proble	-12.4183
▁eff	-12.4185
????????????	-12.4188
▁slam	-12.4189
▁2001	-12.4189
fall	-12.4194
▁dip	-12.4197
▁blonds	-12.4198
▁session	-12.4205
▁owen	-12.4206
▁adds	-12.421
▁rides	-12.4212
might	-12.4212
▁signal	-12.4212
▁loathe	-12.422
▁luc	-12.4227
▁criticize	-12.4231
▁vomit	-12.4232
aol	-12.4233
▁terminate	-12.4238
▁delay	-12.4239
▁ranger	-12.424
▁mistress	-12.4242
▁youthful	-12.4242
▁chunk	-12.4244
▁brag	-12.4245
▁exhibit	-12.4246
▁bahamas	-12.4246
▁beckinsale	-12.4246
▁dakota	-12.4246
▁frankenstein	-12.4246
▁kareena	-12.4246
▁nashville	-12.4246
▁nickelodeon	-12.4246
▁reznor	-12.4246
▁rugrats	-12.4246
▁shampoo	-12.4246
▁spectacular	-12.4246
▁spooky	-12.4246
▁telecaster	-12.4246
▁chesney	-12.4246
▁crooked	-12.4246
▁distasteful	-12.4246
▁kansas	-12.4246
▁optimistic	-12.4246
▁blvd	-12.4246
▁genitalia	-12.4246
▁mcbride	-12.4246
▁stubborn	-12.4246
▁university	-12.4246
▁gallery	-12.4246
▁atreyu	-12.4246
▁database	-12.4246
▁irresponsible	-12.4246
▁population	-12.4246
▁garlic	-12.4246
▁adkins	-12.4246
▁boundaries	-12.4246
▁contrary	-12.4246
▁shotgun	-12.4246
▁fergie	-12.4246
▁uneducated	-12.4246
▁wisdom	-12.4246
▁deniro	-12.4246
▁whiskey	-12.4246
▁egotistical	-12.4247
▁nokia	-12.4247
▁premarita	-12.4247
▁happiest	-12.4247
▁bauer	-12.4247
▁embarassed	-12.4247
▁susie	-12.4247
▁laptop	-12.4247
global	-12.4247
▁carvey	-12.4247
▁saddest	-12.4247
▁nyak	-12.4247
▁rnb	-12.4247
▁fudge	-12.4247
▁sparxxx	-12.4247
▁franklin	-12.4247
▁marrage	-12.4247
▁sneezy	-12.4247
▁quirky	-12.4247
▁garner	-12.4247
▁blaine	-12.4247
▁fathom	-12.4247
▁predictable	-12.4247
▁sharkey	-12.4248
▁satanic	-12.4248
▁skillet	-12.4248
▁realtionship	-12.4248
▁inconsiderate	-12.4248
▁heartbroken	-12.4248
▁scarlet	-12.4248
▁cartman	-12.4248
▁species	-12.4248
▁twinkie	-12.4248
▁diaz	-12.4249
▁published	-12.4249
▁taht	-12.4249
▁steady	-12.425
▁unmarried	-12.425
▁3000	-12.425
▁pester	-12.425
▁dvr	-12.425
▁manual	-12.425
▁laden	-12.4251
▁shouted	-12.4251
▁trivial	-12.4251
▁hugging	-12.4251
▁misunderstand	-12.4251
▁ventura	-12.4251
naomi	-12.4252
▁taxes	-12.4252
▁alongside	-12.4252
▁cocker	-12.4253
▁kelli	-12.4253
▁navy	-12.4254
▁desk	-12.4254
▁passionately	-12.4254
▁composed	-12.4254
▁partnership	-12.4254
▁patch	-12.4255
▁morally	-12.4255
▁preach	-12.4256
▁motto	-12.4256
▁bleach	-12.4258
▁hassle	-12.4259
▁encountered	-12.4259
▁scratching	-12.4259
▁actuality	-12.4259
▁omar	-12.426
▁tribute	-12.426
▁rowling	-12.4262
brien	-12.4263
▁slater	-12.4263
▁capture	-12.4263
▁censored	-12.4264
▁montana	-12.4264
▁pedophile	-12.4265
▁chappelle	-12.4265
▁strongest	-12.4265
▁chronicles	-12.4265
▁certainty	-12.4265
▁fluffy	-12.4266
▁perry	-12.4266
▁stripes	-12.4266
▁shocking	-12.4267
▁victory	-12.4267
laws	-12.4268
▁outstanding	-12.4268
▁alias	-12.4268
▁chef	-12.4268
▁browser	-12.4268
▁ohhh	-12.4268
▁announced	-12.4269
▁dummy	-12.427
▁educational	-12.427
▁pumping	-12.4273
▁offline	-12.4274
▁marques	-12.4276
sed	-12.4276
▁rehab	-12.4277
▁presume	-12.4278
▁cries	-12.4279
▁quietly	-12.428
▁eastern	-12.4283
▁bynes	-12.4283
▁port	-12.4285
▁dixie	-12.4285
▁8:00	-12.4286
▁stacey	-12.4287
▁medium	-12.4287
▁dogpile	-12.4287
▁infinity	-12.4287
▁mininova	-12.4287
▁kryptonite	-12.4287
▁resources	-12.4287
▁requested	-12.4288
▁satisfying	-12.4289
▁mummy	-12.4289
▁barnes	-12.4293
▁consuming	-12.4293
▁rising	-12.4293
wrong	-12.4294
▁directory	-12.4294
▁106	-12.4295
▁maker	-12.4296
▁ladder	-12.4298
ship	-12.4298
▁waves	-12.4299
▁desperately	-12.4299
▁twista	-12.43
▁approaches	-12.4301
▁drunken	-12.4301
▁rompe	-12.4301
▁speaker	-12.4302
▁tad	-12.4302
▁burner	-12.4303
▁prepare	-12.4303
▁texting	-12.4305
▁alter	-12.4306
▁farther	-12.4306
▁absolut	-12.4309
▁mayer	-12.4309
▁touches	-12.4309
▁recognized	-12.431
▁lovable	-12.4312
▁contestants	-12.4317
miss	-12.4319
▁boxes	-12.4319
▁sticker	-12.4321
▁fiddle	-12.4324
▁ruby	-12.4324
▁fooled	-12.4326
▁jlo	-12.4328
▁lolz	-12.4329
shes	-12.433
▁grammys	-12.4331
▁nikki	-12.4332
▁endowed	-12.4332
▁flattering	-12.4334
▁archive	-12.4338
▁harmony	-12.4339
iness	-12.434
▁estimate	-12.4341
▁jocks	-12.4341
▁feathers	-12.4341
▁macy	-12.4342
ans	-12.4346
▁temporary	-12.435
▁tbs	-12.4351
▁protected	-12.4359
▁reassure	-12.4359
lite	-12.436
yay	-12.4363
▁promised	-12.4378
▁dunk	-12.4379
▁lighting	-12.4379
▁perception	-12.4382
▁turtles	-12.4383
▁imitate	-12.4383
▁bros	-12.4385
▁dro	-12.4387
▁pastor	-12.4388
▁newman	-12.4389
▁boxing	-12.4389
▁bark	-12.4391
fa	-12.4391
▁friendster	-12.4398
▁closely	-12.4398
▁dreamed	-12.4405
▁loaded	-12.4406
▁frou	-12.4407
tly	-12.4415
ster	-12.4416
▁compa	-12.4422
▁fried	-12.4424
kind	-12.4425
▁befor	-12.4428
▁beautifully	-12.4429
▁knights	-12.4429
▁retrieve	-12.4429
▁compensate	-12.443
▁filmed	-12.4431
▁trent	-12.4432
▁heroes	-12.4432
▁mug	-12.4434
▁rem	-12.4435
▁der	-12.4437
▁gays	-12.4445
▁grl	-12.4445
▁44	-12.4454
▁urges	-12.4456
▁ignored	-12.4457
▁gina	-12.446
▁mmmm	-12.4461
▁wreck	-12.4472
▁skirts	-12.4473
▁circles	-12.4478
▁workout	-12.4481
90	-12.4486
▁absolutl	-12.4492
▁65	-12.4496
▁nin	-12.4506
▁ton	-12.4509
▁attracts	-12.4511
▁hiv	-12.4512
1)	-12.4517
ht	-12.4533
▁differnt	-12.4535
lm	-12.4539
▁swings	-12.4541
since	-12.4543
▁distract	-12.4545
▁grip	-12.4546
▁parton	-12.4548
▁dominate	-12.4553
▁guitarists	-12.456
▁flu	-12.4561
▁answ	-12.4565
▁shaves	-12.4569
▁threaten	-12.4581
▁lastly	-12.4583
▁dye	-12.4589
▁seats	-12.459
1,	-12.4593
▁matured	-12.4599
racial	-12.46
▁mute	-12.4601
nie	-12.4601
▁crown	-12.4604
their	-12.4605
▁bitchy	-12.4612
forget	-12.4621
▁workers	-12.4624
▁reson	-12.4625
▁20,	-12.4626
wake	-12.4627
▁smiled	-12.4629
...:)	-12.4632
▁quiz	-12.4633
partner	-12.4635
kids	-12.4641
▁goose	-12.4655
▁vision	-12.4661
▁tights	-12.4664
??????????	-12.4668
▁justice	-12.4673
▁strips	-12.4682
▁pea	-12.4688
▁origin	-12.4691
▁49	-12.4696
▁gunn	-12.47
▁overlook	-12.4718
▁rep	-12.4719
hold	-12.4725
60	-12.4727
country	-12.4729
▁selections	-12.4731
▁abo	-12.4734
▁donna	-12.4735
▁rev	-12.4737
radio	-12.4737
luv	-12.475
hell	-12.4752
▁tellin	-12.4753
▁pranks	-12.4761
▁aj	-12.4762
vian	-12.4771
▁pri	-12.4783
blue	-12.4788
▁justify	-12.4791
▁elses	-12.4795
98	-12.4799
▁gb	-12.4802
show	-12.4803
▁fry	-12.4804
stone	-12.4809
johnny	-12.481
forever	-12.4815
▁hm	-12.4816
▁stud	-12.482
ning	-12.4823
▁sim	-12.4828
▁todd	-12.483
▁wander	-12.4834
▁welling	-12.4837
▁51	-12.4841
▁ties	-12.4852
42	-12.4865
sugar	-12.4867
▁practical	-12.4868
junk	-12.487
▁buttons	-12.4871
▁bombs	-12.4872
▁meow	-12.4875
letssingit	-12.4889
fu	-12.4891
atch	-12.4899
site	-12.4902
▁marks	-12.4903
tal	-12.4904
▁ment	-12.4907
files	-12.4908
▁spe	-12.4918
blet	-12.4922
▁votes	-12.4925
ara	-12.4937
▁bod	-12.4938
chi	-12.4941
whats	-12.4942
▁logo	-12.4943
ien	-12.4952
them	-12.4955
pending	-12.4975
generate	-12.4985
▁500	-12.4997
▁julie	-12.4998
▁opens	-12.5
rom	-12.5008
▁smiths	-12.5011
▁8-	-12.5016
▁describ	-12.5024
tuck	-12.5026
▁boost	-12.5026
▁thrill	-12.5034
hood	-12.5042
▁intrest	-12.5046
▁inlove	-12.5049
▁bl	-12.5049
▁subscription	-12.5051
▁tampon	-12.5052
▁er	-12.5053
▁france	-12.5058
hing	-12.5059
▁objective	-12.5061
int	-12.5065
▁homie	-12.5067
▁hoes	-12.5068
▁carpenter	-12.5069
▁mcdonald	-12.5069
▁tomboy	-12.507
▁burns	-12.507
▁endeavor	-12.5072
▁stereotype	-12.5075
▁slob	-12.5078
▁muffin	-12.5081
▁outdoor	-12.5081
▁mal	-12.5084
▁prize	-12.509
▁murderer	-12.5091
▁cracker	-12.5093
▁rebel	-12.5095
▁skate	-12.51
vin	-12.51
▁nap	-12.5101
▁dough	-12.5107
▁saint	-12.5108
▁goat	-12.5119
▁ph	-12.5123
▁stew	-12.5123
▁australian	-12.5125
80	-12.5132
▁matthew	-12.5138
▁reconcile	-12.5139
▁disappoint	-12.514
▁reunite	-12.514
▁discourage	-12.5141
legged	-12.5144
▁defecate	-12.5147
▁spouses	-12.5147
▁eliminate	-12.515
▁mount	-12.5151
▁punks	-12.5151
▁retard	-12.5151
▁sudden	-12.5153
▁sentiment	-12.5154
▁expose	-12.5155
▁aguilera	-12.5155
▁applicable	-12.5155
▁challange	-12.5155
▁dialogue	-12.5155
▁irrational	-12.5155
▁persevere	-12.5155
▁platinum	-12.5155
▁prodigy	-12.5155
▁rhapsody	-12.5155
▁timberlake	-12.5155
▁hoobastank	-12.5155
▁lullaby	-12.5155
▁saliva	-12.5155
▁international	-12.5155
▁jamaica	-12.5155
▁pattern	-12.5155
▁tragic	-12.5155
▁bicycle	-12.5156
▁chapstick	-12.5156
▁flexible	-12.5156
▁retirement	-12.5156
▁temperature	-12.5156
▁boyfreind	-12.5156
▁eastwood	-12.5156
▁mattress	-12.5156
▁starburst	-12.5156
▁disappointment	-12.5156
▁wallpaper	-12.5156
▁hazard	-12.5156
▁resemblance	-12.5156
▁nichole	-12.5156
▁sophisticated	-12.5156
▁memphis	-12.5156
▁videotape	-12.5156
▁relinquish	-12.5156
▁submissive	-12.5156
▁gambling	-12.5156
▁singular	-12.5156
▁queries	-12.5156
▁seventies	-12.5156
▁narrow	-12.5156
▁confusion	-12.5156
▁parade	-12.5156
▁benji	-12.5156
▁reproduce	-12.5156
▁thanksgiving	-12.5156
▁crunk	-12.5156
▁missouri	-12.5157
▁harmless	-12.5157
▁creek	-12.5157
▁fanfiction	-12.5157
▁barrymore	-12.5157
▁membership	-12.5157
▁memorable	-12.5157
▁pedal	-12.5157
▁jaime	-12.5157
▁intentionally	-12.5157
▁route	-12.5157
▁sissy	-12.5158
▁frozen	-12.5158
▁yuo	-12.5158
▁reserved	-12.5158
▁motel	-12.5158
▁relief	-12.5158
▁hatred	-12.5158
▁messaging	-12.5158
▁violin	-12.5158
▁thrash	-12.5159
gone	-12.5159
▁meaningless	-12.516
▁perky	-12.516
▁threatened	-12.5161
▁conscience	-12.5162
▁stepping	-12.5163
▁abstain	-12.5163
▁ankle	-12.5163
▁nearby	-12.5163
▁fanning	-12.5163
▁gutter	-12.5165
▁dryer	-12.5165
▁housework	-12.5165
▁bebop	-12.5165
▁claire	-12.5166
▁implying	-12.5166
▁restless	-12.5167
▁heidi	-12.5168
▁begun	-12.5168
▁braces	-12.5169
▁trapped	-12.517
▁thoughtful	-12.517
▁ugliest	-12.517
▁haley	-12.517
▁luckily	-12.517
▁eliminated	-12.517
▁payment	-12.517
▁37	-12.517
▁accidently	-12.5173
▁denie	-12.5174
▁squeeze	-12.5174
▁sumone	-12.5174
▁bimbo	-12.5175
▁vacuum	-12.5175
▁skeleton	-12.5175
▁brittney	-12.5175
▁louisiana	-12.5175
▁nickleback	-12.5175
▁apprentice	-12.5175
▁gasolina	-12.5175
▁worthless	-12.5175
▁purevolume	-12.5175
▁courtney	-12.5175
▁ribbon	-12.5175
▁cultural	-12.5175
▁smackdown	-12.5175
▁embarassing	-12.5175
▁hershey	-12.5176
▁beaters	-12.5176
▁freezing	-12.5177
▁mob	-12.5177
▁desert	-12.5177
▁lube	-12.5177
▁wrongs	-12.5178
▁ripped	-12.5178
▁worms	-12.5178
▁instantly	-12.5179
▁resident	-12.5179
▁preferably	-12.518
▁pony	-12.518
▁ascertain	-12.5181
▁arousing	-12.5182
▁perfer	-12.5183
▁sufficiently	-12.5183
▁petite	-12.5183
▁fez	-12.5185
▁bopper	-12.5186
tely	-12.5189
▁armor	-12.519
▁helen	-12.5194
▁intelligently	-12.5195
▁discard	-12.5195
▁bosses	-12.5196
▁erase	-12.5196
▁jackass	-12.5197
▁kung	-12.5198
▁hentai	-12.5198
▁hockey	-12.5198
▁denzel	-12.5199
▁juvenile	-12.52
▁phenomenal	-12.52
▁whipped	-12.5201
▁girth	-12.5201
▁shaun	-12.5202
▁suprised	-12.5203
▁agency	-12.5205
▁drawing	-12.5208
▁assholes	-12.5209
▁sweating	-12.5211
▁vai	-12.5211
▁fanatic	-12.5215
lay	-12.5216
▁5'	-12.5218
▁warren	-12.5219
▁walkman	-12.5219
▁usualy	-12.522
▁penises	-12.5221
▁coconuts	-12.5224
▁acknowledge	-12.5225
▁billboard	-12.5225
▁packed	-12.5226
▁classmates	-12.5228
▁blessings	-12.5233
▁ahh	-12.5236
▁guests	-12.5241
▁chord	-12.5242
▁dec	-12.5243
heard	-12.5244
▁moderate	-12.5245
▁improved	-12.5247
▁infront	-12.5247
hahahahahahahaha	-12.5251
▁bambi	-12.5251
ide	-12.5252
▁amazingly	-12.5252
▁goodnight	-12.5252
▁disclose	-12.5253
▁strokes	-12.5253
▁ridin	-12.5254
▁foxy	-12.5254
ripping	-12.5255
▁vie	-12.5255
▁kane	-12.5256
▁dale	-12.5259
depends	-12.526
ung	-12.526
▁screwing	-12.5261
▁dread	-12.5261
than	-12.5264
▁cooked	-12.5266
ory	-12.5271
▁obi	-12.5274
▁redheads	-12.5282
▁judy	-12.5283
▁haze	-12.5284
▁cannon	-12.5285
▁raining	-12.5285
another	-12.5286
▁traits	-12.5298
tunes	-12.5302
▁minus	-12.5303
▁pursued	-12.5308
▁bail	-12.531
hang	-12.5318
hokey	-12.5319
▁owns	-12.5319
▁electronics	-12.5323
▁pillows	-12.5324
5.00	-12.5324
▁gen	-12.5324
▁roots	-12.5325
▁havnt	-12.5335
▁fx	-12.5337
▁peanuts	-12.5338
▁import	-12.5339
▁avoiding	-12.5346
▁guards	-12.5347
cal	-12.5348
▁pots	-12.5349
▁lint	-12.5352
▁happ	-12.5354
▁survivors	-12.5354
han	-12.5359
days	-12.5361
nc	-12.5365
▁norm	-12.5365
▁noah	-12.5367
▁bugg	-12.5368
-15	-12.537
▁mice	-12.5376
▁senses	-12.5387
▁hanger	-12.5388
▁encounters	-12.5388
gs	-12.5392
▁bella	-12.5394
▁daydream	-12.5395
▁serves	-12.5401
▁exceptions	-12.5403
!?!?!	-12.5404
▁arnt	-12.5404
▁tonk	-12.5408
▁!...	-12.5411
▁musicals	-12.5414
shirts	-12.5424
▁produces	-12.5435
until	-12.5436
ney	-12.5441
ept	-12.5445
while	-12.5445
▁perish	-12.5447
ina	-12.5447
dam	-12.5448
))	-12.5454
zy	-12.5456
▁libras	-12.5458
sy	-12.5461
▁stds	-12.547
▁breaker	-12.5475
▁needles	-12.5477
▁oak	-12.548
▁kei	-12.5484
▁cough	-12.5489
▁tx	-12.5493
▁reno	-12.5494
young	-12.5495
▁hid	-12.5501
▁ole	-12.5509
▁raped	-12.5519
▁lands	-12.5526
▁users	-12.5535
▁drummers	-12.554
▁winni	-12.554
▁vampires	-12.5541
▁becareful	-12.5541
▁sag	-12.5542
movies	-12.5545
▁tuck	-12.5553
▁soooooooo	-12.5567
▁suri	-12.5583
▁bach	-12.5591
ich	-12.5594
gent	-12.5595
▁bake	-12.5597
gfor	-12.56
bi	-12.5603
wise	-12.5604
mar	-12.5605
wanna	-12.5606
▁47	-12.5606
seems	-12.563
▁planets	-12.5633
stic	-12.5638
book	-12.5641
card	-12.5642
pl	-12.5645
▁clap	-12.5648
rete	-12.5658
▁3:	-12.5659
▁az	-12.566
singer	-12.5662
▁connections	-12.5664
sk	-12.5667
▁mommas	-12.5668
mary	-12.5672
emo	-12.5684
▁ives	-12.5689
▁brands	-12.569
▁charges	-12.569
▁amp	-12.57
ks	-12.5703
▁cou	-12.5709
mails	-12.5709
▁sicko	-12.5717
▁auction	-12.5719
150	-12.5721
making	-12.5728
▁chickens	-12.5729
dn	-12.574
respect	-12.5754
den	-12.5754
▁posed	-12.5755
▁gear	-12.5762
action	-12.5764
▁raping	-12.577
gee	-12.5778
▁hella	-12.5783
▁za	-12.5785
▁gaye	-12.5794
?????????	-12.5801
beauty	-12.581
mate	-12.5818
▁wonders	-12.582
string	-12.5824
▁ads	-12.5824
hmm	-12.5826
▁devils	-12.5827
▁pleas	-12.5835
▁ima	-12.5835
▁cont	-12.5837
▁employ	-12.5846
▁rel	-12.5853
art	-12.5855
elvet	-12.5868
▁wuss	-12.5868
magic	-12.587
remix	-12.5873
fat	-12.5877
▁adores	-12.5879
▁fuk	-12.5882
central	-12.5883
▁400	-12.5886
ai	-12.589
bow	-12.5892
▁haunt	-12.5893
ime	-12.5903
term	-12.5908
▁prep	-12.5909
ester	-12.592
tory	-12.5922
body	-12.5923
▁roman	-12.5924
▁inc	-12.5926
dr	-12.5932
ap	-12.5951
!..	-12.5958
hy	-12.596
▁alt	-12.5961
▁enuf	-12.5964
▁dane	-12.5974
▁ni	-12.5983
▁accepts	-12.6002
▁tis	-12.6003
blog	-12.6005
▁ding	-12.6007
▁subjects	-12.6012
▁tele	-12.6016
kay	-12.6021
▁thnk	-12.6039
finder	-12.6039
▁torrents	-12.604
▁bottoms	-12.6045
eva	-12.605
▁tiffany	-12.6051
▁lawsuit	-12.6052
bone	-12.6052
▁assignment	-12.6052
▁goody	-12.6053
▁feline	-12.6053
▁automobile	-12.606
▁bracelet	-12.606
▁adolescent	-12.6061
▁buffet	-12.6061
▁35.	-12.6064
▁interaction	-12.6066
▁coward	-12.6066
▁champion	-12.6069
▁25,	-12.6069
▁collector	-12.607
▁museum	-12.607
▁choir	-12.607
▁soldier	-12.607
▁shield	-12.6071
▁booger	-12.6072
▁yor	-12.6073
▁contestant	-12.6073
▁highlight	-12.6073
▁disguise	-12.6077
▁venue	-12.6078
▁spoiler	-12.6079
▁warrior	-12.6085
▁exorcis	-12.6086
?????????????	-12.6088
ana	-12.609
ead	-12.609
cat	-12.6096
▁tryed	-12.6097
had	-12.6112
part	-12.6114
▁relieve	-12.6118
▁25.	-12.612
▁behaviors	-12.6121
▁blessing	-12.6127
36	-12.613
▁peak	-12.6137
▁logic	-12.6137
▁discipline	-12.6137
▁tuner	-12.614
▁pierce	-12.6142
haven	-12.6146
probably	-12.6146
▁embarrass	-12.6146
ea	-12.6147
fusion	-12.6151
▁whant	-12.6152
▁1.5	-12.6154
▁poly	-12.6154
▁1978	-12.6154
▁opion	-12.6155
▁egypt	-12.6155
▁carnival	-12.6155
▁categories	-12.6155
▁cleveland	-12.6155
▁crocodile	-12.6155
▁destruction	-12.6155
▁extravagant	-12.6155
▁hamilton	-12.6155
▁hurricane	-12.6155
▁identification	-12.6155
▁irresistible	-12.6155
▁jasmine	-12.6155
▁matisyahu	-12.6155
▁monogamous	-12.6155
▁nephew	-12.6155
▁nicholson	-12.6155
▁nintendo	-12.6155
▁obligated	-12.6155
▁peculiar	-12.6155
▁rammstein	-12.6155
▁rasmus	-12.6155
▁scientologist	-12.6155
▁simmons	-12.6155
▁suspended	-12.6155
▁tarzan	-12.6155
▁tequila	-12.6155
▁unpredictable	-12.6155
▁champloo	-12.6155
▁chivalry	-12.6155
▁illinois	-12.6155
▁implore	-12.6155
▁obligation	-12.6155
▁observation	-12.6155
▁burbank	-12.6155
▁physique	-12.6155
▁rourke	-12.6155
▁sardar	-12.6155
▁dorothy	-12.6156
▁pantyhose	-12.6156
▁victorious	-12.6156
▁vintage	-12.6156
▁distortion	-12.6156
▁microwave	-12.6156
▁defensive	-12.6156
▁sunglasses	-12.6156
▁cassidy	-12.6156
▁exposure	-12.6156
▁kapoor	-12.6156
▁mitchell	-12.6156
▁colbert	-12.6156
▁velma	-12.6156
▁rodney	-12.6156
▁scariest	-12.6156
▁shakespeare	-12.6156
▁unhealthy	-12.6156
▁affleck	-12.6156
responsibilities	-12.6156
▁suicidal	-12.6156
▁rekindl	-12.6156
▁sunrise	-12.6156
▁interracial	-12.6156
▁stimpy	-12.6156
▁generous	-12.6156
▁crimson	-12.6156
▁liquor	-12.6156
▁sprouse	-12.6156
▁trimmed	-12.6156
▁longoria	-12.6156
▁soulseek	-12.6156
▁unplugged	-12.6156
▁feces	-12.6156
▁trinny	-12.6156
▁envision	-12.6156
▁scorpion	-12.6156
▁abroad	-12.6156
▁tendencies	-12.6156
▁hazzard	-12.6156
▁ballroom	-12.6156
▁backyard	-12.6156
▁capacity	-12.6156
▁compton	-12.6156
▁denial	-12.6156
▁ashton	-12.6156
▁injury	-12.6156
▁seattle	-12.6156
▁libby	-12.6156
▁sanity	-12.6156
▁commentary	-12.6156
▁kumar	-12.6157
▁filter	-12.6157
▁unwanted	-12.6157
▁remainder	-12.6157
▁unwise	-12.6157
▁hetfield	-12.6157
▁eharmony	-12.6157
▁dragged	-12.6157
▁static	-12.6157
▁reaper	-12.6157
▁grasp	-12.6157
▁jada	-12.6158
▁connery	-12.6158
▁depart	-12.6158
▁explosion	-12.6158
▁moaning	-12.6158
▁essentially	-12.6158
news	-12.6158
▁hideous	-12.6158
▁stuf	-12.6158
▁luda	-12.6158
▁bravo	-12.6158
▁improvement	-12.6158
▁downhill	-12.6159
▁slip	-12.6159
▁comedic	-12.6159
▁snack	-12.6159
▁nsync	-12.6159
▁assuredly	-12.6159
▁bash	-12.6159
▁angie	-12.6159
▁virginia	-12.6159
▁humour	-12.6159
▁emphasize	-12.6159
▁intrigued	-12.6159
▁ohhhh	-12.6159
▁wentworth	-12.6159
▁sledge	-12.6159
▁engrav	-12.616
▁41	-12.616
▁exclaimed	-12.616
▁doubtful	-12.616
▁dillon	-12.616
▁hyde	-12.616
▁undertaker	-12.616
▁jello	-12.616
▁1999	-12.6161
▁phase	-12.6161
▁modest	-12.6161
▁hostage	-12.6161
▁xmas	-12.6161
▁favorable	-12.6162
▁trina	-12.6162
▁filipino	-12.6163
▁intuition	-12.6163
▁mistreat	-12.6164
▁shyness	-12.6164
▁hobbit	-12.6164
▁neice	-12.6164
▁morris	-12.6165
▁confide	-12.6166
▁sprint	-12.6167
▁powell	-12.6167
▁drowned	-12.6167
▁combined	-12.6168
▁booted	-12.6168
▁lsd	-12.6168
▁dearest	-12.6169
▁unimportant	-12.6169
▁abandoned	-12.6169
▁skittles	-12.6169
▁steelers	-12.617
▁underage	-12.6171
▁discouraged	-12.6171
▁filthy	-12.6172
▁eazy	-12.6172
▁aisle	-12.6173
▁graduated	-12.6173
▁motivate	-12.6173
▁stitch	-12.6173
▁ranch	-12.6174
▁holler	-12.6174
▁mysterio	-12.6175
▁yoga	-12.6176
▁subscribe	-12.6176
▁laura	-12.6176
▁limeware	-12.6176
▁placebo	-12.6176
▁pitbull	-12.6176
▁spyware	-12.6176
▁leprechaun	-12.6177
▁forbidden	-12.6177
▁femmes	-12.6177
▁maintenance	-12.6177
▁compassion	-12.6177
▁digits	-12.6177
▁penetration	-12.6177
▁flaunt	-12.6177
▁curl	-12.6177
▁fuel	-12.6177
▁molly	-12.6178
▁warned	-12.6178
▁adoption	-12.6178
ncy	-12.6178
▁snail	-12.6178
au	-12.6178
▁harold	-12.6178
▁established	-12.6178
▁halfway	-12.6179
▁rental	-12.6179
▁declined	-12.6179
▁shelter	-12.618
▁latter	-12.618
ton	-12.6181
▁measured	-12.6181
stairway	-12.6181
▁jenna	-12.6182
▁eden	-12.6182
▁broadcasting	-12.6182
▁slipped	-12.6182
▁zim	-12.6183
▁daffy	-12.6185
▁seperated	-12.6185
▁biz	-12.6185
▁albert	-12.6185
▁wiggles	-12.6187
▁flatter	-12.6188
▁gamble	-12.6188
▁convey	-12.6188
▁developing	-12.6188
▁trendy	-12.6188
▁andrew	-12.6189
▁latex	-12.6189
▁protective	-12.6191
▁complement	-12.6192
▁lousy	-12.6195
▁cowell	-12.6196
▁traveled	-12.6197
▁collecting	-12.6197
empire	-12.6197
▁ques	-12.6197
bourne	-12.6198
▁eddy	-12.6198
▁combine	-12.6198
▁nicol	-12.6202
▁lengthy	-12.6202
▁ollec	-12.6202
▁ayla	-12.6203
▁streak	-12.6204
▁frasier	-12.6204
ality	-12.6205
▁raiders	-12.6205
▁pinch	-12.6205
▁shades	-12.6205
▁napole	-12.6205
▁commited	-12.6208
▁claimed	-12.6208
▁rapid	-12.6208
▁carpet	-12.6209
▁illegally	-12.621
▁socially	-12.6211
▁proceeded	-12.6212
▁hilariously	-12.6213
▁wandering	-12.6213
▁everrr	-12.6214
▁uber	-12.6215
1:	-12.6219
▁op	-12.6219
▁favored	-12.6222
▁kennedys	-12.6223
▁speedy	-12.6224
ake	-12.6225
▁updated	-12.6225
▁muppets	-12.6226
▁flowing	-12.6231
▁braveheart	-12.6232
cing	-12.6233
▁impatient	-12.6234
▁nevermind	-12.6236
▁saints	-12.6238
▁bac	-12.6238
▁ironic	-12.6242
set	-12.6243
▁trashy	-12.6243
▁defiant	-12.6244
▁deja	-12.6247
▁banged	-12.6247
▁greed	-12.6248
▁prizes	-12.6248
▁matthews	-12.625
▁geeky	-12.6254
▁vase	-12.6254
▁dumbass	-12.6255
▁acquir	-12.6257
▁flames	-12.6257
▁charged	-12.6257
▁festivals	-12.6259
ternal	-12.6259
▁rug	-12.6259
▁bitches	-12.6259
▁strawberr	-12.626
▁authority	-12.626
▁crave	-12.626
▁diary	-12.6262
▁res	-12.6265
▁fighter	-12.6267
▁modeling	-12.6271
▁locations	-12.6272
▁tenth	-12.6272
▁scum	-12.6275
▁wor	-12.6276
▁jude	-12.6287
▁scorpions	-12.629
▁bak	-12.6292
▁assured	-12.6292
▁julian	-12.6294
45	-12.6294
▁pumpkins	-12.6295
▁lighten	-12.6302
▁suite	-12.6304
ings	-12.631
▁desp	-12.6313
▁lav	-12.6316
▁filling	-12.6317
▁prepar	-12.6318
▁molest	-12.6319
▁lov	-12.632
▁briefs	-12.6322
▁italy	-12.6323
▁desir	-12.6325
▁geni	-12.6328
▁hal	-12.6329
▁expressions	-12.6332
otta	-12.6334
▁flirted	-12.6336
▁degrees	-12.6338
▁tatoo	-12.6341
leave	-12.6342
▁shrink	-12.6343
▁rex	-12.6344
▁indifferent	-12.6347
▁qua	-12.635
▁elements	-12.6353
▁couse	-12.6356
▁drain	-12.6358
▁gona	-12.6358
▁malo	-12.6361
▁chart	-12.6367
fe	-12.6369
▁vein	-12.6372
▁daytime	-12.6376
▁willis	-12.6377
▁darko	-12.6381
▁wheels	-12.6381
▁shadows	-12.6384
▁recomend	-12.6393
ese	-12.6401
)"	-12.6403
▁novels	-12.6408
▁sticky	-12.6412
▁fest	-12.6412
▁reduce	-12.6413
▁gangsters	-12.6414
▁funk	-12.6414
ingly	-12.6418
▁deed	-12.6421
▁stance	-12.6423
▁bono	-12.6424
-40	-12.6426
bu	-12.6426
▁loop	-12.6429
▁frogs	-12.6429
▁nightmares	-12.643
▁smoker	-12.6433
known	-12.6433
press	-12.6436
▁slight	-12.6437
▁chuckle	-12.6437
▁outfits	-12.6438
eal	-12.6439
▁sync	-12.644
ded	-12.6443
ify	-12.6445
▁lasting	-12.6446
▁izzy	-12.6451
▁backup	-12.6451
▁goodluck	-12.6452
rapped	-12.6455
ern	-12.6456
pr	-12.6458
▁bananas	-12.6459
▁shove	-12.646
una	-12.6461
▁ford	-12.6463
▁dads	-12.6464
8.	-12.6468
▁oneself	-12.6469
yatt	-12.6472
▁tissue	-12.6474
▁unto	-12.6477
▁chit	-12.6478
▁pla	-12.6478
▁houses	-12.6482
▁peek	-12.6486
▁jackets	-12.6491
▁robots	-12.6491
▁sluts	-12.6492
ood	-12.6494
▁verbal	-12.6495
▁rave	-12.6498
everyone	-12.65
▁brando	-12.6502
lon	-12.6506
▁bobo	-12.6508
opped	-12.6514
▁loosen	-12.6516
06	-12.6516
▁wee	-12.6517
those	-12.6521
▁virgos	-12.6523
▁sentences	-12.6523
▁cb	-12.6525
freak	-12.6532
*&	-12.6537
ndicated	-12.6542
▁flips	-12.6544
-14	-12.6546
▁spirits	-12.6547
▁foods	-12.6547
▁influences	-12.6547
▁exercises	-12.6551
diana	-12.6554
▁blur	-12.6558
kes	-12.656
▁foam	-12.6564
2)	-12.657
▁masturbati	-12.659
▁fold	-12.659
▁pimps	-12.6595
▁loos	-12.6596
▁lang	-12.6601
▁deli	-12.6602
▁skank	-12.6605
▁elephants	-12.662
anyway	-12.6622
▁411	-12.6623
▁apt	-12.6628
▁determin	-12.6629
▁monsters	-12.6631
▁dodge	-12.6631
▁bore	-12.6632
▁sock	-12.6639
▁mirrors	-12.6639
▁professionals	-12.6649
▁howie	-12.6659
▁1994	-12.6664
▁shift	-12.6669
ali	-12.6674
children	-12.6676
▁hv	-12.6688
▁leash	-12.6694
▁clara	-12.67
▁frinds	-12.6701
▁uncles	-12.6703
▁shack	-12.6704
drive	-12.672
▁greg	-12.6729
▁17,	-12.6735
▁ali	-12.6736
▁(2003)	-12.6744
low	-12.6744
▁crowe	-12.6745
si	-12.6746
nope	-12.6757
▁sway	-12.6758
▁looser	-12.6759
▁fuss	-12.676
shits	-12.6761
▁ms	-12.6761
▁releases	-12.6762
77	-12.6781
▁myth	-12.6787
▁yum	-12.6787
▁invent	-12.6789
online	-12.6794
still	-12.6796
▁blu	-12.68
▁accounts	-12.6801
17	-12.6802
▁val	-12.6803
▁frost	-12.6806
paris	-12.681
▁3!	-12.6817
things	-12.6819
▁ob	-12.6822
lady	-12.6845
▁manifest	-12.685
excuse	-12.6852
az	-12.6853
▁nemo	-12.6854
▁lou	-12.6856
▁rights	-12.686
hhhhhhhhhhhhhhhh	-12.6865
control	-12.6866
share	-12.687
▁brat	-12.6871
▁sen	-12.6878
▁bells	-12.6887
seven	-12.6887
▁temple	-12.6898
▁tra	-12.6899
harry	-12.69
▁ducks	-12.6911
▁youth	-12.6917
working	-12.6919
cy	-12.6924
ully	-12.6926
wind	-12.6929
▁kris	-12.6932
▁nat	-12.694
dark	-12.6941
▁reel	-12.6942
yellow	-12.6952
▁fre	-12.6958
naked	-12.6965
material	-12.6965
▁biting	-12.6967
lean	-12.6967
edit	-12.6975
goodbye	-12.6975
mean	-12.698
▁pres	-12.6983
▁giv	-12.6989
▁repeats	-12.7002
mtv	-12.7005
▁ave	-12.701
▁coo	-12.7012
▁1975	-12.7014
gue	-12.7021
,,,,	-12.703
▁182.	-12.7032
hoo	-12.7054
▁esc	-12.7056
▁grove	-12.7056
ety	-12.7061
▁ev	-12.7062
▁ans	-12.7068
▁dur	-12.707
▁100.	-12.708
▁indians	-12.7081
▁goodman	-12.7085
▁toned	-12.709
▁lace	-12.709
▁relocate	-12.7101
ering	-12.7116
umm	-12.7119
▁bur	-12.712
▁daniels	-12.712
ficient	-12.7136
aga	-12.7147
▁steer	-12.7156
▁translation	-12.7161
▁psychiatrist	-12.7162
▁keeper	-12.7163
ler	-12.7163
mpact	-12.7165
▁trail	-12.7166
▁jedi	-12.7167
▁youself	-12.7175
▁republican	-12.7177
▁metaphor	-12.7179
▁liquid	-12.7179
▁coworker	-12.718
▁hoop	-12.7182
▁coconut	-12.7182
▁heavens	-12.7184
▁liv	-12.7187
▁foundation	-12.7189
69	-12.7193
hr	-12.7194
▁recipe	-12.7194
3)	-12.7195
▁grrr	-12.7199
▁freeze	-12.7199
▁corpse	-12.72
bed	-12.7201
▁**	-12.7204
▁beard	-12.7207
band	-12.7209
▁plum	-12.7209
▁vow	-12.7211
▁tempt	-12.7214
▁chu	-12.7219
▁heartache	-12.7219
mone	-12.7221
▁wb	-12.7221
▁2007	-12.7226
▁introduc	-12.7229
death	-12.7233
▁cloud	-12.7238
▁bio	-12.7242
sorta	-12.7243
▁hugh	-12.7244
▁sigur	-12.7252
nna	-12.7252
operation	-12.7253
nal	-12.7253
▁disgust	-12.7257
▁crank	-12.7259
▁artificial	-12.7262
▁stump	-12.7263
▁stunning	-12.7264
▁lustful	-12.7265
ography	-12.7266
▁ketchup	-12.7267
▁malmsteen	-12.7267
▁ceremony	-12.7267
▁counciling	-12.7267
▁daphne	-12.7267
▁deodorant	-12.7267
▁dilemma	-12.7267
▁einstein	-12.7267
▁enormous	-12.7267
▁kermit	-12.7267
▁kinnik	-12.7267
▁loneliness	-12.7267
▁lubrication	-12.7267
▁marshmallows	-12.7267
▁masochist	-12.7267
▁mcguire	-12.7267
▁qualify	-12.7267
▁raincoat	-12.7267
▁reiterate	-12.7267
▁silicon	-12.7267
▁tinkerbell	-12.7267
▁unsavory	-12.7267
▁vendetta	-12.7267
▁vicinity	-12.7267
▁assessment	-12.7267
▁similiar	-12.7267
▁trilogy	-12.7267
▁(2004)	-12.7267
▁katrina	-12.7267
▁seldom	-12.7267
▁guidance	-12.7267
▁spandex	-12.7267
▁anwser	-12.7267
▁envious	-12.7267
▁implies	-12.7267
▁worldwide	-12.7267
▁yandel	-12.7267
▁dignity	-12.7267
▁refund	-12.7267
▁rifle	-12.7267
▁dodgeball	-12.7267
▁kidnapped	-12.7267
▁bipolar	-12.7267
▁definetely	-12.7267
▁paisley	-12.7267
▁supermarket	-12.7267
▁moniker	-12.7267
▁ambition	-12.7267
▁celibate	-12.7267
▁drastic	-12.7267
▁sensual	-12.7267
▁lynch	-12.7267
▁divine	-12.7267
▁industries	-12.7267
▁plumber	-12.7267
▁paramount	-12.7267
▁davinci	-12.7267
▁banderas	-12.7267
▁spiky	-12.7267
▁enroll	-12.7267
▁investment	-12.7267
▁padme	-12.7267
▁struggling	-12.7267
▁superhero	-12.7267
▁aamir	-12.7267
▁unavailable	-12.7267
▁patrol	-12.7267
▁gravity	-12.7267
▁dominoes	-12.7267
▁celebration	-12.7267
▁1987	-12.7267
▁sugarland	-12.7267
▁babysitter	-12.7267
▁portable	-12.7267
▁scottish	-12.7267
▁devastated	-12.7267
▁uncut	-12.7268
▁nofx	-12.7268
▁sassy	-12.7268
▁bloodhound	-12.7268
▁underware	-12.7268
▁magician	-12.7268
▁niro	-12.7268
▁helmet	-12.7268
▁megadeth	-12.7268
▁attentive	-12.7268
▁biased	-12.7268
▁benjamin	-12.7268
▁nominated	-12.7268
▁alarm	-12.7268
▁gosling	-12.7268
▁crisis	-12.7268
▁adrian	-12.7268
▁hippo	-12.7269
▁freindship	-12.7269
▁tummy	-12.7269
▁jeopardy	-12.7269
▁extraordinary	-12.7269
▁secretary	-12.7269
▁unreasonable	-12.7269
▁whiny	-12.7269
▁hagar	-12.7269
▁promotion	-12.7269
▁feedback	-12.7269
▁preston	-12.7269
▁uneasy	-12.7269
▁mulan	-12.727
▁visually	-12.727
▁contrast	-12.727
▁tango	-12.727
▁altogether	-12.727
▁accompanied	-12.727
▁griffin	-12.727
▁verbally	-12.727
▁differentiate	-12.7271
▁buried	-12.7271
▁anticipating	-12.7271
ranian	-12.7271
▁grabbing	-12.7271
▁clingy	-12.7271
▁nasal	-12.7271
▁duty	-12.7271
▁snuggle	-12.7271
▁norton	-12.7271
▁dancin	-12.7271
▁hairstyle	-12.7272
▁undone	-12.7272
▁insincere	-12.7272
▁fictional	-12.7272
▁stamp	-12.7272
▁alanis	-12.7272
▁struggle	-12.7272
▁expired	-12.7273
▁dummies	-12.7273
▁thrilled	-12.7273
▁switchfoot	-12.7273
▁tit	-12.7273
▁noticing	-12.7274
▁clover	-12.7274
▁kathy	-12.7274
▁descend	-12.7274
▁admission	-12.7275
▁dense	-12.7275
▁talkative	-12.7275
▁pursuit	-12.7276
▁fascinating	-12.7276
▁sadness	-12.7277
▁stool	-12.7278
▁entertained	-12.7278
▁pow	-12.7279
▁spanked	-12.7279
▁kama	-12.7279
▁relieved	-12.7281
▁pokey	-12.7282
▁destroyed	-12.7282
▁accurately	-12.7283
▁pierced	-12.7283
▁dookie	-12.7283
▁liza	-12.7283
▁ultra	-12.7283
▁stiff	-12.7283
▁riff	-12.7284
▁roach	-12.7284
▁grunt	-12.7285
▁basicly	-12.7285
▁subway	-12.7285
▁expand	-12.7285
▁allman	-12.7286
▁descent	-12.7286
▁carol	-12.7286
▁widow	-12.7287
▁succeeded	-12.7288
▁elija	-12.7288
▁derek	-12.7288
▁stuart	-12.7289
▁vivek	-12.7289
▁concider	-12.7289
▁imbd	-12.7289
▁elaborate	-12.7289
▁bachelor	-12.7289
▁shuffle	-12.7289
▁xmen	-12.729
▁saxophone	-12.729
▁tombstone	-12.729
▁mapquest	-12.729
▁mansion	-12.729
▁1940	-12.729
▁insecurities	-12.729
▁defense	-12.729
▁horrid	-12.729
▁hesitant	-12.7291
▁bernie	-12.7291
▁smokin	-12.7291
▁riot	-12.7291
▁stunt	-12.7292
▁borders	-12.7292
▁angus	-12.7292
▁hopeful	-12.7292
▁daisy	-12.7293
▁skinned	-12.7293
▁dutch	-12.7293
▁minnie	-12.7293
▁realised	-12.7294
▁reliable	-12.7294
▁uncool	-12.7294
▁canyon	-12.7294
▁uninteresting	-12.7295
▁grandparent	-12.7295
▁alluring	-12.7295
▁cursing	-12.7296
▁marketing	-12.7296
ls	-12.7296
▁kindness	-12.7297
alot	-12.7297
▁tiring	-12.7297
▁limb	-12.7298
▁probability	-12.7301
▁keyword	-12.7302
▁complications	-12.7302
▁resolved	-12.7303
▁knwo	-12.7305
▁preorder	-12.7306
▁occasional	-12.7306
▁iceman	-12.7307
▁fence	-12.7308
▁violet	-12.7308
▁68	-12.7308
▁plead	-12.7308
▁drooling	-12.731
▁gibb	-12.731
▁relay	-12.7311
▁quicker	-12.7312
▁casa	-12.7312
▁piercings	-12.7312
till	-12.7313
▁57	-12.7314
▁butthole	-12.7314
▁ellis	-12.7315
▁ashanti	-12.7315
▁uptown	-12.7315
▁camping	-12.7316
▁vain	-12.7317
▁punching	-12.7318
▁barber	-12.7319
▁malfoy	-12.7319
▁fucked	-12.7321
▁prostitution	-12.7321
▁supernatural	-12.7321
▁maul	-12.7322
▁tokyo	-12.7323
▁achieved	-12.7327
▁guaranteed	-12.7328
▁loyalty	-12.7329
▁downloadable	-12.7329
▁pod	-12.7334
▁rescue	-12.7335
▁cracking	-12.7337
base	-12.7339
▁diner	-12.7339
▁urine	-12.734
going	-12.7342
▁hmmmmm	-12.7345
▁constitute	-12.7346
▁utilized	-12.7348
▁kal	-12.7348
▁disown	-12.7351
▁mcr	-12.7353
▁gorillaz	-12.7353
▁softer	-12.7356
▁puss	-12.7356
▁hoops	-12.736
▁andrews	-12.7361
▁23.	-12.7362
▁highlights	-12.7363
▁snoopy	-12.7363
▁spiritual	-12.7363
▁soldiers	-12.7365
▁jj	-12.7365
▁fer	-12.7365
▁han	-12.7366
▁baked	-12.7368
▁uhm	-12.7369
▁prop	-12.7372
▁muffins	-12.7372
▁warming	-12.7373
▁brutal	-12.7376
▁selena	-12.7382
▁possessing	-12.7382
▁emulat	-12.7383
▁ej	-12.7388
ugging	-12.7389
nky	-12.739
▁comeback	-12.7393
▁mus	-12.7397
▁safer	-12.7397
ise	-12.7398
▁balloons	-12.7403
▁sparks	-12.7405
▁citizens	-12.7412
wired	-12.7412
▁predators	-12.7413
▁eighty	-12.7415
▁pale	-12.7415
▁posse	-12.7416
▁documents	-12.7419
kie	-12.7424
rn	-12.7425
▁swor	-12.7427
▁mild	-12.7428
▁fellas	-12.7429
▁improper	-12.7433
▁lambs	-12.7442
▁casinos	-12.7443
els	-12.7444
▁ruled	-12.7447
▁expresse	-12.7448
▁marl	-12.745
ni	-12.7451
christ	-12.7452
▁85	-12.7452
ient	-12.7454
▁wayoh	-12.7454
pleasantly	-12.7456
▁themself	-12.7456
▁blam	-12.7458
▁astro	-12.7461
izzle	-12.7462
▁happends	-12.7463
16	-12.747
▁provider	-12.7472
mber	-12.7473
op	-12.7473
▁severe	-12.7475
▁choo	-12.7481
▁bday	-12.7481
ggie	-12.7484
▁edited	-12.7488
▁vicious	-12.7491
▁26.	-12.7492
▁temptations	-12.7497
▁behaved	-12.75
▁glam	-12.7501
und	-12.7503
▁productions	-12.7505
▁fuller	-12.7508
▁rum	-12.751
▁yuk	-12.7512
▁cuss	-12.7515
▁doggy	-12.7515
▁creeps	-12.7516
▁musically	-12.7519
▁attic	-12.7526
▁chics	-12.753
▁amaze	-12.753
▁declare	-12.753
▁lab	-12.7539
▁levels	-12.7541
▁dots	-12.7542
▁ser	-12.7546
▁yung	-12.7547
active	-12.7553
▁hai	-12.7553
▁contemplate	-12.7555
05	-12.7561
▁mmmmmm	-12.7565
aly	-12.7567
aaa	-12.7567
estic	-12.757
▁nina	-12.7573
▁ow	-12.7579
▁peers	-12.7579
▁papi	-12.7581
boro	-12.7583
▁misty	-12.7584
male	-12.7584
▁layed	-12.7585
mind	-12.7586
lets	-12.7587
wa	-12.7596
inky	-12.7602
▁letssingit	-12.7606
▁remembering	-12.7612
▁1983	-12.7614
hair	-12.7615
▁controling	-12.7615
▁bonds	-12.7625
&*	-12.7627
call	-12.7632
▁trailers	-12.7636
21	-12.7636
▁boards	-12.7643
▁fruits	-12.7651
09	-12.7653
▁drivers	-12.7655
▁ruler	-12.7656
-4	-12.766
▁praise	-12.7665
▁noises	-12.7669
▁mikey	-12.7683
ade	-12.7696
mom	-12.7697
together	-12.7698
▁mega	-12.7699
▁ruins	-12.7701
heart	-12.7708
▁pointed	-12.7711
special	-12.7716
▁favourites	-12.7717
▁rae	-12.7726
▁exam	-12.7728
rm	-12.7736
ber	-12.7737
▁asia	-12.7739
ci	-12.7743
▁harp	-12.7745
▁fallin	-12.7745
num	-12.7753
▁basics	-12.7754
2004	-12.7755
▁eb	-12.7763
rt	-12.7764
▁babu	-12.7765
isn	-12.7768
▁heals	-12.7774
rove	-12.7775
▁buff	-12.7775
▁latina	-12.7779
bit	-12.7782
boat	-12.7783
▁machines	-12.7789
▁bil	-12.7792
▁girlz	-12.7798
▁olive	-12.7801
▁tails	-12.7803
paid	-12.781
load	-12.7817
▁sooooooooo	-12.7817
▁abundan	-12.7818
▁stove	-12.7819
▁complains	-12.7825
11	-12.783
▁approves	-12.7832
▁searches	-12.7832
▁pep	-12.7834
ians	-12.7837
cked	-12.7841
▁bees	-12.7845
▁bearer	-12.7852
ins	-12.7855
▁dateing	-12.7861
ats	-12.7863
cus	-12.7863
ities	-12.7867
mine	-12.7871
▁ly	-12.7879
▁eg	-12.7882
▁est	-12.7896
▁texts	-12.7899
nes	-12.7905
▁lotion	-12.7906
hahaha	-12.7919
▁raj	-12.792
▁akin	-12.7926
ught	-12.7928
nder	-12.7929
cute	-12.7935
usally	-12.7939
into	-12.7955
pplied	-12.7956
iling	-12.7961
link	-12.7963
▁bait	-12.7969
these	-12.797
wear	-12.7971
▁zi	-12.7974
▁(2005)	-12.798
▁teller	-12.7984
space	-12.7986
▁fle	-12.7986
▁1993	-12.7999
doing	-12.8002
lf	-12.8003
ti	-12.8005
ms	-12.8007
▁liver	-12.8007
smile	-12.8009
▁quotes	-12.8009
▁grades	-12.8013
▁sized	-12.8017
table	-12.8027
oops	-12.8027
▁777	-12.8029
iving	-12.8033
ups	-12.8036
bra	-12.8038
▁privates	-12.8039
fm	-12.8042
▁skipp	-12.8052
round	-12.8054
28	-12.8056
dom	-12.8062
min	-12.807
style	-12.8071
▁nurs	-12.8071
▁nee	-12.8081
write	-12.8082
gging	-12.8082
▁mold	-12.8082
▁jug	-12.8086
▁arn	-12.8087
800	-12.8092
▁62	-12.8101
bl	-12.8134
▁screams	-12.8136
eous	-12.8139
power	-12.8142
▁birthdays	-12.8142
pimp	-12.8143
▁ena	-12.8144
▁viola	-12.8144
▁wich	-12.8145
quality	-12.8147
loving	-12.8148
▁(2	-12.8152
▁sg	-12.8153
200	-12.8153
▁reed	-12.8159
mark	-12.8162
▁tomato	-12.8163
▁28.	-12.8184
bored	-12.8186
▁phat	-12.8191
▁ko	-12.8194
mostly	-12.8201
works	-12.8202
▁notion	-12.8203
sync	-12.8204
cough	-12.8215
itunes	-12.8216
24	-12.822
▁hrs	-12.8221
shopping	-12.8222
wagon	-12.8222
apple	-12.8229
bang	-12.8229
▁,,,	-12.8236
phone	-12.8237
▁2004	-12.8239
▁mans	-12.8248
boulevard	-12.8249
fashioned	-12.8249
sheep	-12.8251
fearing	-12.8252
▁olds	-12.8253
ses	-12.8255
bel	-12.8262
▁rag	-12.8262
io	-12.8269
▁!..	-12.8284
▁depe	-12.8287
▁nate	-12.8288
▁phillip	-12.8292
bear	-12.8304
nia	-12.8304
bam	-12.8305
fred	-12.8312
list	-12.8319
▁perrea	-12.8324
email	-12.8326
feeding	-12.8326
▁ours	-12.8336
▁soundtracks	-12.8337
▁creates	-12.8342
videos	-12.8358
lover	-12.8371
bre	-12.8371
▁goddam	-12.8373
▁troll	-12.8374
hour	-12.8375
ations	-12.8377
spite	-12.8378
own	-12.8382
refers	-12.8385
▁hind	-12.8385
▁scan	-12.8388
▁pimpin	-12.8396
workers	-12.8403
india	-12.8409
4.	-12.8413
▁objection	-12.8415
▁storyline	-12.8419
▁orphan	-12.8421
▁imbecile	-12.8422
▁exclaim	-12.8422
▁alert	-12.8423
▁faint	-12.8424
▁baldwin	-12.8426
▁illusion	-12.843
▁application	-12.843
▁aime	-12.843
▁disagreement	-12.8431
▁oyster	-12.8431
▁kennedy	-12.8432
▁statistic	-12.8432
ches	-12.8436
ear	-12.8437
▁abortion	-12.8437
▁arcade	-12.8437
▁flop	-12.8439
▁recap	-12.8439
▁extras	-12.8441
▁collin	-12.8445
▁layout	-12.8446
been	-12.8453
mad	-12.8454
▁troi	-12.8454
▁logical	-12.8456
▁surrounding	-12.8457
▁duct	-12.8468
▁coaster	-12.8475
ick	-12.8476
70	-12.8477
38	-12.8484
▁rocko	-12.8485
▁novela	-12.8493
▁shoul	-12.8495
▁convention	-12.8495
▁concentrat	-12.8497
▁wu	-12.8499
▁devote	-12.85
▁volunteer	-12.8503
▁deceive	-12.8504
▁fascinat	-12.8506
▁refresh	-12.8507
▁strap	-12.8507
▁ooooh	-12.8509
▁undress	-12.8511
..(	-12.8512
▁hysterical	-12.8513
▁spontaneous	-12.8513
▁visual	-12.8513
▁biological	-12.8513
▁provocative	-12.8513
▁subsequent	-12.8513
▁extensive	-12.8513
▁outlook	-12.8513
▁kimber	-12.8514
▁eternal	-12.8516
▁montgomery	-12.8517
▁telugu	-12.8517
▁50/50	-12.8517
▁arizona	-12.8517
▁autograph	-12.8517
▁badonkadonk	-12.8517
▁bianca	-12.8517
▁cabrera	-12.8517
▁convenience	-12.8517
▁demeanor	-12.8517
▁eccentric	-12.8517
▁energetic	-12.8517
▁gilmour	-12.8517
▁helicopter	-12.8517
▁kajol	-12.8517
▁leopard	-12.8517
▁mcmahon	-12.8517
▁minnesota	-12.8517
▁miscellaneous	-12.8517
▁nostalgic	-12.8517
▁pineapples	-12.8517
▁possibilities	-12.8517
▁profanity	-12.8517
▁punjab	-12.8517
▁rhetorical	-12.8517
▁sasuke	-12.8517
▁shahrukh	-12.8517
▁stryker	-12.8517
▁teletubbies	-12.8517
▁thompson	-12.8517
▁undoubtedly	-12.8517
▁vodka	-12.8517
▁wynonna	-12.8517
▁yamaha	-12.8517
▁bathtub	-12.8517
▁enthusiasm	-12.8517
▁equipment	-12.8517
▁hamburger	-12.8517
▁opponent	-12.8517
▁rollercoaster	-12.8517
▁tweety	-12.8517
▁tyrese	-12.8517
▁coarse	-12.8517
▁femininity	-12.8517
▁identical	-12.8517
▁likelihood	-12.8517
▁multitude	-12.8517
▁kirstie	-12.8517
▁osborne	-12.8517
▁percussion	-12.8517
▁rupert	-12.8517
▁rythm	-12.8517
▁cupcakes	-12.8517
▁frustration	-12.8517
▁campbell	-12.8517
▁chandler	-12.8517
▁chaplin	-12.8517
▁hoffman	-12.8517
▁pollution	-12.8517
▁sprocket	-12.8517
▁detox	-12.8517
▁garcia	-12.8517
▁thurman	-12.8517
▁phonics	-12.8517
▁preoccupied	-12.8517
▁skynyrd	-12.8517
▁toothpaste	-12.8517
▁akward	-12.8517
▁grammer	-12.8517
▁joshua	-12.8517
▁polka	-12.8517
▁psapp	-12.8517
▁approval	-12.8517
▁harvey	-12.8517
▁kindergarten	-12.8517
▁embarrassment	-12.8517
▁oxygen	-12.8517
▁establishment	-12.8517
▁overseas	-12.8517
▁passenger	-12.8517
▁thailand	-12.8517
▁columbus	-12.8517
▁snatch	-12.8517
▁colorado	-12.8517
▁almighty	-12.8517
▁untrustworthy	-12.8517
▁duration	-12.8517
▁1964	-12.8517
▁resturant	-12.8517
▁winmx	-12.8517
▁appreciation	-12.8517
▁psychotic	-12.8517
▁orleans	-12.8517
▁rigged	-12.8517
▁suitcase	-12.8517
▁demento	-12.8517
▁clerk	-12.8517
▁hawkins	-12.8517
▁toolbar	-12.8517
▁executive	-12.8517
▁ferret	-12.8517
▁immortal	-12.8517
▁goldfish	-12.8517
▁gilligan	-12.8517
▁marrige	-12.8517
▁immoral	-12.8517
▁ledger	-12.8517
▁observing	-12.8517
▁chevy	-12.8517
ynyrd	-12.8517
▁rubbing	-12.8517
▁moonlight	-12.8517
▁fantasizing	-12.8517
▁alexander	-12.8517
▁kristen	-12.8517
▁electricity	-12.8518
▁spawn	-12.8518
▁spock	-12.8518
▁latifah	-12.8518
▁expelled	-12.8518
▁promptly	-12.8518
▁gawd	-12.8518
▁exercising	-12.8518
▁hurley	-12.8518
ugged	-12.8518
▁homemaker	-12.8518
▁liberty	-12.8518
▁intersted	-12.8518
donnell	-12.8518
▁collectively	-12.8518
▁recreation	-12.8518
▁ridaz	-12.8518
▁realistically	-12.8518
▁gleda	-12.8518
▁maximum	-12.8518
▁riddance	-12.8518
▁ronnie	-12.8518
▁gordon	-12.8518
▁cagle	-12.8518
▁suspicion	-12.8518
▁responce	-12.8518
▁dissapointed	-12.8518
▁douche	-12.8518
▁distress	-12.8518
▁attachment	-12.8518
▁construct	-12.8519
▁frickin	-12.8519
▁shaft	-12.8519
▁trafficking	-12.8519
▁endearing	-12.8519
▁salesman	-12.8519
▁jules	-12.8519
▁germs	-12.8519
▁spoof	-12.8519
▁arnie	-12.8519
▁2008	-12.8519
▁digging	-12.8519
▁stunk	-12.8519
▁property	-12.8519
▁fornicate	-12.8519
▁fixation	-12.852
▁flushed	-12.852
▁hogan	-12.852
▁maxwell	-12.852
▁axel	-12.852
▁boycott	-12.852
▁replacement	-12.852
▁insurance	-12.852
▁winslet	-12.852
▁bbw	-12.852
▁untrue	-12.852
▁tripped	-12.852
▁hanson	-12.8521
▁shining	-12.8521
▁occurring	-12.8521
▁larson	-12.8521
▁buckley	-12.8521
▁opinon	-12.8521
▁panda	-12.8521
▁oakenf	-12.8521
▁promote	-12.8521
▁conceal	-12.8521
▁jagger	-12.8522
▁insecurity	-12.8522
▁champ	-12.8522
▁clop	-12.8522
▁repulsive	-12.8522
▁yikes	-12.8522
▁stumped	-12.8523
sion	-12.8523
▁campus	-12.8523
▁spencer	-12.8523
▁webbie	-12.8523
▁converter	-12.8523
▁mclean	-12.8523
▁upstairs	-12.8523
▁bragging	-12.8523
▁thirties	-12.8523
▁goodfellas	-12.8523
▁eyebrows	-12.8523
▁denise	-12.8523
▁beggin	-12.8524
▁waddy	-12.8524
▁beutiful	-12.8524
bob	-12.8524
▁perished	-12.8524
▁solving	-12.8524
▁improving	-12.8524
▁intrested	-12.8525
▁briefly	-12.8525
▁protest	-12.8525
▁exclusively	-12.8525
▁sellers	-12.8525
▁regretted	-12.8525
▁punished	-12.8525
▁adopted	-12.8526
▁moist	-12.8526
▁peaches	-12.8526
▁bluebird	-12.8526
▁independence	-12.8526
▁sickness	-12.8526
▁operating	-12.8526
reputable	-12.8526
▁announcer	-12.8526
▁bassist	-12.8526
▁rudy	-12.8527
500,000	-12.8527
▁jaron	-12.8527
▁mencia	-12.8527
▁cabin	-12.8527
▁surf	-12.8527
▁refreshing	-12.8527
▁bloke	-12.8528
▁presentable	-12.8528
▁fitz	-12.8528
▁senseless	-12.8528
▁kimmy	-12.8528
▁convo	-12.8529
▁remade	-12.8529
▁renee	-12.8529
▁entity	-12.8529
▁biceps	-12.853
▁deceived	-12.8531
▁madness	-12.8531
▁shouting	-12.8531
▁chalk	-12.8532
▁rescued	-12.8533
▁perfection	-12.8533
▁bouncer	-12.8534
▁noticeable	-12.8534
▁starbucks	-12.8535
▁mustang	-12.8535
▁coca	-12.8536
▁scripted	-12.8536
▁quitting	-12.8537
▁snort	-12.8537
▁puffy	-12.8538
▁indulge	-12.8538
lewis	-12.8538
▁napa	-12.8538
▁wimp	-12.8539
▁fireman	-12.854
▁exposed	-12.8541
▁extend	-12.8541
▁bjork	-12.8542
▁turkish	-12.8542
▁shakur	-12.8542
▁strategy	-12.8542
▁persian	-12.8542
▁revolution	-12.8542
▁appetite	-12.8542
▁investigation	-12.8542
▁ireland	-12.8542
▁1996	-12.8543
▁abbreviation	-12.8543
▁pubic	-12.8543
▁malaysia	-12.8543
▁suffice	-12.8544
▁horney	-12.8544
▁affected	-12.8544
▁frineds	-12.8545
▁patty	-12.8545
▁repaired	-12.8545
▁bonnie	-12.8545
▁region	-12.8546
▁password	-12.8546
▁eighties	-12.8547
▁accordingly	-12.8547
▁drowning	-12.8547
▁extended	-12.8547
▁thrift	-12.8548
▁swingers	-12.8548
▁whistle	-12.8548
▁platter	-12.8548
▁ernie	-12.8549
▁smartest	-12.8549
▁buisness	-12.8549
▁dining	-12.8549
▁mic	-12.8549
▁rinse	-12.8549
▁gallon	-12.855
▁indiscretions	-12.855
▁permit	-12.8552
▁privately	-12.8552
▁overnight	-12.8552
ema	-12.8552
▁dried	-12.8552
oke	-12.8552
▁homeless	-12.8553
▁bestbuy	-12.8554
▁aim	-12.8554
▁patiently	-12.8554
▁survived	-12.8555
▁googl	-12.8556
▁enhance	-12.8556
▁diapers	-12.8557
▁carlin	-12.8557
▁bingo	-12.8557
▁bulb	-12.8558
▁beck	-12.8558
▁sadie	-12.8558
▁softly	-12.8558
many	-12.8559
▁dmc	-12.8559
▁hives	-12.8559
▁shure	-12.8559
▁badass	-12.856
▁boobies	-12.856
▁lara	-12.8561
▁shooter	-12.8561
▁alexis	-12.8561
43	-12.8561
tchen	-12.8562
▁insensitive	-12.8563
▁1977	-12.8563
▁urinated	-12.8564
▁grams	-12.8565
▁styx	-12.8566
▁hustler	-12.8567
▁beetles	-12.8568
▁aussie	-12.8568
▁mabye	-12.8568
▁participants	-12.8569
▁neyo	-12.8569
▁aw	-12.857
▁urs	-12.8571
▁wwf	-12.8575
▁niether	-12.8575
▁dhoom	-12.8575
▁stoop	-12.8576
▁denying	-12.8577
▁hooray	-12.8577
▁jordan	-12.8577
▁oddly	-12.8577
▁admirer	-12.8577
▁karate	-12.8578
▁heritage	-12.8578
rading	-12.8578
cuse	-12.8578
▁heroine	-12.8579
▁sarcasm	-12.8579
▁uhhh	-12.8581
▁enable	-12.8581
▁belongings	-12.8582
▁judds	-12.8586
▁dresser	-12.8587
▁locally	-12.8588
▁davis	-12.859
▁damaged	-12.8595
▁hangout	-12.8597
▁bounce	-12.8597
▁intro	-12.86
▁sneeze	-12.8601
▁layouts	-12.8602
▁64	-12.8603
▁protecting	-12.8603
▁yayo	-12.8603
▁coasters	-12.8603
▁surroundings	-12.8604
▁graders	-12.8606
▁cra	-12.8607
▁madam	-12.8608
▁reminiscen	-12.8608
▁someplace	-12.8609
▁inexperienced	-12.861
▁vito	-12.8612
▁flashy	-12.8614
▁bland	-12.8614
▁cords	-12.8615
▁ridicule	-12.8615
▁remov	-12.8617
▁sgt	-12.8619
▁brandy	-12.8621
▁sym	-12.8622
▁encouraged	-12.8624
▁cz	-12.8625
▁museums	-12.8627
▁shoud	-12.8629
▁jameson	-12.863
era	-12.863
▁drill	-12.8631
▁studie	-12.8631
▁arrow	-12.8632
▁toooo	-12.8633
▁continual	-12.8634
▁stoned	-12.8634
po	-12.8635
▁46	-12.8635
▁counted	-12.8635
save	-12.8636
▁fax	-12.8642
▁doggie	-12.8644
▁beaten	-12.8647
either	-12.8649
▁runescape	-12.8649
▁substances	-12.8649
▁superstars	-12.865
izza	-12.865
▁intellectual	-12.8651
▁boone	-12.8651
ose	-12.8658
▁haters	-12.8658
▁ea	-12.8659
▁pressur	-12.8661
ently	-12.8661
▁samples	-12.8662
▁seymo	-12.8662
ram	-12.8664
▁communicated	-12.8665
.3	-12.8666
▁continu	-12.8666
cola	-12.8667
?!?!?	-12.8667
▁remarks	-12.867
▁topher	-12.867
▁requirements	-12.8673
▁cord	-12.8673
▁(5	-12.8676
▁screening	-12.868
▁addressed	-12.8681
eki	-12.8683
▁gestures	-12.8684
▁mock	-12.8685
▁!!!!!!	-12.8687
dick	-12.8689
▁ddr	-12.869
▁ivy	-12.869
eye	-12.869
▁.........	-12.8692
heads	-12.8693
▁persona	-12.8693
▁combs	-12.8693
▁incase	-12.8695
▁fears	-12.8695
▁tender	-12.8697
▁foul	-12.8701
▁proven	-12.8701
▁sbc	-12.8703
far	-12.8703
▁retail	-12.8703
▁chik	-12.8703
▁battles	-12.8707
raggle	-12.8709
acial	-12.8711
▁token	-12.8713
ridge	-12.8718
▁stepp	-12.872
...!	-12.872
▁hats	-12.8726
▁ash	-12.8727
▁thumbs	-12.8728
▁imesh	-12.8733
illian	-12.8737
▁burt	-12.8739
nish	-12.8739
▁oven	-12.8741
▁mosh	-12.8741
▁advertisements	-12.8742
▁discern	-12.8742
▁contacted	-12.8744
▁kyo	-12.8744
▁polo	-12.8745
▁hound	-12.8747
▁mona	-12.8755
▁hookers	-12.8757
▁abou	-12.8761
▁:-))	-12.8763
▁pant	-12.8765
▁mmmmm	-12.8766
▁whack	-12.877
▁wright	-12.8773
ility	-12.8775
▁forgetting	-12.8775
▁75	-12.8775
▁ahhh	-12.8782
▁scent	-12.8783
▁thorn	-12.8783
▁perc	-12.8786
▁stats	-12.8795
▁priced	-12.8803
▁lakes	-12.8805
▁jerma	-12.8805
imesh	-12.8808
▁fishy	-12.8814
▁twister	-12.8815
▁zu	-12.8816
▁coloring	-12.8816
▁anser	-12.8818
2-3	-12.8821
▁articles	-12.8823
zer	-12.8826
▁oooo	-12.8833
▁wang	-12.8835
▁depict	-12.8843
▁tendenc	-12.8847
▁catching	-12.8851
▁fetch	-12.8854
▁sexes	-12.8854
▁dud	-12.8864
▁ova	-12.8865
▁classif	-12.8869
ssy	-12.8874
▁tonite	-12.8878
▁theatres	-12.8879
▁pakistani	-12.8886
▁whi	-12.8893
▁pals	-12.8908
▁crows	-12.8909
▁girlie	-12.8911
▁ruth	-12.8915
mr	-12.8918
▁ric	-12.8922
ria	-12.8922
▁ez	-12.8925
▁crust	-12.8927
berry	-12.8929
▁fink	-12.8932
▁eather	-12.8932
▁chins	-12.8945
tive	-12.8954
▁springs	-12.8956
-2	-12.8957
▁fearing	-12.8971
▁nest	-12.8972
▁singin	-12.8982
ray	-12.8986
▁escap	-12.8987
30	-12.8987
▁22.	-12.8988
▁beaut	-12.899
▁pits	-12.8994
▁whil	-12.8994
rantee	-12.8996
▁wher	-12.901
▁luk	-12.9014
▁slash	-12.9015
▁needy	-12.9024
▁wary	-12.9028
▁confrontation	-12.9029
lying	-12.905
▁stroll	-12.9053
▁ringo	-12.9055
▁womans	-12.9063
▁250	-12.9064
▁contests	-12.9065
▁corners	-12.9069
shia	-12.9075
▁awe	-12.9085
▁wnat	-12.9094
▁remakes	-12.9095
mashed	-12.9097
▁accord	-12.9098
▁labelle	-12.9099
▁broom	-12.9101
meet	-12.9106
',	-12.9108
▁scales	-12.9113
▁casey	-12.9126
65	-12.9126
chance	-12.9128
sound	-12.9134
▁colorful	-12.9137
▁challenges	-12.914
▁contacts	-12.9147
dj	-12.9148
▁slo	-12.9148
gatory	-12.9148
answer	-12.9149
▁aspire	-12.9153
▁cancel	-12.9154
911	-12.9155
▁scars	-12.9157
▁trucks	-12.9164
▁shapes	-12.9166
▁od	-12.9168
▁dragons	-12.9178
uttin	-12.9181
such	-12.9184
▁sal	-12.9186
▁icy	-12.9188
▁cups	-12.9193
mi	-12.9195
▁hunk	-12.9195
-----	-12.9197
▁egos	-12.9201
▁leann	-12.9203
▁nup	-12.9206
▁bel	-12.9207
▁makers	-12.9207
▁mace	-12.9209
▁exchang	-12.9213
▁wires	-12.9214
▁tide	-12.9216
120	-12.9218
ature	-12.922
▁rows	-12.9222
▁clicks	-12.9239
rank	-12.924
oy	-12.9244
pen	-12.9246
ug	-12.9247
tter	-12.9248
ran	-12.9248
▁phrases	-12.9261
avage	-12.9263
▁maine	-12.9266
care	-12.9285
▁epiph	-12.9295
▁cran	-12.9295
▁courts	-12.9299
▁smug	-12.9301
ez	-12.9311
idol	-12.9315
▁19.	-12.9316
▁intel	-12.9318
sley	-12.9318
father	-12.9321
▁stall	-12.9325
inal	-12.9327
▁err	-12.9334
jack	-12.9336
water	-12.9338
dream	-12.9338
til	-12.934
▁marge	-12.9349
steve	-12.9351
half	-12.9352
wer	-12.9353
▁answerer	-12.9353
-(	-12.936
ang	-12.9363
▁swan	-12.9364
▁relates	-12.9368
wonder	-12.9374
▁values	-12.938
▁rats	-12.9381
ris	-12.9383
▁30.	-12.9398
▁unprotect	-12.94
essed	-12.94
▁cla	-12.941
▁anne	-12.9414
wild	-12.9414
owing	-12.9416
py	-12.9419
?....	-12.9427
▁ign	-12.9429
▁von	-12.943
ville	-12.943
▁hah	-12.9431
giving	-12.9432
▁heh	-12.9434
▁1979	-12.9443
▁cellul	-12.9457
▁stu	-12.9457
test	-12.9458
contact	-12.9458
whole	-12.9459
wine	-12.9459
▁grows	-12.9459
sick	-12.9467
▁devi	-12.9469
▁ple	-12.9473
▁tradition	-12.9477
▁unit	-12.9485
▁saga	-12.9488
ture	-12.9491
▁rot	-12.9494
obviously	-12.9495
yet	-12.9496
dog	-12.9499
daniel	-12.9501
ep	-12.9504
ferent	-12.9505
ked	-12.9505
cho	-12.9512
▁theresa	-12.9518
▁wis	-12.9519
▁shelly	-12.9522
▁cells	-12.9524
▁thr	-12.9525
ghost	-12.9526
▁sims	-12.9533
▁aslo	-12.9535
▁klu	-12.9536
▁10)	-12.9538
grade	-12.9539
win	-12.9547
seriously	-12.9548
18	-12.9553
▁careers	-12.9554
lation	-12.9558
▁sham	-12.9559
▁afri	-12.9561
▁mamas	-12.9565
rive	-12.9568
example	-12.9575
lient	-12.9579
mouth	-12.9582
▁pause	-12.9582
mas	-12.9586
released	-12.9591
lifting	-12.9591
super	-12.9592
▁600	-12.9607
▁considers	-12.9618
shut	-12.9621
▁8.5	-12.9623
elvis	-12.9623
peace	-12.9627
agged	-12.9628
ooooooooooooooo	-12.9631
▁chronic	-12.9634
▁voo	-12.9639
▁cre	-12.964
featuring	-12.9642
▁trees	-12.9644
writing	-12.9646
singing	-12.9648
eshia	-12.9649
bread	-12.9656
smart	-12.9657
▁29,	-12.9663
charmed	-12.9663
▁maj	-12.9667
▁!!!!!	-12.967
gimme	-12.9674
▁cor	-12.9674
mania	-12.9674
▁kil	-12.9675
jaws	-12.9677
ability	-12.9678
centered	-12.9679
warez	-12.9679
glass	-12.9681
▁hahahahaha	-12.9684
goodluck	-12.9685
▁raid	-12.9689
bugs	-12.969
person	-12.9693
cafe	-12.9696
▁command	-12.9698
▁beta	-12.971
planet	-12.9712
▁wrappe	-12.9713
itch	-12.9725
pages	-12.9727
hem	-12.9729
▁av	-12.9731
-13	-12.9733
usher	-12.9735
babe	-12.9738
chester	-12.9743
yle	-12.9746
vi	-12.9755
csi	-12.9759
2002	-12.9761
▁mimi	-12.9762
▁opt	-12.9762
eating	-12.9763
tan	-12.9767
wave	-12.9767
times	-12.9768
▁temp	-12.978
▁erm	-12.9782
▁wail	-12.9782
▁fanta	-12.9796
chances	-12.9798
standing	-12.9798
▁qui	-12.9806
....(	-12.9813
▁gree	-12.9817
▁straw	-12.9817
▁typ	-12.9821
▁stri	-12.9821
kkk	-12.9821
je	-12.9825
▁8,	-12.9827
▁thigh	-12.9828
▁unles	-12.9832
▁acc	-12.9833
▁gel	-12.9836
▁bodi	-12.9839
▁association	-12.984
▁dwarf	-12.9841
▁crus	-12.9841
yed	-12.9844
▁papers	-12.9848
▁lunatic	-12.985
▁dawg	-12.985
bf	-12.9851
▁kitten	-12.9851
▁villain	-12.9853
▁counsel	-12.9854
▁trader	-12.9858
▁chamber	-12.9859
▁sombod	-12.986
door	-12.9861
▁consequence	-12.9862
▁pistol	-12.9862
▁classmate	-12.9862
▁nipple	-12.9862
▁asshole	-12.9865
▁tourist	-12.9869
ru	-12.9869
▁bowel	-12.9871
▁ci	-12.9871
rapping	-12.9882
▁wookie	-12.9882
▁punctua	-12.9884
▁finals	-12.9885
▁dru	-12.9896
▁judd	-12.9896
▁slick	-12.9897
▁anythin	-12.9898
ages	-12.99
▁grain	-12.9904
▁5'6	-12.9912
▁shade	-12.9915
▁heartbreak	-12.9918
ust	-12.9925
▁runner	-12.9927
▁enlarge	-12.9928
▁prejudice	-12.9929
▁execute	-12.9929
▁humiliate	-12.993
▁..........	-12.993
▁lione	-12.993
vr	-12.9931
bler	-12.9932
▁wong	-12.9937
▁123	-12.9939
▁stimulate	-12.9939
▁discreet	-12.9941
▁unplug	-12.9941
▁essential	-12.9942
icle	-12.9942
ism	-12.9944
▁sparx	-12.9944
▁autumn	-12.9945
▁calendar	-12.9945
▁deceptive	-12.9945
▁divulge	-12.9945
▁jewlery	-12.9945
▁manhattan	-12.9945
▁monotonous	-12.9945
▁nonsensical	-12.9945
▁overprotective	-12.9945
▁oxymoron	-12.9945
▁pompous	-12.9945
▁preposterous	-12.9945
▁rediculous	-12.9945
▁trombone	-12.9945
▁twelfth	-12.9945
▁unethical	-12.9945
▁vacilar	-12.9945
▁vocabulary	-12.9945
▁volkswagen	-12.9945
▁wardrobe	-12.9945
▁ambulance	-12.9945
▁atmosphere	-12.9945
▁mudvayne	-12.9945
▁obtuse	-12.9945
▁receipt	-12.9945
▁sabrina	-12.9945
▁altercation	-12.9945
▁cleavage	-12.9945
▁ensemble	-12.9945
riyaz	-12.9945
▁discomfort	-12.9945
▁emphatic	-12.9945
▁gruesome	-12.9945
▁mcadams	-12.9945
▁calories	-12.9945
▁joseph	-12.9945
▁misunderstood	-12.9945
▁nuclear	-12.9945
▁comunication	-12.9945
▁deuce	-12.9945
▁licence	-12.9945
▁receptive	-12.9945
▁awnser	-12.9945
▁baritone	-12.9945
▁gradually	-12.9945
▁vedder	-12.9945
▁rancid	-12.9945
▁sweden	-12.9945
▁unforgettable	-12.9945
▁livinlifeintheo	-12.9945
▁hillarious	-12.9945
▁century	-12.9945
▁9:00	-12.9945
▁experiance	-12.9945
▁titties	-12.9945
▁parlor	-12.9945
▁chapter	-12.9945
▁1&2	-12.9945
▁bbq	-12.9945
▁swift	-12.9945
▁realationship	-12.9945
▁scarier	-12.9945
▁mcgee	-12.9945
▁hopkins	-12.9945
▁neutral	-12.9945
▁skynard	-12.9945
▁investigating	-12.9945
▁substantial	-12.9945
▁guardian	-12.9945
▁saiyan	-12.9945
▁behaviour	-12.9946
▁admirable	-12.9946
▁1961	-12.9946
▁inspector	-12.9946
▁cheney	-12.9946
▁commission	-12.9946
▁visible	-12.9946
▁oasis	-12.9946
▁massive	-12.9946
▁attatched	-12.9946
▁granny	-12.9946
▁sacred	-12.9946
▁1997	-12.9946
▁flesh	-12.9946
▁slaughter	-12.9946
▁realization	-12.9946
▁mod	-12.9946
▁summary	-12.9946
▁asnwer	-12.9946
▁entice	-12.9946
▁hartman	-12.9946
▁catalog	-12.9946
▁unwritten	-12.9946
▁celebrating	-12.9946
▁immaturity	-12.9946
▁degrade	-12.9946
▁incorporated	-12.9947
▁hewitt	-12.9947
▁speechless	-12.9947
▁cons	-12.9947
▁1-800-	-12.9947
▁vidio	-12.9947
▁technology	-12.9947
▁costner	-12.9947
▁forthright	-12.9947
▁percentage	-12.9947
▁matchbox	-12.9947
▁anticipation	-12.9947
▁atrocious	-12.9947
▁peaceful	-12.9947
▁tremendously	-12.9947
▁overwhelmed	-12.9947
▁untitled	-12.9947
▁introduction	-12.9947
▁shoudl	-12.9947
▁piggy	-12.9947
▁suspense	-12.9947
▁manicure	-12.9948
▁klan	-12.9948
▁choking	-12.9948
▁jeanie	-12.9948
▁multiply	-12.9948
▁documentary	-12.9948
▁rogue	-12.9948
▁babysitting	-12.9948
▁encore	-12.9948
▁uninterested	-12.9948
▁instructed	-12.9948
▁zane	-12.9948
▁somtimes	-12.9948
▁retaliate	-12.9948
▁catherine	-12.9948
▁cringe	-12.9948
▁paperwork	-12.9948
▁mamba	-12.9949
▁rumour	-12.9949
▁plump	-12.9949
▁gravy	-12.9949
▁psychology	-12.9949
▁tacky	-12.9949
▁jeremy	-12.9949
▁misleading	-12.9949
▁kelis	-12.995
▁uptight	-12.995
▁inquiries	-12.995
▁activate	-12.995
▁shakin	-12.995
▁brainwashed	-12.995
▁martha	-12.9951
▁jigga	-12.9951
▁distributed	-12.9951
▁disabled	-12.9951
▁viva	-12.9951
▁popping	-12.9951
▁cheezy	-12.9951
▁accidental	-12.9951
▁goldie	-12.9952
▁deciding	-12.9952
▁exile	-12.9952
▁spicy	-12.9952
▁clothed	-12.9952
▁5'9	-12.9952
▁novacaine	-12.9952
▁kittie	-12.9953
▁mushy	-12.9953
▁fockers	-12.9953
▁degeneres	-12.9953
▁trousers	-12.9953
▁cocoa	-12.9953
▁adage	-12.9954
▁steroids	-12.9954
▁vomited	-12.9954
▁mofo	-12.9954
▁indicating	-12.9954
▁skateboarding	-12.9955
▁starved	-12.9955
centric	-12.9955
▁curry	-12.9956
colonel	-12.9956
▁ditty	-12.9957
tip	-12.9957
▁sandwiches	-12.9957
▁flour	-12.9957
▁everett	-12.9957
▁ackles	-12.9958
20.00	-12.9958
▁screech	-12.9958
▁partially	-12.9958
▁approch	-12.9959
▁stung	-12.9959
▁48	-12.996
▁intensely	-12.996
▁chatted	-12.9961
▁skanky	-12.9961
▁famil	-12.9961
▁stellar	-12.9962
▁moth	-12.9963
▁panty	-12.9964
▁sensible	-12.9965
▁cheapest	-12.9965
▁chunky	-12.9965
▁suave	-12.9965
▁artistic	-12.9965
▁vowels	-12.9965
▁creation	-12.9965
▁displayed	-12.9966
▁pajamas	-12.9966
▁complexion	-12.9966
▁gabrielle	-12.9966
▁raye	-12.9967
▁joc	-12.9967
torrents	-12.9967
▁everynight	-12.9967
▁dishes	-12.9968
▁geniuses	-12.9968
▁confessed	-12.9969
▁512	-12.9969
▁sparky	-12.997
▁bench	-12.997
▁renew	-12.9972
▁smashed	-12.9972
▁overdose	-12.9972
▁agressive	-12.9972
▁insulted	-12.9972
▁pleasur	-12.9973
▁mutually	-12.9973
▁bluntly	-12.9973
▁skeet	-12.9974
▁degraw	-12.9974
▁phony	-12.9974
▁sloppy	-12.9974
▁eurotrip	-12.9974
▁deception	-12.9974
▁dracula	-12.9974
▁menstrua	-12.9974
▁serenity	-12.9974
▁flyleaf	-12.9974
▁caroline	-12.9974
▁gilbert	-12.9974
▁cloppedy	-12.9974
▁speedwagon	-12.9975
▁portman	-12.9975
▁jonathan	-12.9975
▁acdc	-12.9975
▁wildfire	-12.9975
▁surfer	-12.9975
▁expenses	-12.9975
▁exhausted	-12.9975
▁justified	-12.9975
▁export	-12.9975
▁1984	-12.9976
▁startled	-12.9976
▁hotline	-12.9976
▁picard	-12.9976
▁gravitational	-12.9977
▁thnx	-12.9977
▁injure	-12.9977
▁watever	-12.9978
▁attach	-12.9978
▁wheat	-12.9978
▁evaluate	-12.9979
▁customize	-12.9979
▁adhere	-12.9979
stream	-12.9979
▁repuls	-12.998
▁workplace	-12.998
▁overated	-12.998
▁invented	-12.998
▁ploy	-12.9981
▁crazed	-12.9981
▁wot	-12.9981
▁lisp	-12.9982
▁optimal	-12.9982
▁misfits	-12.9982
▁starship	-12.9982
▁doomed	-12.9983
▁nineties	-12.9983
▁quicktime	-12.9983
▁leary	-12.9985
▁endured	-12.9987
▁lilies	-12.9988
▁arranged	-12.9988
▁melanie	-12.999
▁grounded	-12.999
▁exploded	-12.999
▁jill	-12.999
▁everbody	-12.9991
▁meetings	-12.9991
▁indecent	-12.9991
▁richest	-12.9992
▁crashed	-12.9992
▁tabloids	-12.9993
▁gasps	-12.9993
▁runway	-12.9993
▁daycare	-12.9993
▁calmly	-12.9995
▁bullshit	-12.9996
▁reccomend	-12.9997
▁convict	-12.9997
▁frnd	-12.9997
▁cloths	-12.9998
▁scouts	-12.9999
pecially	-13
▁candies	-13
▁mayberry	-13.0001
licity	-13.0003
▁vida	-13.0004
▁revealing	-13.0004
▁colleagues	-13.0006
▁brett	-13.0006
▁comforting	-13.0007
▁heavenly	-13.0007
▁depen	-13.0007
▁omen	-13.0007
▁armpits	-13.0008
▁watts	-13.001
▁abbey	-13.0014
▁wounds	-13.0014
▁coyote	-13.0015
▁thieves	-13.0015
▁armageddon	-13.0015
▁thundercats	-13.0015
▁puppies	-13.0015
▁transformers	-13.0016
▁barbara	-13.0016
▁sylv	-13.0016
▁mojo	-13.0016
▁possessed	-13.0017
▁lit	-13.0017
etera	-13.0019
▁(1	-13.002
▁butler	-13.002
▁hotdogs	-13.0021
▁persistent	-13.0023
winamp	-13.0025
▁dw	-13.0025
▁fright	-13.0025
▁vary	-13.0026
▁wimps	-13.0027
ndition	-13.0028
▁examined	-13.0029
▁incidentally	-13.0031
▁safely	-13.0032
ette	-13.0033
▁scrubs	-13.0034
▁ejaculate	-13.0035
▁jumper	-13.0038
▁sentenced	-13.0039
▁failing	-13.0039
▁slides	-13.0039
▁checkers	-13.004
▁illusions	-13.0046
▁applications	-13.0046
▁inane	-13.0047
quainted	-13.0052
▁rong	-13.0053
▁groom	-13.0054
▁lifehouse	-13.0054
logical	-13.0054
▁clouds	-13.0055
▁becau	-13.0055
▁looney	-13.0056
▁verizon	-13.0056
▁aladdin	-13.0056
▁lucifer	-13.0056
▁350	-13.0058
▁forgiving	-13.0059
▁absorbed	-13.0059
▁nutti	-13.0059
oochie	-13.0062
▁burnt	-13.0063
▁mormon	-13.0067
ko	-13.0068
▁smelled	-13.0068
▁skater	-13.0071
▁tama	-13.0072
▁nba	-13.0073
▁approved	-13.0074
girlfriends	-13.0075
▁painting	-13.0076
▁donnas	-13.0076
▁deck	-13.0083
▁allready	-13.0083
▁carpenters	-13.0086
▁chips	-13.0087
luck	-13.0089
▁getaway	-13.0093
▁ether	-13.0095
▁wilder	-13.0095
hits	-13.0096
▁humping	-13.0099
affe	-13.0102
▁gl	-13.0104
▁controll	-13.0106
▁photoshop	-13.0107
▁anythig	-13.0108
anie	-13.0113
▁imper	-13.0113
▁chatrooms	-13.0114
365	-13.0118
▁makeover	-13.0121
▁lawns	-13.0122
▁enthusiastic	-13.0123
ttle	-13.0125
anger	-13.0125
01	-13.013
▁junkies	-13.0131
▁hina	-13.0131
▁openly	-13.0137
20.	-13.0137
▁pj	-13.0137
curring	-13.0139
▁midgets	-13.014
corporate	-13.014
▁wonderfull	-13.0142
▁ozz	-13.0149
▁fal	-13.0152
indicated	-13.0154
▁nay	-13.0154
▁adored	-13.0157
▁kiddo	-13.0157
▁grader	-13.0159
before	-13.016
▁levi	-13.0162
▁pluck	-13.0163
▁sista	-13.0163
▁whimp	-13.0164
▁rome	-13.0167
course	-13.0167
▁coerce	-13.0171
▁negatives	-13.0177
▁puzzles	-13.018
▁trio	-13.0181
▁sumtime	-13.0182
uroun	-13.0183
ddl	-13.0185
ax	-13.0194
▁insists	-13.0197
▁eps	-13.0202
▁gau	-13.0205
▁webcams	-13.0207
▁giver	-13.0211
pper	-13.0212
▁rained	-13.0213
▁aud	-13.0214
▁drinkin	-13.0214
▁sweeter	-13.0215
▁96	-13.0216
▁2"	-13.0217
▁posteriors	-13.0221
▁haste	-13.0223
obie	-13.0224
▁walke	-13.0224
▁lars	-13.0225
pron	-13.023
7)	-13.023
▁1-10	-13.0231
ppy	-13.0232
▁hotty	-13.0232
lew	-13.0234
▁lend	-13.0235
▁towers	-13.0235
▁exclud	-13.0236
kat	-13.0238
peg	-13.0243
▁discovery	-13.0246
▁nervouse	-13.0247
▁conclusions	-13.0248
▁sw	-13.0249
135	-13.0252
▁bung	-13.0255
▁mil	-13.0264
▁authors	-13.0266
▁eles	-13.0266
ously	-13.0268
▁rani	-13.0268
ology	-13.0271
▁updates	-13.0272
▁notch	-13.0272
ainted	-13.0273
▁nc	-13.0274
▁verb	-13.0276
▁verses	-13.0278
ually	-13.0279
talking	-13.0281
nfl	-13.0283
▁fone	-13.0283
▁koo	-13.0284
▁pipes	-13.0286
01.	-13.0289
▁swat	-13.0289
▁finest	-13.029
▁officers	-13.0294
▁gh	-13.03
▁53	-13.0306
▁divide	-13.0309
▁rash	-13.031
▁shorts	-13.0312
▁resembl	-13.0315
itive	-13.0316
▁wif	-13.032
ghett	-13.0324
▁functions	-13.0324
▁hahah	-13.0327
▁heave	-13.0333
paranoia	-13.0334
▁ordered	-13.0339
▁noses	-13.034
▁attribute	-13.0342
shot	-13.0343
▁ken	-13.0347
▁paths	-13.0348
▁flam	-13.035
▁sling	-13.035
▁herd	-13.035
▁bridges	-13.0352
▁boar	-13.0353
▁shar	-13.0355
▁onions	-13.0358
▁rais	-13.037
100.	-13.0371
▁pms	-13.0374
▁firend	-13.0377
ites	-13.0381
▁vaginas	-13.0382
▁becase	-13.0383
scribe	-13.0384
▁forms	-13.0389
▁increases	-13.0393
▁sheets	-13.0393
▁pinky	-13.0396
tched	-13.0407
▁impregnate	-13.0408
▁gag	-13.0409
▁unti	-13.0415
▁gris	-13.0417
song	-13.0418
▁mines	-13.0421
arch	-13.0422
▁guarantees	-13.0429
▁hyper	-13.0431
▁fewer	-13.0435
tions	-13.0437
▁;-	-13.0438
didn	-13.0439
▁newspapers	-13.0439
▁tomb	-13.0445
▁59	-13.0445
▁instances	-13.0452
29	-13.0456
guess	-13.0456
▁accents	-13.0459
▁1-2	-13.0468
▁seas	-13.047
▁references	-13.0475
▁18-	-13.0475
▁counter	-13.0478
ugly	-13.0479
▁emos	-13.0483
▁allright	-13.0485
▁motl	-13.0488
▁yankees	-13.0491
theres	-13.0496
notes	-13.0498
▁gladiator	-13.0501
ficent	-13.0501
▁outright	-13.0502
▁interviews	-13.0506
▁recon	-13.0507
▁apologized	-13.0509
▁abus	-13.0513
boo	-13.0514
,,,,,	-13.0514
▁ft	-13.0521
pressing	-13.0525
▁oppos	-13.0529
wen	-13.0531
late	-13.0534
▁crushe	-13.0536
▁posses	-13.0544
...;)	-13.0545
ren	-13.0548
!?!	-13.0551
▁cone	-13.0554
▁ferr	-13.0559
▁gil	-13.056
▁ongoing	-13.0562
▁mailing	-13.0564
▁uhhhhhh	-13.0565
▁messin	-13.0566
▁neon	-13.0567
▁ween	-13.0569
▁idols	-13.0572
▁clar	-13.0575
▁shorty	-13.0581
wo	-13.0585
▁rabbits	-13.0585
▁summe	-13.0588
▁dic	-13.0589
▁archi	-13.0592
▁doubting	-13.0595
affy	-13.06
▁oct	-13.06
▁pear	-13.0601
▁directors	-13.0607
could	-13.0614
▁00	-13.0619
story	-13.062
▁outlaw	-13.0624
ened	-13.0626
▁fields	-13.0629
!1	-13.0631
▁hundreds	-13.064
rying	-13.0646
▁admitt	-13.0649
sense	-13.0653
▁mass	-13.0654
▁cables	-13.0656
▁reader	-13.0659
▁jets	-13.066
gavin	-13.0666
▁reports	-13.068
aquin	-13.0681
▁quand	-13.0683
▁cof	-13.0685
▁questioned	-13.0685
▁weary	-13.0687
antly	-13.0691
▁360.	-13.0692
gosh	-13.0702
andra	-13.0715
sbury	-13.0717
ifty	-13.0722
▁summ	-13.0723
▁lowe	-13.0736
▁michaels	-13.0737
eck	-13.0741
ould	-13.0756
ght	-13.0756
▁mul	-13.0757
▁purposes	-13.0763
fringe	-13.0764
▁circula	-13.0774
exist	-13.0782
▁saturdays	-13.0792
▁sid	-13.0794
-25	-13.0796
female	-13.0804
▁mash	-13.0804
▁operas	-13.0806
▁grabs	-13.0812
▁graci	-13.0813
▁27.	-13.0813
▁toilets	-13.0817
▁opp	-13.0818
▁pers	-13.0821
ska	-13.0822
▁cleans	-13.0825
▁inte	-13.0826
▁1998	-13.0826
pose	-13.0827
wit	-13.0827
250	-13.0829
▁rubi	-13.0833
04	-13.0836
▁lea	-13.0845
▁comf	-13.0846
cock	-13.0846
question	-13.0849
artial	-13.085
▁newly	-13.085
yum	-13.0855
▁bolt	-13.086
tial	-13.086
▁fir	-13.0872
▁packs	-13.0882
▁ooo	-13.0883
loved	-13.0885
rew	-13.0889
▁wound	-13.0894
▁viewer	-13.0901
ipping	-13.0904
selves	-13.0909
acho	-13.0911
▁6-	-13.0913
▁sooooooooooooo	-13.0913
job	-13.0917
nto	-13.0929
▁everone	-13.0931
rob	-13.0936
rise	-13.0937
vision	-13.0941
▁dragonb	-13.0942
een	-13.0944
iate	-13.0944
actually	-13.0945
ski	-13.0948
remixed	-13.0951
▁bal	-13.0953
rian	-13.0954
awesome	-13.0955
▁sakes	-13.0957
cent	-13.0957
cky	-13.0962
▁gin	-13.0966
▁makeout	-13.0969
tails	-13.0971
range	-13.0977
▁clo	-13.0979
)(	-13.0982
usually	-13.0982
▁vid	-13.0983
▁ted	-13.0993
▁characterize	-13.0995
jb	-13.1
buy	-13.1012
ause	-13.1013
▁luna	-13.1017
▁shakes	-13.1021
ered	-13.1025
??!!!	-13.1033
001	-13.1036
97	-13.1036
words	-13.1043
▁sponsere	-13.1045
-3	-13.1045
▁fren	-13.1047
▁formula	-13.1047
food	-13.1047
▁hor	-13.1054
▁doens	-13.1055
▁bab	-13.106
▁dreamer	-13.1064
::	-13.1071
▁1989	-13.1076
classic	-13.1086
sen	-13.1095
fine	-13.1096
ore	-13.11
▁dar	-13.1101
amazing	-13.1112
ilty	-13.1119
▁iq	-13.112
▁gees	-13.1123
▁koi	-13.1127
season	-13.1128
▁cruz	-13.1129
3,	-13.1129
▁joint	-13.1131
meaning	-13.1131
log	-13.1131
dreams	-13.1136
road	-13.1145
party	-13.1147
fer	-13.1148
phil	-13.115
roses	-13.1153
ec	-13.1163
tuary	-13.1163
....*	-13.1165
mommy	-13.1165
▁benn	-13.1171
▁dill	-13.1179
▁sweets	-13.118
▁succ	-13.118
gurl	-13.1181
▁reo	-13.1183
:-	-13.1185
mination	-13.1187
▁focuse	-13.1187
▁frend	-13.1188
dirty	-13.1189
▁cho	-13.1197
▁ugh	-13.1197
rio	-13.1199
▁callin	-13.1202
▁icon	-13.1203
hua	-13.1203
▁vist	-13.1209
▁someting	-13.1209
repeat	-13.1223
lipped	-13.1224
ual	-13.1235
▁mush	-13.1237
size	-13.1238
▁nam	-13.1238
▁nov	-13.1239
james	-13.1241
shake	-13.1245
▁homes	-13.1249
headed	-13.1251
tomorrow	-13.1255
▁tops	-13.1256
fed	-13.1256
▁cakes	-13.1264
april	-13.1266
candy	-13.1274
south	-13.1275
▁twi	-13.1275
panic	-13.1278
plz	-13.1278
opened	-13.1278
prison	-13.128
written	-13.1282
▁char	-13.1286
▁reba	-13.129
beyond	-13.1293
▁cy	-13.1299
ders	-13.13
peter	-13.1301
kazaa	-13.1302
▁ku	-13.1307
welcome	-13.1308
booty	-13.1309
ciara	-13.131
santabanta	-13.1313
gave	-13.1315
crash	-13.1315
closer	-13.1317
rance	-13.1319
mobile	-13.1321
10)	-13.1321
edited	-13.1322
ves	-13.1322
devil	-13.1325
blah	-13.1327
launch	-13.1328
▁onion	-13.1328
▁walt	-13.133
images	-13.1331
musicians	-13.1331
bill	-13.1333
sheesh	-13.1335
rip	-13.1336
sut	-13.1339
colored	-13.134
?.....	-13.134
pity	-13.1343
2003	-13.1349
shadow	-13.1349
rid	-13.135
123	-13.1353
▁migh	-13.1354
wayne	-13.1355
nelly	-13.1356
▁yank	-13.1359
coast	-13.1359
▁contemplat	-13.1363
▁damm	-13.1363
driver	-13.1366
▁rol	-13.1366
elf	-13.1368
▁heap	-13.137
hearted	-13.1371
zero	-13.1372
▁chip	-13.1374
▁damie	-13.1374
smells	-13.1374
retro	-13.1375
form	-13.1375
shaw	-13.1378
▁peep	-13.1378
tacy	-13.1379
idk	-13.1381
▁cky	-13.1383
wi	-13.1386
elope	-13.139
▁thingy	-13.1405
digital	-13.1412
joy	-13.1413
demand	-13.1418
▁mater	-13.1419
▁ze	-13.142
▁jin	-13.1427
hmmmm	-13.1432
▁sup	-13.1434
feat	-13.1451
▁handl	-13.1456
ternity	-13.1459
sbc	-13.1465
thug	-13.1474
▁dive	-13.1475
▁kav	-13.1476
▁trac	-13.1481
aries	-13.1486
▁extrem	-13.1487
gate	-13.1494
human	-13.1495
▁maryl	-13.15
▁sto	-13.1503
▁chak	-13.1503
▁elder	-13.1506
▁ejaculation	-13.1507
▁envelope	-13.1507
▁buffalo	-13.1507
▁mushroom	-13.1507
▁sol	-13.1508
▁barrel	-13.1512
▁kangaroo	-13.1516
close	-13.1516
▁dim	-13.1516
▁hypothetical	-13.152
▁attain	-13.1521
▁octave	-13.1521
▁postcard	-13.1521
▁arrangement	-13.1524
▁athlete	-13.1524
▁lesbo	-13.1526
▁muppet	-13.1527
▁boondock	-13.1528
▁characteristic	-13.1528
▁employee	-13.1529
▁float	-13.1529
▁resource	-13.1529
▁22-	-13.153
▁digger	-13.153
▁tactic	-13.153
▁raider	-13.1531
▁hotdog	-13.1533
▁oth	-13.1534
▁mot	-13.1536
▁motive	-13.154
▁hez	-13.1542
▁hormone	-13.1543
▁keepin	-13.1543
▁daft	-13.1543
▁eagle	-13.1546
5,	-13.1549
▁spun	-13.1554
▁nooo	-13.1554
▁connor	-13.1556
▁pp	-13.1561
▁creature	-13.1561
▁beverage	-13.1561
▁quickie	-13.1562
▁greeting	-13.1564
▁reeve	-13.1565
▁:0	-13.1566
▁bootleg	-13.1567
▁glow	-13.1572
▁divorc	-13.1573
lize	-13.1574
▁shold	-13.1576
▁14-	-13.1581
ev	-13.1581
entional	-13.1583
▁glitter	-13.1588
match	-13.1589
▁compose	-13.1591
▁instrumental	-13.1593
▁peach	-13.1594
▁shareaza	-13.1594
▁stil	-13.1595
▁retire	-13.1598
▁arrange	-13.16
▁skateboard	-13.16
▁korea	-13.1601
79	-13.1602
▁whale	-13.1603
▁goggle	-13.1604
▁remarry	-13.1604
utcher	-13.1607
▁publish	-13.1607
▁dismiss	-13.1607
▁explicit	-13.1608
▁permanent	-13.1608
▁telepath	-13.1611
▁criticism	-13.1612
▁dawson	-13.1612
▁satriani	-13.1612
▁abdominal	-13.1612
▁abhishek	-13.1612
▁anastasia	-13.1612
▁apprehensive	-13.1612
▁asterix	-13.1612
▁azkaban	-13.1612
▁biographies	-13.1612
▁bizkit	-13.1612
▁broderick	-13.1612
▁buzzcocks	-13.1612
▁cabbage	-13.1612
▁categorize	-13.1612
▁champagne	-13.1612
▁cleopatra	-13.1612
▁clumsy	-13.1612
▁democracy	-13.1612
▁democrat	-13.1612
▁discouraging	-13.1612
▁dumbledore	-13.1612
▁dwarves	-13.1612
▁enforcement	-13.1612
▁gallagher	-13.1612
▁grenade	-13.1612
▁gypsies	-13.1612
▁hakusho	-13.1612
▁harmonica	-13.1612
▁jericho	-13.1612
▁jolejnik	-13.1612
▁lasagna	-13.1612
▁ledoux	-13.1612
▁lennox	-13.1612
▁literature	-13.1612
▁lubricant	-13.1612
▁magizine	-13.1612
▁matrimony	-13.1612
▁mcgregor	-13.1612
▁mclachlan	-13.1612
▁munsters	-13.1612
▁nemesis	-13.1612
▁obstacle	-13.1612
▁pfeiffer	-13.1612
▁phallus	-13.1612
▁pitchfork	-13.1612
▁poverty	-13.1612
▁protagonist	-13.1612
▁proximity	-13.1612
▁pupils	-13.1612
▁quagmire	-13.1612
▁quantity	-13.1612
▁salvador	-13.1612
▁schwarzenegger	-13.1612
▁seacrest	-13.1612
▁silverstein	-13.1612
▁skeptical	-13.1612
▁spielberg	-13.1612
▁substandard	-13.1612
▁taiwan	-13.1612
▁troggs	-13.1612
▁uckermann	-13.1612
▁unfavorable	-13.1612
▁unkempt	-13.1612
▁unsightly	-13.1612
▁volleyball	-13.1612
▁wyclef	-13.1612
▁yngwie	-13.1612
▁abbott	-13.1612
▁barbeque	-13.1612
▁bristol	-13.1612
▁chimney	-13.1612
▁controvers	-13.1612
▁desparate	-13.1612
▁eastenders	-13.1612
▁ebony	-13.1612
▁indonesia	-13.1612
▁intimidating	-13.1612
▁jeepers	-13.1612
▁maverick	-13.1612
▁miraculous	-13.1612
▁pseudo	-13.1612
▁seductive	-13.1612
▁tommorow	-13.1612
▁zutons	-13.1612
▁(1967)	-13.1612
▁chloe	-13.1612
▁communism	-13.1612
▁enlighten	-13.1612
▁hepburn	-13.1612
▁implied	-13.1612
▁monitor	-13.1612
▁possitive	-13.1612
▁rectum	-13.1612
▁supplies	-13.1612
▁toothbrush	-13.1612
▁institute	-13.1612
▁umbrella	-13.1612
▁unrealistic	-13.1612
▁civilian	-13.1612
▁hudgens	-13.1612
▁piracy	-13.1612
▁repugnant	-13.1612
▁saigon	-13.1612
▁triangle	-13.1612
▁chaotic	-13.1612
▁cheetah	-13.1612
▁integrity	-13.1612
▁mannerisms	-13.1612
▁sprung	-13.1612
▁braxton	-13.1612
▁helium	-13.1612
▁legolas	-13.1612
▁machete	-13.1612
▁ministry	-13.1612
▁splash	-13.1612
▁throttle	-13.1612
▁voila	-13.1612
▁columbine	-13.1612
▁heavily	-13.1612
▁alpine	-13.1612
▁chyna	-13.1612
▁claudia	-13.1612
▁compensation	-13.1612
▁elaine	-13.1612
▁quentin	-13.1612
▁borgir	-13.1612
▁haddaway	-13.1612
▁hdtv	-13.1612
▁irritable	-13.1612
▁pyro	-13.1612
▁salvation	-13.1612
▁senthil	-13.1612
▁ymca	-13.1612
▁darcy	-13.1612
▁inevitable	-13.1612
▁skunk	-13.1612
▁sucessful	-13.1612
▁derriere	-13.1612
▁bluetooth	-13.1612
▁ethnicity	-13.1612
▁lampoon	-13.1612
▁surrender	-13.1612
▁transportation	-13.1612
▁boheme	-13.1612
▁pablo	-13.1612
▁walrus	-13.1612
▁fraud	-13.1612
▁woodstock	-13.1612
▁9/11	-13.1612
▁component	-13.1612
▁crumble	-13.1612
▁eyeliner	-13.1612
▁fresno	-13.1612
▁hiatus	-13.1612
▁sakura	-13.1612
▁swam	-13.1612
▁kuwait	-13.1612
▁mozart	-13.1612
▁scooter	-13.1612
▁crotch	-13.1612
▁liposuction	-13.1612
▁generalization	-13.1612
▁koala	-13.1612
▁padame	-13.1612
▁colossus	-13.1612
▁egyptian	-13.1612
▁kikyo	-13.1612
▁kirsten	-13.1612
▁default	-13.1612
▁earliest	-13.1612
▁haggard	-13.1612
▁investigator	-13.1612
▁stadium	-13.1612
▁venom	-13.1612
▁croft	-13.1612
dramedy	-13.1612
▁lauper	-13.1612
▁sharuk	-13.1612
▁tennessee	-13.1612
▁unruly	-13.1612
▁lambert	-13.1612
▁undecided	-13.1612
▁riddim	-13.1612
▁rowland	-13.1612
▁roxio	-13.1612
▁sparxx	-13.1612
▁austria	-13.1612
▁catnip	-13.1612
▁flintstone	-13.1612
▁resolution	-13.1612
▁candidate	-13.1612
▁displeasure	-13.1612
▁elbow	-13.1612
▁parsons	-13.1612
▁wrinkly	-13.1612
▁hootie	-13.1612
▁stylish	-13.1612
▁1963	-13.1612
▁referencing	-13.1612
▁alaska	-13.1612
▁assemble	-13.1612
▁debbie	-13.1612
▁uncommon	-13.1612
▁5-10	-13.1612
▁cusack	-13.1612
▁initiative	-13.1612
▁collage	-13.1612
▁disreputable	-13.1612
▁nascar	-13.1612
▁cherries	-13.1612
▁rozi	-13.1612
▁discontinue	-13.1612
▁hurried	-13.1612
▁facade	-13.1612
▁representative	-13.1612
▁connelly	-13.1612
▁tootsie	-13.1612
▁wallflowers	-13.1612
▁discusting	-13.1612
▁attainable	-13.1612
▁squeezing	-13.1612
▁undertones	-13.1612
▁mixture	-13.1612
▁stimulating	-13.1612
▁pudding	-13.1612
▁redux	-13.1612
▁springfield	-13.1612
▁charity	-13.1612
▁keaton	-13.1612
▁violation	-13.1612
▁pinned	-13.1612
▁convincing	-13.1612
▁fancies	-13.1612
▁lachey	-13.1612
▁chapelle	-13.1612
▁embarrased	-13.1612
▁nigel	-13.1612
▁camron	-13.1613
▁casper	-13.1613
▁empathy	-13.1613
▁josie	-13.1613
▁shonen	-13.1613
▁tickling	-13.1613
▁paddle	-13.1613
▁icecream	-13.1613
▁homophobic	-13.1613
▁swimmer	-13.1613
▁konw	-13.1613
▁epps	-13.1613
▁pixar	-13.1613
▁apology	-13.1613
▁cemetery	-13.1613
▁clearwater	-13.1613
verdale	-13.1613
▁lonesome	-13.1613
▁cunning	-13.1613
▁flashdance	-13.1613
▁chopra	-13.1613
▁involvement	-13.1613
▁governor	-13.1613
▁racism	-13.1613
▁shaq	-13.1613
▁unborn	-13.1613
▁cakewalk	-13.1613
▁remarkable	-13.1613
▁hairbrush	-13.1613
▁stargate	-13.1613
▁iverson	-13.1613
▁milby	-13.1613
▁swap	-13.1613
▁stallone	-13.1613
▁palace	-13.1613
▁shortnin	-13.1613
▁denver	-13.1613
▁ancient	-13.1613
▁ariel	-13.1613
▁advantageous	-13.1613
▁atkins	-13.1613
▁grouch	-13.1613
▁crossword	-13.1613
▁cashier	-13.1613
▁exceed	-13.1614
▁pinoy	-13.1614
▁summerland	-13.1614
▁striving	-13.1614
▁undies	-13.1614
▁edonkey	-13.1614
▁diverse	-13.1614
▁womanizer	-13.1614
▁collar	-13.1614
▁5'7	-13.1614
▁(1982)	-13.1614
▁gentry	-13.1614
▁viewpoint	-13.1614
▁blender	-13.1614
▁basil	-13.1614
▁2:00	-13.1614
▁helsing	-13.1614
▁turnips	-13.1614
▁psychologist	-13.1614
▁biatch	-13.1615
▁permitted	-13.1615
▁horribly	-13.1615
▁attendance	-13.1615
▁sketch	-13.1615
▁werewolf	-13.1615
▁fountain	-13.1615
▁bellboy	-13.1615
▁brody	-13.1615
▁absent	-13.1615
▁flair	-13.1615
▁speculate	-13.1615
▁philip	-13.1615
▁variation	-13.1615
▁hmv	-13.1615
▁loathing	-13.1615
▁isabella	-13.1615
▁rewind	-13.1615
▁harris	-13.1615
▁collie	-13.1615
▁overpriced	-13.1615
▁looove	-13.1615
▁televison	-13.1616
▁krall	-13.1616
▁medina	-13.1616
▁keller	-13.1616
▁groomed	-13.1616
▁misspelled	-13.1616
▁misery	-13.1616
▁seprate	-13.1617
▁eternally	-13.1617
▁droopy	-13.1617
▁pillar	-13.1617
▁posture	-13.1617
▁interpretation	-13.1617
orious	-13.1617
▁palmer	-13.1617
▁chapin	-13.1617
▁impaired	-13.1617
▁robbery	-13.1618
▁affordable	-13.1618
▁glenn	-13.1618
▁weekdays	-13.1618
▁humanity	-13.1618
avista	-13.1618
▁mathers	-13.1618
▁desprate	-13.1618
▁fondling	-13.1618
▁dazed	-13.1618
vard	-13.1618
▁cuban	-13.1619
▁inaccurate	-13.1619
▁deity	-13.1619
▁lager	-13.1619
mohan	-13.1619
ziz	-13.1619
▁flock	-13.1619
▁whacked	-13.162
▁considerably	-13.162
▁rodeo	-13.162
▁eko	-13.162
▁unconditionally	-13.162
▁dipping	-13.162
▁vowed	-13.162
▁prolong	-13.162
▁dismounts	-13.1621
▁seger	-13.1621
▁marines	-13.1621
▁plucking	-13.1621
▁caveat	-13.1622
▁buzzard	-13.1622
▁watcher	-13.1622
▁mraz	-13.1622
▁prue	-13.1622
▁stork	-13.1622
▁maxx	-13.1623
▁designer	-13.1624
▁fuc	-13.1624
▁disappeared	-13.1624
▁conquered	-13.1624
▁conversate	-13.1625
krishnan	-13.1625
▁ncis	-13.1625
▁assigned	-13.1625
▁timid	-13.1625
▁mustache	-13.1625
5.99	-13.1625
▁ache	-13.1626
▁noisy	-13.1626
unda	-13.1626
▁alamo	-13.1626
igans	-13.1626
▁kaza	-13.1627
▁hammet	-13.1628
▁bravery	-13.1628
▁kristin	-13.1628
▁hurtful	-13.1629
▁rubio	-13.1629
▁seriousness	-13.1629
▁predicted	-13.1629
▁hooters	-13.1629
▁waldo	-13.1629
▁barton	-13.163
▁corey	-13.163
▁intently	-13.1631
▁lala	-13.1631
▁dragost	-13.1632
▁installed	-13.1632
▁butthead	-13.1632
▁braids	-13.1632
▁examin	-13.1633
▁numan	-13.1633
▁unconv	-13.1633
▁staples	-13.1633
▁snores	-13.1633
▁denim	-13.1633
▁invested	-13.1633
▁fading	-13.1634
▁thrilling	-13.1634
▁wonka	-13.1634
▁upbringing	-13.1634
▁sumthing	-13.1635
▁rewarding	-13.1635
▁contin	-13.1636
▁flutter	-13.1636
▁crickets	-13.1637
▁cummings	-13.1637
▁christine	-13.1637
▁golddiggers	-13.1637
▁troublesome	-13.1637
▁bom	-13.1637
▁mindset	-13.1638
▁uhhhh	-13.1638
▁patriot	-13.1638
▁belonging	-13.1639
▁icp	-13.1639
▁piper	-13.1639
▁calculate	-13.164
▁claws	-13.1641
▁terminated	-13.1643
▁handel	-13.1643
▁sheila	-13.1644
▁phish	-13.1644
▁pretentious	-13.1645
▁playmate	-13.1645
▁moose	-13.1645
▁morbid	-13.1645
▁survival	-13.1646
▁unforgiven	-13.1646
▁heartbreaker	-13.1646
▁nevertheless	-13.1646
▁watermelon	-13.1646
▁unfortunatly	-13.1646
▁gratification	-13.1646
▁fingernails	-13.1646
▁dwelling	-13.1647
chat	-13.1647
▁professionally	-13.1647
▁primal	-13.1647
frenz	-13.1647
▁disneyland	-13.1648
▁undercover	-13.1648
▁megan	-13.1648
▁flyers	-13.1648
▁minority	-13.1648
▁crowded	-13.1648
▁145	-13.1648
▁effectively	-13.1648
▁halftime	-13.1649
▁tickled	-13.1649
▁wacko	-13.1649
▁damp	-13.1649
▁rockhead	-13.165
▁yaoi	-13.165
▁deceit	-13.165
▁corinn	-13.165
▁witches	-13.1651
▁westlife	-13.1651
▁blake	-13.1651
▁ounces	-13.1652
▁underdog	-13.1652
▁climbing	-13.1652
▁judgemental	-13.1653
▁blushing	-13.1653
▁stale	-13.1653
▁robbers	-13.1654
▁sadist	-13.1654
▁tulips	-13.1654
▁kink	-13.1656
▁frigg	-13.1656
▁luch	-13.1656
▁presentation	-13.1658
▁symboliz	-13.1658
▁eyez	-13.1658
▁attacked	-13.1659
▁aslan	-13.1661
▁blackmore	-13.1662
▁stimulated	-13.1662
▁weeps	-13.1662
lil	-13.1662
▁pretenders	-13.1663
▁timmy	-13.1663
▁programmes	-13.1664
▁joss	-13.1664
▁lad	-13.1665
▁winky	-13.1665
▁givin	-13.1665
▁consistent	-13.1665
▁mastered	-13.1666
▁demanding	-13.1666
▁beau	-13.1667
▁diva	-13.1667
▁revivals	-13.1668
▁screenplays	-13.1669
▁madame	-13.1669
▁viper	-13.167
▁sorrow	-13.167
▁separately	-13.167
sky	-13.167
▁bargain	-13.167
▁dowload	-13.1671
▁damon	-13.1672
▁fps	-13.1673
▁tits	-13.1674
▁sax	-13.1674
▁whales	-13.1674
[...]
